{
  "version": "1.0",
  "truncation": null,
  "padding": null,
  "added_tokens": [
    {
      "id": 0,
      "content": "<PAD>",
      "single_word": false,
      "lstrip": false,
      "rstrip": false,
      "normalized": false,
      "special": true
    },
    {
      "id": 1,
      "content": "<UNK>",
      "single_word": false,
      "lstrip": false,
      "rstrip": false,
      "normalized": false,
      "special": true
    },
    {
      "id": 2,
      "content": "<BOS>",
      "single_word": false,
      "lstrip": false,
      "rstrip": false,
      "normalized": false,
      "special": true
    },
    {
      "id": 3,
      "content": "<EOS>",
      "single_word": false,
      "lstrip": false,
      "rstrip": false,
      "normalized": false,
      "special": true
    }
  ],
  "normalizer": null,
  "pre_tokenizer": {
    "type": "Whitespace"
  },
  "post_processor": null,
  "decoder": null,
  "model": {
    "type": "BPE",
    "dropout": null,
    "unk_token": "<UNK>",
    "continuing_subword_prefix": null,
    "end_of_word_suffix": null,
    "fuse_unk": false,
    "byte_fallback": false,
    "ignore_merges": false,
    "vocab": {
      "<PAD>": 0,
      "<UNK>": 1,
      "<BOS>": 2,
      "<EOS>": 3,
      "!": 4,
      "\"": 5,
      "#": 6,
      "$": 7,
      "%": 8,
      "&": 9,
      "'": 10,
      "(": 11,
      ")": 12,
      "*": 13,
      "+": 14,
      ",": 15,
      "-": 16,
      ".": 17,
      "/": 18,
      "0": 19,
      "1": 20,
      "2": 21,
      "3": 22,
      "4": 23,
      "5": 24,
      "6": 25,
      "7": 26,
      "8": 27,
      "9": 28,
      ":": 29,
      ";": 30,
      "<": 31,
      "=": 32,
      ">": 33,
      "?": 34,
      "@": 35,
      "A": 36,
      "B": 37,
      "C": 38,
      "D": 39,
      "E": 40,
      "F": 41,
      "G": 42,
      "H": 43,
      "I": 44,
      "J": 45,
      "K": 46,
      "L": 47,
      "M": 48,
      "N": 49,
      "O": 50,
      "P": 51,
      "Q": 52,
      "R": 53,
      "S": 54,
      "T": 55,
      "U": 56,
      "V": 57,
      "W": 58,
      "X": 59,
      "Y": 60,
      "Z": 61,
      "[": 62,
      "]": 63,
      "^": 64,
      "_": 65,
      "`": 66,
      "a": 67,
      "b": 68,
      "c": 69,
      "d": 70,
      "e": 71,
      "f": 72,
      "g": 73,
      "h": 74,
      "i": 75,
      "j": 76,
      "k": 77,
      "l": 78,
      "m": 79,
      "n": 80,
      "o": 81,
      "p": 82,
      "q": 83,
      "r": 84,
      "s": 85,
      "t": 86,
      "u": 87,
      "v": 88,
      "w": 89,
      "x": 90,
      "y": 91,
      "z": 92,
      "{": 93,
      "|": 94,
      "}": 95,
      "~": 96,
      "£": 97,
      "¥": 98,
      "©": 99,
      "«": 100,
      "®": 101,
      "°": 102,
      "²": 103,
      "¶": 104,
      "·": 105,
      "¹": 106,
      "»": 107,
      "¼": 108,
      "½": 109,
      "¾": 110,
      "¿": 111,
      "Á": 112,
      "Å": 113,
      "Ç": 114,
      "È": 115,
      "É": 116,
      "Ö": 117,
      "×": 118,
      "à": 119,
      "á": 120,
      "ã": 121,
      "ä": 122,
      "æ": 123,
      "ç": 124,
      "è": 125,
      "é": 126,
      "ê": 127,
      "ë": 128,
      "ì": 129,
      "í": 130,
      "î": 131,
      "ï": 132,
      "ð": 133,
      "ñ": 134,
      "ó": 135,
      "ô": 136,
      "ö": 137,
      "÷": 138,
      "ø": 139,
      "ù": 140,
      "ü": 141,
      "ā": 142,
      "ē": 143,
      "ě": 144,
      "ī": 145,
      "ō": 146,
      "œ": 147,
      "š": 148,
      "ʾ": 149,
      "ˎ": 150,
      "˙": 151,
      "̀": 152,
      "·": 153,
      "Σ": 154,
      "Τ": 155,
      "α": 156,
      "β": 157,
      "γ": 158,
      "δ": 159,
      "θ": 160,
      "π": 161,
      "φ": 162,
      "ω": 163,
      "В": 164,
      "а": 165,
      "к": 166,
      "л": 167,
      "ы": 168,
      "س": 169,
      "ع": 170,
      "ل": 171,
      "प": 172,
      "म": 173,
      "र": 174,
      "े": 175,
      "्": 176,
      "ย": 177,
      "ร": 178,
      "อ": 179,
      "่": 180,
      "ḥ": 181,
      "ẹ": 182,
      "ọ": 183,
      "​": 184,
      "–": 185,
      "—": 186,
      "―": 187,
      "‘": 188,
      "’": 189,
      "“": 190,
      "”": 191,
      "•": 192,
      "…": 193,
      "‧": 194,
      "‰": 195,
      "⁰": 196,
      "€": 197,
      "℃": 198,
      "™": 199,
      "Ⅰ": 200,
      "Ⅱ": 201,
      "∇": 202,
      "−": 203,
      "∙": 204,
      "⊙": 205,
      "⋯": 206,
      "─": 207,
      "▪": 208,
      "♡": 209,
      "♪": 210,
      "♫": 211,
      "✔": 212,
      "、": 213,
      "。": 214,
      "〈": 215,
      "〉": 216,
      "《": 217,
      "》": 218,
      "「": 219,
      "」": 220,
      "『": 221,
      "』": 222,
      "【": 223,
      "】": 224,
      "〔": 225,
      "〕": 226,
      "こ": 227,
      "た": 228,
      "に": 229,
      "の": 230,
      "は": 231,
      "ふ": 232,
      "へ": 233,
      "や": 234,
      "よ": 235,
      "ム": 236,
      "・": 237,
      "ㄧ": 238,
      "一": 239,
      "丁": 240,
      "七": 241,
      "万": 242,
      "丈": 243,
      "三": 244,
      "上": 245,
      "下": 246,
      "不": 247,
      "与": 248,
      "丐": 249,
      "丑": 250,
      "专": 251,
      "且": 252,
      "世": 253,
      "丘": 254,
      "丙": 255,
      "业": 256,
      "丛": 257,
      "东": 258,
      "丝": 259,
      "丢": 260,
      "两": 261,
      "严": 262,
      "並": 263,
      "丧": 264,
      "个": 265,
      "丫": 266,
      "中": 267,
      "丰": 268,
      "串": 269,
      "临": 270,
      "丶": 271,
      "丸": 272,
      "丹": 273,
      "为": 274,
      "主": 275,
      "丽": 276,
      "举": 277,
      "乃": 278,
      "久": 279,
      "么": 280,
      "义": 281,
      "之": 282,
      "乌": 283,
      "乍": 284,
      "乎": 285,
      "乏": 286,
      "乐": 287,
      "乒": 288,
      "乓": 289,
      "乔": 290,
      "乖": 291,
      "乘": 292,
      "乙": 293,
      "九": 294,
      "乞": 295,
      "也": 296,
      "习": 297,
      "乡": 298,
      "书": 299,
      "买": 300,
      "乱": 301,
      "乳": 302,
      "乾": 303,
      "了": 304,
      "予": 305,
      "争": 306,
      "事": 307,
      "二": 308,
      "于": 309,
      "亏": 310,
      "云": 311,
      "互": 312,
      "五": 313,
      "井": 314,
      "亘": 315,
      "亚": 316,
      "些": 317,
      "亞": 318,
      "亟": 319,
      "亡": 320,
      "亢": 321,
      "交": 322,
      "亥": 323,
      "亦": 324,
      "产": 325,
      "亨": 326,
      "亩": 327,
      "享": 328,
      "京": 329,
      "亭": 330,
      "亮": 331,
      "亲": 332,
      "亵": 333,
      "人": 334,
      "亿": 335,
      "什": 336,
      "仁": 337,
      "仃": 338,
      "仄": 339,
      "仅": 340,
      "仆": 341,
      "仇": 342,
      "今": 343,
      "介": 344,
      "仍": 345,
      "从": 346,
      "仑": 347,
      "仓": 348,
      "仔": 349,
      "仕": 350,
      "他": 351,
      "仗": 352,
      "付": 353,
      "仙": 354,
      "代": 355,
      "令": 356,
      "以": 357,
      "仨": 358,
      "仪": 359,
      "们": 360,
      "仰": 361,
      "仲": 362,
      "件": 363,
      "价": 364,
      "任": 365,
      "份": 366,
      "仿": 367,
      "企": 368,
      "伊": 369,
      "伍": 370,
      "伎": 371,
      "伏": 372,
      "伐": 373,
      "休": 374,
      "众": 375,
      "优": 376,
      "伙": 377,
      "会": 378,
      "伞": 379,
      "伟": 380,
      "传": 381,
      "伤": 382,
      "伦": 383,
      "伪": 384,
      "伫": 385,
      "伯": 386,
      "估": 387,
      "伴": 388,
      "伶": 389,
      "伸": 390,
      "伺": 391,
      "似": 392,
      "伽": 393,
      "佃": 394,
      "但": 395,
      "佈": 396,
      "位": 397,
      "低": 398,
      "住": 399,
      "佐": 400,
      "佑": 401,
      "体": 402,
      "何": 403,
      "佘": 404,
      "余": 405,
      "佛": 406,
      "作": 407,
      "佝": 408,
      "你": 409,
      "佣": 410,
      "佩": 411,
      "佬": 412,
      "佯": 413,
      "佰": 414,
      "佳": 415,
      "佷": 416,
      "佻": 417,
      "佼": 418,
      "使": 419,
      "侃": 420,
      "侄": 421,
      "來": 422,
      "侈": 423,
      "例": 424,
      "侍": 425,
      "侏": 426,
      "侗": 427,
      "供": 428,
      "依": 429,
      "侠": 430,
      "侣": 431,
      "侥": 432,
      "侦": 433,
      "侧": 434,
      "侨": 435,
      "侩": 436,
      "侪": 437,
      "侬": 438,
      "侮": 439,
      "侯": 440,
      "侵": 441,
      "便": 442,
      "係": 443,
      "促": 444,
      "俄": 445,
      "俊": 446,
      "俎": 447,
      "俏": 448,
      "俐": 449,
      "俑": 450,
      "俗": 451,
      "俘": 452,
      "俚": 453,
      "保": 454,
      "信": 455,
      "俢": 456,
      "俨": 457,
      "俩": 458,
      "俬": 459,
      "俭": 460,
      "修": 461,
      "俯": 462,
      "俱": 463,
      "俳": 464,
      "俺": 465,
      "俾": 466,
      "倆": 467,
      "個": 468,
      "倌": 469,
      "倍": 470,
      "們": 471,
      "倒": 472,
      "倔": 473,
      "倘": 474,
      "候": 475,
      "倚": 476,
      "借": 477,
      "倡": 478,
      "倦": 479,
      "倩": 480,
      "倪": 481,
      "倭": 482,
      "债": 483,
      "值": 484,
      "倾": 485,
      "假": 486,
      "偉": 487,
      "偎": 488,
      "偏": 489,
      "偕": 490,
      "做": 491,
      "停": 492,
      "健": 493,
      "側": 494,
      "偶": 495,
      "偷": 496,
      "偻": 497,
      "偿": 498,
      "傀": 499,
      "傅": 500,
      "傍": 501,
      "傢": 502,
      "储": 503,
      "催": 504,
      "傲": 505,
      "傳": 506,
      "傻": 507,
      "像": 508,
      "僚": 509,
      "僧": 510,
      "僵": 511,
      "價": 512,
      "僻": 513,
      "儆": 514,
      "儒": 515,
      "儘": 516,
      "儡": 517,
      "優": 518,
      "儿": 519,
      "兀": 520,
      "允": 521,
      "元": 522,
      "兄": 523,
      "充": 524,
      "兆": 525,
      "先": 526,
      "光": 527,
      "克": 528,
      "免": 529,
      "兑": 530,
      "兒": 531,
      "兔": 532,
      "党": 533,
      "兜": 534,
      "兢": 535,
      "入": 536,
      "內": 537,
      "全": 538,
      "八": 539,
      "公": 540,
      "六": 541,
      "兮": 542,
      "兰": 543,
      "共": 544,
      "关": 545,
      "兴": 546,
      "兵": 547,
      "其": 548,
      "具": 549,
      "典": 550,
      "兹": 551,
      "养": 552,
      "兼": 553,
      "兽": 554,
      "冀": 555,
      "内": 556,
      "冈": 557,
      "冉": 558,
      "册": 559,
      "再": 560,
      "冏": 561,
      "冒": 562,
      "冕": 563,
      "冗": 564,
      "写": 565,
      "军": 566,
      "农": 567,
      "冠": 568,
      "冢": 569,
      "冤": 570,
      "冥": 571,
      "冪": 572,
      "冬": 573,
      "冯": 574,
      "冰": 575,
      "冲": 576,
      "决": 577,
      "况": 578,
      "冶": 579,
      "冷": 580,
      "冻": 581,
      "冽": 582,
      "净": 583,
      "凄": 584,
      "准": 585,
      "凉": 586,
      "凋": 587,
      "凌": 588,
      "减": 589,
      "凑": 590,
      "凖": 591,
      "凛": 592,
      "凝": 593,
      "几": 594,
      "凡": 595,
      "凤": 596,
      "凭": 597,
      "凯": 598,
      "凰": 599,
      "凱": 600,
      "凳": 601,
      "凶": 602,
      "凸": 603,
      "凹": 604,
      "出": 605,
      "击": 606,
      "函": 607,
      "凿": 608,
      "刀": 609,
      "刁": 610,
      "刃": 611,
      "分": 612,
      "切": 613,
      "刊": 614,
      "刋": 615,
      "刍": 616,
      "刑": 617,
      "划": 618,
      "列": 619,
      "刘": 620,
      "则": 621,
      "刚": 622,
      "创": 623,
      "初": 624,
      "删": 625,
      "判": 626,
      "別": 627,
      "刨": 628,
      "利": 629,
      "别": 630,
      "刮": 631,
      "到": 632,
      "制": 633,
      "刷": 634,
      "券": 635,
      "刹": 636,
      "刺": 637,
      "刻": 638,
      "刽": 639,
      "剀": 640,
      "剁": 641,
      "剂": 642,
      "剃": 643,
      "則": 644,
      "削": 645,
      "剌": 646,
      "前": 647,
      "剐": 648,
      "剑": 649,
      "剔": 650,
      "剖": 651,
      "剛": 652,
      "剥": 653,
      "剧": 654,
      "剩": 655,
      "剪": 656,
      "副": 657,
      "割": 658,
      "創": 659,
      "剽": 660,
      "剿": 661,
      "劈": 662,
      "力": 663,
      "劝": 664,
      "办": 665,
      "功": 666,
      "加": 667,
      "务": 668,
      "劣": 669,
      "动": 670,
      "助": 671,
      "努": 672,
      "劫": 673,
      "励": 674,
      "劲": 675,
      "劳": 676,
      "劵": 677,
      "劾": 678,
      "势": 679,
      "勃": 680,
      "勇": 681,
      "勉": 682,
      "勋": 683,
      "勒": 684,
      "動": 685,
      "勘": 686,
      "勞": 687,
      "募": 688,
      "勢": 689,
      "勤": 690,
      "勺": 691,
      "勾": 692,
      "勿": 693,
      "匀": 694,
      "包": 695,
      "匆": 696,
      "匈": 697,
      "匍": 698,
      "匐": 699,
      "匕": 700,
      "化": 701,
      "北": 702,
      "匙": 703,
      "匝": 704,
      "匠": 705,
      "匡": 706,
      "匣": 707,
      "匪": 708,
      "匮": 709,
      "匱": 710,
      "匹": 711,
      "区": 712,
      "医": 713,
      "匾": 714,
      "匿": 715,
      "區": 716,
      "十": 717,
      "千": 718,
      "升": 719,
      "午": 720,
      "卉": 721,
      "半": 722,
      "卍": 723,
      "华": 724,
      "协": 725,
      "卑": 726,
      "卒": 727,
      "卓": 728,
      "協": 729,
      "单": 730,
      "卖": 731,
      "南": 732,
      "博": 733,
      "卜": 734,
      "占": 735,
      "卡": 736,
      "卢": 737,
      "卤": 738,
      "卦": 739,
      "卧": 740,
      "卫": 741,
      "卯": 742,
      "印": 743,
      "危": 744,
      "即": 745,
      "却": 746,
      "卵": 747,
      "卷": 748,
      "卸": 749,
      "卻": 750,
      "卿": 751,
      "厂": 752,
      "厄": 753,
      "厅": 754,
      "历": 755,
      "厉": 756,
      "压": 757,
      "厌": 758,
      "厕": 759,
      "厘": 760,
      "厚": 761,
      "原": 762,
      "厢": 763,
      "厥": 764,
      "厦": 765,
      "厨": 766,
      "厩": 767,
      "厮": 768,
      "去": 769,
      "县": 770,
      "参": 771,
      "參": 772,
      "又": 773,
      "叉": 774,
      "及": 775,
      "友": 776,
      "双": 777,
      "反": 778,
      "发": 779,
      "叔": 780,
      "取": 781,
      "受": 782,
      "变": 783,
      "叙": 784,
      "叛": 785,
      "叟": 786,
      "叠": 787,
      "口": 788,
      "古": 789,
      "句": 790,
      "另": 791,
      "叨": 792,
      "叩": 793,
      "只": 794,
      "叫": 795,
      "召": 796,
      "叭": 797,
      "叮": 798,
      "可": 799,
      "台": 800,
      "史": 801,
      "右": 802,
      "叶": 803,
      "号": 804,
      "司": 805,
      "叹": 806,
      "叼": 807,
      "叽": 808,
      "吁": 809,
      "吃": 810,
      "各": 811,
      "吆": 812,
      "合": 813,
      "吉": 814,
      "吊": 815,
      "吋": 816,
      "同": 817,
      "名": 818,
      "后": 819,
      "吏": 820,
      "吐": 821,
      "向": 822,
      "吓": 823,
      "吔": 824,
      "吕": 825,
      "吖": 826,
      "吗": 827,
      "君": 828,
      "吝": 829,
      "吞": 830,
      "吟": 831,
      "吠": 832,
      "否": 833,
      "吧": 834,
      "吨": 835,
      "吩": 836,
      "含": 837,
      "听": 838,
      "吭": 839,
      "吮": 840,
      "启": 841,
      "吱": 842,
      "吴": 843,
      "吵": 844,
      "吶": 845,
      "吸": 846,
      "吹": 847,
      "吻": 848,
      "吼": 849,
      "吽": 850,
      "吾": 851,
      "呀": 852,
      "呃": 853,
      "呆": 854,
      "呈": 855,
      "告": 856,
      "呎": 857,
      "呐": 858,
      "呓": 859,
      "呕": 860,
      "呗": 861,
      "员": 862,
      "呛": 863,
      "呜": 864,
      "呢": 865,
      "呤": 866,
      "呦": 867,
      "周": 868,
      "呯": 869,
      "呱": 870,
      "味": 871,
      "呵": 872,
      "呸": 873,
      "呻": 874,
      "呼": 875,
      "命": 876,
      "咀": 877,
      "咂": 878,
      "咄": 879,
      "咆": 880,
      "咋": 881,
      "和": 882,
      "咎": 883,
      "咏": 884,
      "咐": 885,
      "咒": 886,
      "咔": 887,
      "咕": 888,
      "咖": 889,
      "咙": 890,
      "咚": 891,
      "咝": 892,
      "咣": 893,
      "咦": 894,
      "咧": 895,
      "咨": 896,
      "咩": 897,
      "咪": 898,
      "咫": 899,
      "咬": 900,
      "咯": 901,
      "咱": 902,
      "咳": 903,
      "咸": 904,
      "咻": 905,
      "咽": 906,
      "哀": 907,
      "品": 908,
      "哄": 909,
      "哆": 910,
      "哇": 911,
      "哈": 912,
      "哉": 913,
      "哌": 914,
      "响": 915,
      "哎": 916,
      "哐": 917,
      "哑": 918,
      "哒": 919,
      "哔": 920,
      "哗": 921,
      "哝": 922,
      "哞": 923,
      "哟": 924,
      "哥": 925,
      "哦": 926,
      "哧": 927,
      "哨": 928,
      "哩": 929,
      "哪": 930,
      "哭": 931,
      "哮": 932,
      "哲": 933,
      "哺": 934,
      "哼": 935,
      "哽": 936,
      "唁": 937,
      "唆": 938,
      "唇": 939,
      "唉": 940,
      "唏": 941,
      "唐": 942,
      "唑": 943,
      "唔": 944,
      "唛": 945,
      "唠": 946,
      "唤": 947,
      "唧": 948,
      "唬": 949,
      "售": 950,
      "唯": 951,
      "唰": 952,
      "唱": 953,
      "唵": 954,
      "唷": 955,
      "唾": 956,
      "啁": 957,
      "啃": 958,
      "啄": 959,
      "商": 960,
      "啉": 961,
      "啊": 962,
      "問": 963,
      "啐": 964,
      "啓": 965,
      "啕": 966,
      "啜": 967,
      "啡": 968,
      "啤": 969,
      "啥": 970,
      "啦": 971,
      "啧": 972,
      "啪": 973,
      "啬": 974,
      "啮": 975,
      "啰": 976,
      "啵": 977,
      "啶": 978,
      "啷": 979,
      "啸": 980,
      "啼": 981,
      "啾": 982,
      "喀": 983,
      "喂": 984,
      "喃": 985,
      "善": 986,
      "喇": 987,
      "喈": 988,
      "喉": 989,
      "喊": 990,
      "喋": 991,
      "喏": 992,
      "喑": 993,
      "喔": 994,
      "喘": 995,
      "喙": 996,
      "喜": 997,
      "喝": 998,
      "喧": 999,
      "喬": 1000,
      "單": 1001,
      "喱": 1002,
      "喳": 1003,
      "喵": 1004,
      "喷": 1005,
      "喹": 1006,
      "喻": 1007,
      "喽": 1008,
      "嗅": 1009,
      "嗎": 1010,
      "嗐": 1011,
      "嗑": 1012,
      "嗒": 1013,
      "嗓": 1014,
      "嗔": 1015,
      "嗖": 1016,
      "嗙": 1017,
      "嗜": 1018,
      "嗝": 1019,
      "嗞": 1020,
      "嗡": 1021,
      "嗣": 1022,
      "嗤": 1023,
      "嗦": 1024,
      "嗨": 1025,
      "嗪": 1026,
      "嗬": 1027,
      "嗯": 1028,
      "嗳": 1029,
      "嗷": 1030,
      "嗽": 1031,
      "嘀": 1032,
      "嘈": 1033,
      "嘉": 1034,
      "嘌": 1035,
      "嘎": 1036,
      "嘗": 1037,
      "嘘": 1038,
      "嘛": 1039,
      "嘞": 1040,
      "嘟": 1041,
      "嘣": 1042,
      "嘤": 1043,
      "嘧": 1044,
      "嘭": 1045,
      "嘱": 1046,
      "嘲": 1047,
      "嘴": 1048,
      "嘶": 1049,
      "嘻": 1050,
      "嘿": 1051,
      "噁": 1052,
      "噎": 1053,
      "噗": 1054,
      "噘": 1055,
      "噙": 1056,
      "噜": 1057,
      "噢": 1058,
      "噤": 1059,
      "器": 1060,
      "噩": 1061,
      "噪": 1062,
      "噬": 1063,
      "噱": 1064,
      "噶": 1065,
      "噻": 1066,
      "噼": 1067,
      "嚅": 1068,
      "嚎": 1069,
      "嚏": 1070,
      "嚒": 1071,
      "嚓": 1072,
      "嚣": 1073,
      "嚮": 1074,
      "嚯": 1075,
      "嚷": 1076,
      "嚼": 1077,
      "囊": 1078,
      "囔": 1079,
      "囗": 1080,
      "囚": 1081,
      "四": 1082,
      "回": 1083,
      "因": 1084,
      "团": 1085,
      "団": 1086,
      "囤": 1087,
      "囧": 1088,
      "囫": 1089,
      "园": 1090,
      "困": 1091,
      "囱": 1092,
      "围": 1093,
      "囵": 1094,
      "囹": 1095,
      "固": 1096,
      "国": 1097,
      "图": 1098,
      "囿": 1099,
      "圃": 1100,
      "圄": 1101,
      "圆": 1102,
      "圈": 1103,
      "國": 1104,
      "圍": 1105,
      "圜": 1106,
      "土": 1107,
      "圣": 1108,
      "在": 1109,
      "圭": 1110,
      "地": 1111,
      "圳": 1112,
      "场": 1113,
      "圾": 1114,
      "址": 1115,
      "坂": 1116,
      "均": 1117,
      "坊": 1118,
      "坍": 1119,
      "坎": 1120,
      "坏": 1121,
      "坐": 1122,
      "坑": 1123,
      "块": 1124,
      "坚": 1125,
      "坛": 1126,
      "坝": 1127,
      "坞": 1128,
      "坟": 1129,
      "坠": 1130,
      "坡": 1131,
      "坤": 1132,
      "坦": 1133,
      "坨": 1134,
      "坩": 1135,
      "坪": 1136,
      "坯": 1137,
      "坳": 1138,
      "坷": 1139,
      "坼": 1140,
      "垂": 1141,
      "垃": 1142,
      "垄": 1143,
      "型": 1144,
      "垒": 1145,
      "垛": 1146,
      "垠": 1147,
      "垢": 1148,
      "垣": 1149,
      "垦": 1150,
      "垩": 1151,
      "垫": 1152,
      "垮": 1153,
      "埂": 1154,
      "埃": 1155,
      "埋": 1156,
      "城": 1157,
      "埔": 1158,
      "埙": 1159,
      "埚": 1160,
      "域": 1161,
      "埸": 1162,
      "培": 1163,
      "基": 1164,
      "堂": 1165,
      "堆": 1166,
      "堇": 1167,
      "堊": 1168,
      "堑": 1169,
      "堕": 1170,
      "堡": 1171,
      "堤": 1172,
      "堪": 1173,
      "堰": 1174,
      "報": 1175,
      "場": 1176,
      "堵": 1177,
      "塌": 1178,
      "塑": 1179,
      "塔": 1180,
      "塘": 1181,
      "塚": 1182,
      "塞": 1183,
      "塩": 1184,
      "填": 1185,
      "境": 1186,
      "墅": 1187,
      "墉": 1188,
      "墒": 1189,
      "墓": 1190,
      "墙": 1191,
      "增": 1192,
      "墟": 1193,
      "墨": 1194,
      "墩": 1195,
      "壁": 1196,
      "壑": 1197,
      "壕": 1198,
      "壘": 1199,
      "壞": 1200,
      "壤": 1201,
      "士": 1202,
      "壬": 1203,
      "壮": 1204,
      "声": 1205,
      "壳": 1206,
      "壶": 1207,
      "壹": 1208,
      "处": 1209,
      "备": 1210,
      "复": 1211,
      "夏": 1212,
      "夕": 1213,
      "外": 1214,
      "夙": 1215,
      "多": 1216,
      "夜": 1217,
      "够": 1218,
      "夠": 1219,
      "夢": 1220,
      "大": 1221,
      "天": 1222,
      "太": 1223,
      "夫": 1224,
      "夭": 1225,
      "央": 1226,
      "夯": 1227,
      "失": 1228,
      "头": 1229,
      "夷": 1230,
      "夸": 1231,
      "夹": 1232,
      "夺": 1233,
      "奂": 1234,
      "奄": 1235,
      "奇": 1236,
      "奈": 1237,
      "奉": 1238,
      "奋": 1239,
      "奎": 1240,
      "奏": 1241,
      "契": 1242,
      "奔": 1243,
      "奕": 1244,
      "奖": 1245,
      "套": 1246,
      "奚": 1247,
      "奠": 1248,
      "奢": 1249,
      "奥": 1250,
      "奧": 1251,
      "奮": 1252,
      "女": 1253,
      "奴": 1254,
      "奶": 1255,
      "奸": 1256,
      "她": 1257,
      "好": 1258,
      "如": 1259,
      "妃": 1260,
      "妄": 1261,
      "妆": 1262,
      "妇": 1263,
      "妈": 1264,
      "妊": 1265,
      "妒": 1266,
      "妓": 1267,
      "妖": 1268,
      "妙": 1269,
      "妞": 1270,
      "妠": 1271,
      "妥": 1272,
      "妨": 1273,
      "妩": 1274,
      "妪": 1275,
      "妮": 1276,
      "妲": 1277,
      "妳": 1278,
      "妹": 1279,
      "妻": 1280,
      "妾": 1281,
      "姆": 1282,
      "姊": 1283,
      "始": 1284,
      "姐": 1285,
      "姑": 1286,
      "姓": 1287,
      "委": 1288,
      "姗": 1289,
      "姚": 1290,
      "姜": 1291,
      "姥": 1292,
      "姦": 1293,
      "姨": 1294,
      "姬": 1295,
      "姻": 1296,
      "姿": 1297,
      "威": 1298,
      "娃": 1299,
      "娄": 1300,
      "娅": 1301,
      "娆": 1302,
      "娇": 1303,
      "娓": 1304,
      "娘": 1305,
      "娜": 1306,
      "娠": 1307,
      "娣": 1308,
      "娥": 1309,
      "娩": 1310,
      "娱": 1311,
      "娴": 1312,
      "娶": 1313,
      "娼": 1314,
      "婆": 1315,
      "婉": 1316,
      "婊": 1317,
      "婚": 1318,
      "婪": 1319,
      "婭": 1320,
      "婴": 1321,
      "婶": 1322,
      "婷": 1323,
      "婿": 1324,
      "媒": 1325,
      "媚": 1326,
      "媛": 1327,
      "媞": 1328,
      "媲": 1329,
      "媳": 1330,
      "媾": 1331,
      "嫁": 1332,
      "嫂": 1333,
      "嫉": 1334,
      "嫌": 1335,
      "嫖": 1336,
      "嫩": 1337,
      "嬉": 1338,
      "嬗": 1339,
      "嬴": 1340,
      "孀": 1341,
      "子": 1342,
      "孑": 1343,
      "孔": 1344,
      "孕": 1345,
      "字": 1346,
      "存": 1347,
      "孙": 1348,
      "孚": 1349,
      "孛": 1350,
      "孜": 1351,
      "孝": 1352,
      "孟": 1353,
      "孢": 1354,
      "季": 1355,
      "孤": 1356,
      "学": 1357,
      "孩": 1358,
      "孪": 1359,
      "孰": 1360,
      "孱": 1361,
      "孵": 1362,
      "學": 1363,
      "孺": 1364,
      "孽": 1365,
      "宁": 1366,
      "它": 1367,
      "宅": 1368,
      "宇": 1369,
      "守": 1370,
      "安": 1371,
      "宋": 1372,
      "完": 1373,
      "宏": 1374,
      "宕": 1375,
      "宗": 1376,
      "官": 1377,
      "宙": 1378,
      "定": 1379,
      "宛": 1380,
      "宜": 1381,
      "宝": 1382,
      "实": 1383,
      "宠": 1384,
      "审": 1385,
      "客": 1386,
      "宣": 1387,
      "室": 1388,
      "宪": 1389,
      "宫": 1390,
      "宮": 1391,
      "宰": 1392,
      "害": 1393,
      "宴": 1394,
      "宵": 1395,
      "家": 1396,
      "容": 1397,
      "宼": 1398,
      "宽": 1399,
      "宾": 1400,
      "宿": 1401,
      "寂": 1402,
      "寄": 1403,
      "密": 1404,
      "寇": 1405,
      "富": 1406,
      "寐": 1407,
      "寒": 1408,
      "寓": 1409,
      "寝": 1410,
      "寞": 1411,
      "察": 1412,
      "寡": 1413,
      "寢": 1414,
      "寥": 1415,
      "實": 1416,
      "寨": 1417,
      "寮": 1418,
      "寰": 1419,
      "寸": 1420,
      "对": 1421,
      "寺": 1422,
      "寻": 1423,
      "导": 1424,
      "寿": 1425,
      "封": 1426,
      "射": 1427,
      "将": 1428,
      "將": 1429,
      "尉": 1430,
      "尊": 1431,
      "尋": 1432,
      "對": 1433,
      "小": 1434,
      "少": 1435,
      "尓": 1436,
      "尔": 1437,
      "尖": 1438,
      "尘": 1439,
      "尙": 1440,
      "尚": 1441,
      "尝": 1442,
      "尤": 1443,
      "尧": 1444,
      "尬": 1445,
      "就": 1446,
      "尴": 1447,
      "尸": 1448,
      "尹": 1449,
      "尺": 1450,
      "尼": 1451,
      "尽": 1452,
      "尾": 1453,
      "尿": 1454,
      "局": 1455,
      "屁": 1456,
      "层": 1457,
      "居": 1458,
      "屈": 1459,
      "屉": 1460,
      "届": 1461,
      "屋": 1462,
      "屌": 1463,
      "屎": 1464,
      "屏": 1465,
      "屑": 1466,
      "展": 1467,
      "属": 1468,
      "屠": 1469,
      "屡": 1470,
      "屣": 1471,
      "層": 1472,
      "履": 1473,
      "屯": 1474,
      "山": 1475,
      "屹": 1476,
      "屿": 1477,
      "岀": 1478,
      "岁": 1479,
      "岂": 1480,
      "岌": 1481,
      "岐": 1482,
      "岑": 1483,
      "岔": 1484,
      "岖": 1485,
      "岗": 1486,
      "岚": 1487,
      "岛": 1488,
      "岡": 1489,
      "岩": 1490,
      "岬": 1491,
      "岭": 1492,
      "岳": 1493,
      "岸": 1494,
      "峋": 1495,
      "峙": 1496,
      "峡": 1497,
      "峦": 1498,
      "峨": 1499,
      "峭": 1500,
      "峰": 1501,
      "峻": 1502,
      "崇": 1503,
      "崎": 1504,
      "崔": 1505,
      "崖": 1506,
      "崙": 1507,
      "崛": 1508,
      "崩": 1509,
      "崭": 1510,
      "崴": 1511,
      "崽": 1512,
      "嵌": 1513,
      "嵴": 1514,
      "嶙": 1515,
      "巅": 1516,
      "巍": 1517,
      "川": 1518,
      "州": 1519,
      "巡": 1520,
      "巢": 1521,
      "工": 1522,
      "左": 1523,
      "巧": 1524,
      "巨": 1525,
      "巩": 1526,
      "巫": 1527,
      "差": 1528,
      "己": 1529,
      "已": 1530,
      "巳": 1531,
      "巴": 1532,
      "巷": 1533,
      "巾": 1534,
      "巿": 1535,
      "币": 1536,
      "市": 1537,
      "布": 1538,
      "帅": 1539,
      "帆": 1540,
      "师": 1541,
      "希": 1542,
      "帐": 1543,
      "帑": 1544,
      "帕": 1545,
      "帖": 1546,
      "帘": 1547,
      "帙": 1548,
      "帚": 1549,
      "帛": 1550,
      "帜": 1551,
      "帝": 1552,
      "带": 1553,
      "帧": 1554,
      "師": 1555,
      "席": 1556,
      "帮": 1557,
      "帶": 1558,
      "帷": 1559,
      "常": 1560,
      "帼": 1561,
      "帽": 1562,
      "幂": 1563,
      "幄": 1564,
      "幅": 1565,
      "幌": 1566,
      "幔": 1567,
      "幕": 1568,
      "幡": 1569,
      "幢": 1570,
      "幫": 1571,
      "干": 1572,
      "平": 1573,
      "年": 1574,
      "并": 1575,
      "幸": 1576,
      "幹": 1577,
      "幺": 1578,
      "幻": 1579,
      "幼": 1580,
      "幽": 1581,
      "幾": 1582,
      "广": 1583,
      "庄": 1584,
      "庆": 1585,
      "庇": 1586,
      "床": 1587,
      "序": 1588,
      "庐": 1589,
      "库": 1590,
      "应": 1591,
      "底": 1592,
      "店": 1593,
      "庙": 1594,
      "庚": 1595,
      "府": 1596,
      "庞": 1597,
      "废": 1598,
      "庥": 1599,
      "度": 1600,
      "座": 1601,
      "庭": 1602,
      "庵": 1603,
      "庶": 1604,
      "康": 1605,
      "庸": 1606,
      "廉": 1607,
      "廊": 1608,
      "廓": 1609,
      "廖": 1610,
      "延": 1611,
      "廷": 1612,
      "建": 1613,
      "开": 1614,
      "异": 1615,
      "弃": 1616,
      "弄": 1617,
      "弈": 1618,
      "弊": 1619,
      "弋": 1620,
      "式": 1621,
      "弑": 1622,
      "弓": 1623,
      "引": 1624,
      "弗": 1625,
      "弘": 1626,
      "弛": 1627,
      "弟": 1628,
      "张": 1629,
      "弥": 1630,
      "弦": 1631,
      "弧": 1632,
      "弩": 1633,
      "弭": 1634,
      "弯": 1635,
      "弱": 1636,
      "張": 1637,
      "強": 1638,
      "弹": 1639,
      "强": 1640,
      "归": 1641,
      "当": 1642,
      "录": 1643,
      "彗": 1644,
      "彙": 1645,
      "形": 1646,
      "彤": 1647,
      "彦": 1648,
      "彩": 1649,
      "彪": 1650,
      "彬": 1651,
      "彭": 1652,
      "彰": 1653,
      "影": 1654,
      "彷": 1655,
      "役": 1656,
      "彻": 1657,
      "彼": 1658,
      "往": 1659,
      "征": 1660,
      "径": 1661,
      "待": 1662,
      "很": 1663,
      "徉": 1664,
      "徊": 1665,
      "律": 1666,
      "後": 1667,
      "徐": 1668,
      "徒": 1669,
      "得": 1670,
      "徘": 1671,
      "徙": 1672,
      "徜": 1673,
      "從": 1674,
      "御": 1675,
      "徤": 1676,
      "徨": 1677,
      "復": 1678,
      "循": 1679,
      "微": 1680,
      "徳": 1681,
      "徵": 1682,
      "德": 1683,
      "徽": 1684,
      "心": 1685,
      "必": 1686,
      "忆": 1687,
      "忌": 1688,
      "忍": 1689,
      "忏": 1690,
      "忐": 1691,
      "忑": 1692,
      "忒": 1693,
      "忖": 1694,
      "志": 1695,
      "忘": 1696,
      "忙": 1697,
      "忠": 1698,
      "忡": 1699,
      "忧": 1700,
      "快": 1701,
      "忱": 1702,
      "念": 1703,
      "忽": 1704,
      "忿": 1705,
      "怀": 1706,
      "态": 1707,
      "怂": 1708,
      "怅": 1709,
      "怆": 1710,
      "怎": 1711,
      "怒": 1712,
      "怔": 1713,
      "怕": 1714,
      "怖": 1715,
      "怜": 1716,
      "思": 1717,
      "怠": 1718,
      "怡": 1719,
      "急": 1720,
      "怦": 1721,
      "性": 1722,
      "怨": 1723,
      "怪": 1724,
      "怯": 1725,
      "怵": 1726,
      "总": 1727,
      "怼": 1728,
      "恃": 1729,
      "恋": 1730,
      "恍": 1731,
      "恐": 1732,
      "恒": 1733,
      "恕": 1734,
      "恙": 1735,
      "恢": 1736,
      "恣": 1737,
      "恤": 1738,
      "恨": 1739,
      "恩": 1740,
      "恪": 1741,
      "恫": 1742,
      "恬": 1743,
      "恭": 1744,
      "息": 1745,
      "恰": 1746,
      "恳": 1747,
      "恶": 1748,
      "恸": 1749,
      "恺": 1750,
      "恻": 1751,
      "恼": 1752,
      "恿": 1753,
      "悄": 1754,
      "悉": 1755,
      "悍": 1756,
      "悔": 1757,
      "悖": 1758,
      "悚": 1759,
      "悟": 1760,
      "悠": 1761,
      "患": 1762,
      "悦": 1763,
      "您": 1764,
      "悬": 1765,
      "悯": 1766,
      "悲": 1767,
      "悴": 1768,
      "悸": 1769,
      "悼": 1770,
      "情": 1771,
      "惆": 1772,
      "惊": 1773,
      "惋": 1774,
      "惑": 1775,
      "惕": 1776,
      "惘": 1777,
      "惚": 1778,
      "惜": 1779,
      "惟": 1780,
      "惠": 1781,
      "惦": 1782,
      "惧": 1783,
      "惨": 1784,
      "惩": 1785,
      "惫": 1786,
      "惬": 1787,
      "惭": 1788,
      "惮": 1789,
      "惯": 1790,
      "惰": 1791,
      "想": 1792,
      "惴": 1793,
      "惶": 1794,
      "惹": 1795,
      "惺": 1796,
      "愁": 1797,
      "愄": 1798,
      "愈": 1799,
      "愉": 1800,
      "意": 1801,
      "愕": 1802,
      "愚": 1803,
      "愛": 1804,
      "感": 1805,
      "愠": 1806,
      "愣": 1807,
      "愤": 1808,
      "愧": 1809,
      "愫": 1810,
      "愿": 1811,
      "慈": 1812,
      "慌": 1813,
      "慎": 1814,
      "慑": 1815,
      "慕": 1816,
      "慢": 1817,
      "慧": 1818,
      "慨": 1819,
      "慰": 1820,
      "慵": 1821,
      "慷": 1822,
      "憋": 1823,
      "憎": 1824,
      "憔": 1825,
      "憧": 1826,
      "憨": 1827,
      "憩": 1828,
      "憬": 1829,
      "憾": 1830,
      "懂": 1831,
      "懈": 1832,
      "應": 1833,
      "懊": 1834,
      "懑": 1835,
      "懒": 1836,
      "懦": 1837,
      "懵": 1838,
      "戈": 1839,
      "戊": 1840,
      "戎": 1841,
      "戏": 1842,
      "成": 1843,
      "我": 1844,
      "戒": 1845,
      "戕": 1846,
      "或": 1847,
      "战": 1848,
      "戚": 1849,
      "戛": 1850,
      "戟": 1851,
      "截": 1852,
      "戮": 1853,
      "戰": 1854,
      "戲": 1855,
      "戳": 1856,
      "戴": 1857,
      "戶": 1858,
      "户": 1859,
      "戾": 1860,
      "房": 1861,
      "所": 1862,
      "扁": 1863,
      "扇": 1864,
      "扈": 1865,
      "扉": 1866,
      "手": 1867,
      "才": 1868,
      "扎": 1869,
      "扑": 1870,
      "扒": 1871,
      "打": 1872,
      "扔": 1873,
      "托": 1874,
      "扛": 1875,
      "扣": 1876,
      "执": 1877,
      "扩": 1878,
      "扪": 1879,
      "扫": 1880,
      "扬": 1881,
      "扭": 1882,
      "扮": 1883,
      "扯": 1884,
      "扰": 1885,
      "扳": 1886,
      "扶": 1887,
      "批": 1888,
      "扼": 1889,
      "找": 1890,
      "承": 1891,
      "技": 1892,
      "抄": 1893,
      "抉": 1894,
      "把": 1895,
      "抑": 1896,
      "抒": 1897,
      "抓": 1898,
      "投": 1899,
      "抖": 1900,
      "抗": 1901,
      "折": 1902,
      "抚": 1903,
      "抛": 1904,
      "抠": 1905,
      "抡": 1906,
      "抢": 1907,
      "护": 1908,
      "报": 1909,
      "抨": 1910,
      "披": 1911,
      "抬": 1912,
      "抱": 1913,
      "抵": 1914,
      "抹": 1915,
      "抻": 1916,
      "押": 1917,
      "抽": 1918,
      "拂": 1919,
      "拄": 1920,
      "担": 1921,
      "拆": 1922,
      "拇": 1923,
      "拈": 1924,
      "拉": 1925,
      "拋": 1926,
      "拌": 1927,
      "拍": 1928,
      "拎": 1929,
      "拐": 1930,
      "拒": 1931,
      "拓": 1932,
      "拔": 1933,
      "拖": 1934,
      "拗": 1935,
      "拘": 1936,
      "拙": 1937,
      "拚": 1938,
      "招": 1939,
      "拜": 1940,
      "拟": 1941,
      "拢": 1942,
      "拣": 1943,
      "拥": 1944,
      "拦": 1945,
      "拧": 1946,
      "拨": 1947,
      "择": 1948,
      "括": 1949,
      "拭": 1950,
      "拮": 1951,
      "拯": 1952,
      "拱": 1953,
      "拳": 1954,
      "拴": 1955,
      "拷": 1956,
      "拼": 1957,
      "拽": 1958,
      "拾": 1959,
      "拿": 1960,
      "持": 1961,
      "挂": 1962,
      "指": 1963,
      "按": 1964,
      "挐": 1965,
      "挑": 1966,
      "挖": 1967,
      "挚": 1968,
      "挛": 1969,
      "挝": 1970,
      "挞": 1971,
      "挟": 1972,
      "挠": 1973,
      "挡": 1974,
      "挣": 1975,
      "挤": 1976,
      "挥": 1977,
      "挨": 1978,
      "挪": 1979,
      "挫": 1980,
      "振": 1981,
      "挲": 1982,
      "挹": 1983,
      "挺": 1984,
      "挽": 1985,
      "捂": 1986,
      "捅": 1987,
      "捆": 1988,
      "捉": 1989,
      "捋": 1990,
      "捍": 1991,
      "捎": 1992,
      "捏": 1993,
      "捐": 1994,
      "捕": 1995,
      "捜": 1996,
      "捞": 1997,
      "损": 1998,
      "捡": 1999,
      "换": 2000,
      "捣": 2001,
      "捧": 2002,
      "据": 2003,
      "捱": 2004,
      "捶": 2005,
      "捷": 2006,
      "掀": 2007,
      "掂": 2008,
      "掇": 2009,
      "授": 2010,
      "掉": 2011,
      "掌": 2012,
      "掏": 2013,
      "掐": 2014,
      "排": 2015,
      "掖": 2016,
      "掘": 2017,
      "掠": 2018,
      "採": 2019,
      "探": 2020,
      "掣": 2021,
      "接": 2022,
      "控": 2023,
      "推": 2024,
      "掩": 2025,
      "措": 2026,
      "掬": 2027,
      "掮": 2028,
      "掰": 2029,
      "掳": 2030,
      "掷": 2031,
      "掸": 2032,
      "掺": 2033,
      "揄": 2034,
      "揉": 2035,
      "揍": 2036,
      "描": 2037,
      "提": 2038,
      "插": 2039,
      "握": 2040,
      "揣": 2041,
      "揩": 2042,
      "揪": 2043,
      "揭": 2044,
      "援": 2045,
      "揶": 2046,
      "揽": 2047,
      "搀": 2048,
      "搁": 2049,
      "搂": 2050,
      "搅": 2051,
      "搋": 2052,
      "搏": 2053,
      "搐": 2054,
      "搓": 2055,
      "搔": 2056,
      "搜": 2057,
      "搞": 2058,
      "搡": 2059,
      "搦": 2060,
      "搪": 2061,
      "搬": 2062,
      "搭": 2063,
      "携": 2064,
      "搽": 2065,
      "摁": 2066,
      "摄": 2067,
      "摆": 2068,
      "摇": 2069,
      "摈": 2070,
      "摊": 2071,
      "摒": 2072,
      "摔": 2073,
      "摘": 2074,
      "摞": 2075,
      "摟": 2076,
      "摧": 2077,
      "摩": 2078,
      "摰": 2079,
      "摸": 2080,
      "摹": 2081,
      "摺": 2082,
      "撂": 2083,
      "撅": 2084,
      "撇": 2085,
      "撑": 2086,
      "撒": 2087,
      "撕": 2088,
      "撞": 2089,
      "撤": 2090,
      "撩": 2091,
      "撫": 2092,
      "撬": 2093,
      "播": 2094,
      "撮": 2095,
      "撰": 2096,
      "撵": 2097,
      "撷": 2098,
      "撸": 2099,
      "撼": 2100,
      "擂": 2101,
      "擅": 2102,
      "操": 2103,
      "擎": 2104,
      "擒": 2105,
      "擘": 2106,
      "據": 2107,
      "擞": 2108,
      "擤": 2109,
      "擦": 2110,
      "攀": 2111,
      "攒": 2112,
      "攘": 2113,
      "攥": 2114,
      "攫": 2115,
      "支": 2116,
      "收": 2117,
      "攸": 2118,
      "改": 2119,
      "攻": 2120,
      "放": 2121,
      "政": 2122,
      "故": 2123,
      "效": 2124,
      "敌": 2125,
      "敎": 2126,
      "敏": 2127,
      "救": 2128,
      "敖": 2129,
      "教": 2130,
      "敛": 2131,
      "敝": 2132,
      "敞": 2133,
      "敢": 2134,
      "散": 2135,
      "敦": 2136,
      "敬": 2137,
      "数": 2138,
      "敲": 2139,
      "整": 2140,
      "敷": 2141,
      "數": 2142,
      "文": 2143,
      "斋": 2144,
      "斐": 2145,
      "斑": 2146,
      "斓": 2147,
      "斗": 2148,
      "料": 2149,
      "斜": 2150,
      "斟": 2151,
      "斡": 2152,
      "斤": 2153,
      "斥": 2154,
      "斧": 2155,
      "斩": 2156,
      "断": 2157,
      "斯": 2158,
      "新": 2159,
      "方": 2160,
      "於": 2161,
      "施": 2162,
      "旁": 2163,
      "旅": 2164,
      "旋": 2165,
      "旎": 2166,
      "族": 2167,
      "旖": 2168,
      "旗": 2169,
      "无": 2170,
      "既": 2171,
      "日": 2172,
      "旦": 2173,
      "旧": 2174,
      "旨": 2175,
      "早": 2176,
      "旬": 2177,
      "旭": 2178,
      "旮": 2179,
      "旯": 2180,
      "旱": 2181,
      "时": 2182,
      "旷": 2183,
      "旺": 2184,
      "昂": 2185,
      "昆": 2186,
      "昇": 2187,
      "昌": 2188,
      "明": 2189,
      "昏": 2190,
      "易": 2191,
      "昔": 2192,
      "昙": 2193,
      "星": 2194,
      "映": 2195,
      "春": 2196,
      "昧": 2197,
      "昨": 2198,
      "昭": 2199,
      "是": 2200,
      "昰": 2201,
      "昴": 2202,
      "昵": 2203,
      "昼": 2204,
      "显": 2205,
      "時": 2206,
      "晃": 2207,
      "晋": 2208,
      "晒": 2209,
      "晓": 2210,
      "晕": 2211,
      "晖": 2212,
      "晚": 2213,
      "晤": 2214,
      "晦": 2215,
      "晨": 2216,
      "普": 2217,
      "景": 2218,
      "晰": 2219,
      "晴": 2220,
      "晶": 2221,
      "晷": 2222,
      "智": 2223,
      "晾": 2224,
      "暂": 2225,
      "暄": 2226,
      "暇": 2227,
      "暑": 2228,
      "暖": 2229,
      "暗": 2230,
      "暧": 2231,
      "暨": 2232,
      "暮": 2233,
      "暴": 2234,
      "暸": 2235,
      "曙": 2236,
      "曜": 2237,
      "曝": 2238,
      "曦": 2239,
      "曰": 2240,
      "曲": 2241,
      "曳": 2242,
      "更": 2243,
      "曹": 2244,
      "曼": 2245,
      "曾": 2246,
      "替": 2247,
      "最": 2248,
      "會": 2249,
      "月": 2250,
      "有": 2251,
      "朋": 2252,
      "服": 2253,
      "朔": 2254,
      "朗": 2255,
      "望": 2256,
      "朝": 2257,
      "期": 2258,
      "朦": 2259,
      "木": 2260,
      "未": 2261,
      "末": 2262,
      "本": 2263,
      "札": 2264,
      "术": 2265,
      "朱": 2266,
      "朴": 2267,
      "朵": 2268,
      "机": 2269,
      "朽": 2270,
      "杀": 2271,
      "杂": 2272,
      "权": 2273,
      "杆": 2274,
      "杈": 2275,
      "杉": 2276,
      "李": 2277,
      "杏": 2278,
      "材": 2279,
      "村": 2280,
      "杓": 2281,
      "杖": 2282,
      "杜": 2283,
      "杞": 2284,
      "束": 2285,
      "杠": 2286,
      "条": 2287,
      "来": 2288,
      "杨": 2289,
      "杭": 2290,
      "杯": 2291,
      "杰": 2292,
      "東": 2293,
      "杳": 2294,
      "杵": 2295,
      "松": 2296,
      "板": 2297,
      "极": 2298,
      "构": 2299,
      "枉": 2300,
      "析": 2301,
      "枕": 2302,
      "林": 2303,
      "枘": 2304,
      "枚": 2305,
      "果": 2306,
      "枝": 2307,
      "枢": 2308,
      "枣": 2309,
      "枪": 2310,
      "枫": 2311,
      "枭": 2312,
      "枯": 2313,
      "架": 2314,
      "枷": 2315,
      "柄": 2316,
      "柏": 2317,
      "某": 2318,
      "柑": 2319,
      "染": 2320,
      "柔": 2321,
      "柚": 2322,
      "柜": 2323,
      "柠": 2324,
      "柢": 2325,
      "查": 2326,
      "柩": 2327,
      "柬": 2328,
      "柯": 2329,
      "柱": 2330,
      "柳": 2331,
      "柴": 2332,
      "柿": 2333,
      "栅": 2334,
      "标": 2335,
      "栈": 2336,
      "栉": 2337,
      "栋": 2338,
      "栏": 2339,
      "树": 2340,
      "栓": 2341,
      "栖": 2342,
      "栗": 2343,
      "校": 2344,
      "栩": 2345,
      "株": 2346,
      "样": 2347,
      "核": 2348,
      "根": 2349,
      "格": 2350,
      "栽": 2351,
      "栿": 2352,
      "桁": 2353,
      "桂": 2354,
      "桃": 2355,
      "桅": 2356,
      "框": 2357,
      "案": 2358,
      "桉": 2359,
      "桌": 2360,
      "桎": 2361,
      "桑": 2362,
      "桓": 2363,
      "桔": 2364,
      "桠": 2365,
      "桡": 2366,
      "档": 2367,
      "桤": 2368,
      "桥": 2369,
      "桦": 2370,
      "桨": 2371,
      "桩": 2372,
      "桶": 2373,
      "梁": 2374,
      "梅": 2375,
      "梆": 2376,
      "梏": 2377,
      "梗": 2378,
      "梢": 2379,
      "梦": 2380,
      "梧": 2381,
      "梨": 2382,
      "梭": 2383,
      "梯": 2384,
      "械": 2385,
      "梳": 2386,
      "梵": 2387,
      "检": 2388,
      "棉": 2389,
      "棋": 2390,
      "棍": 2391,
      "棒": 2392,
      "棕": 2393,
      "棘": 2394,
      "棚": 2395,
      "棠": 2396,
      "森": 2397,
      "棱": 2398,
      "棵": 2399,
      "棺": 2400,
      "椅": 2401,
      "椋": 2402,
      "植": 2403,
      "椎": 2404,
      "椒": 2405,
      "椭": 2406,
      "椰": 2407,
      "椴": 2408,
      "椽": 2409,
      "椿": 2410,
      "楂": 2411,
      "楔": 2412,
      "楕": 2413,
      "楚": 2414,
      "楞": 2415,
      "楠": 2416,
      "楣": 2417,
      "楦": 2418,
      "業": 2419,
      "極": 2420,
      "楷": 2421,
      "楼": 2422,
      "概": 2423,
      "榄": 2424,
      "榆": 2425,
      "榈": 2426,
      "榉": 2427,
      "榔": 2428,
      "榕": 2429,
      "榛": 2430,
      "榜": 2431,
      "榨": 2432,
      "榭": 2433,
      "榴": 2434,
      "榷": 2435,
      "榻": 2436,
      "槃": 2437,
      "槌": 2438,
      "槐": 2439,
      "槛": 2440,
      "槟": 2441,
      "槲": 2442,
      "槽": 2443,
      "槿": 2444,
      "樂": 2445,
      "樊": 2446,
      "樑": 2447,
      "樟": 2448,
      "模": 2449,
      "樣": 2450,
      "横": 2451,
      "樱": 2452,
      "樽": 2453,
      "橄": 2454,
      "橇": 2455,
      "橘": 2456,
      "橙": 2457,
      "機": 2458,
      "橡": 2459,
      "橫": 2460,
      "橱": 2461,
      "檀": 2462,
      "檄": 2463,
      "檐": 2464,
      "檢": 2465,
      "檬": 2466,
      "櫃": 2467,
      "欠": 2468,
      "次": 2469,
      "欢": 2470,
      "欣": 2471,
      "欧": 2472,
      "欲": 2473,
      "欸": 2474,
      "欺": 2475,
      "款": 2476,
      "歇": 2477,
      "歉": 2478,
      "歌": 2479,
      "止": 2480,
      "正": 2481,
      "此": 2482,
      "步": 2483,
      "武": 2484,
      "歧": 2485,
      "歨": 2486,
      "歪": 2487,
      "歹": 2488,
      "死": 2489,
      "歼": 2490,
      "殁": 2491,
      "殃": 2492,
      "殆": 2493,
      "殇": 2494,
      "殉": 2495,
      "殊": 2496,
      "残": 2497,
      "殒": 2498,
      "殓": 2499,
      "殖": 2500,
      "殘": 2501,
      "殚": 2502,
      "殡": 2503,
      "殭": 2504,
      "殴": 2505,
      "段": 2506,
      "殷": 2507,
      "殿": 2508,
      "毀": 2509,
      "毁": 2510,
      "毂": 2511,
      "毅": 2512,
      "毋": 2513,
      "母": 2514,
      "每": 2515,
      "毒": 2516,
      "比": 2517,
      "毕": 2518,
      "毗": 2519,
      "毙": 2520,
      "毛": 2521,
      "毡": 2522,
      "毫": 2523,
      "毯": 2524,
      "毽": 2525,
      "氏": 2526,
      "民": 2527,
      "氓": 2528,
      "气": 2529,
      "氖": 2530,
      "氘": 2531,
      "氙": 2532,
      "氚": 2533,
      "氛": 2534,
      "氟": 2535,
      "氡": 2536,
      "氢": 2537,
      "氣": 2538,
      "氦": 2539,
      "氧": 2540,
      "氨": 2541,
      "氩": 2542,
      "氪": 2543,
      "氫": 2544,
      "氮": 2545,
      "氯": 2546,
      "氰": 2547,
      "水": 2548,
      "永": 2549,
      "汀": 2550,
      "汁": 2551,
      "求": 2552,
      "汇": 2553,
      "汉": 2554,
      "汐": 2555,
      "汗": 2556,
      "汙": 2557,
      "汛": 2558,
      "汝": 2559,
      "汞": 2560,
      "江": 2561,
      "池": 2562,
      "污": 2563,
      "汤": 2564,
      "汩": 2565,
      "汪": 2566,
      "汰": 2567,
      "汱": 2568,
      "汲": 2569,
      "汶": 2570,
      "汹": 2571,
      "決": 2572,
      "汽": 2573,
      "沁": 2574,
      "沃": 2575,
      "沅": 2576,
      "沈": 2577,
      "沉": 2578,
      "沌": 2579,
      "沐": 2580,
      "沒": 2581,
      "沓": 2582,
      "沙": 2583,
      "沛": 2584,
      "沟": 2585,
      "没": 2586,
      "沥": 2587,
      "沦": 2588,
      "沧": 2589,
      "沪": 2590,
      "沫": 2591,
      "沮": 2592,
      "沱": 2593,
      "河": 2594,
      "沸": 2595,
      "油": 2596,
      "治": 2597,
      "沼": 2598,
      "沾": 2599,
      "沿": 2600,
      "況": 2601,
      "泄": 2602,
      "泅": 2603,
      "泉": 2604,
      "泊": 2605,
      "泌": 2606,
      "法": 2607,
      "泗": 2608,
      "泛": 2609,
      "泞": 2610,
      "泡": 2611,
      "波": 2612,
      "泣": 2613,
      "泥": 2614,
      "注": 2615,
      "泪": 2616,
      "泮": 2617,
      "泯": 2618,
      "泰": 2619,
      "泱": 2620,
      "泳": 2621,
      "泵": 2622,
      "泻": 2623,
      "泼": 2624,
      "泽": 2625,
      "泾": 2626,
      "洁": 2627,
      "洋": 2628,
      "洒": 2629,
      "洗": 2630,
      "洛": 2631,
      "洞": 2632,
      "津": 2633,
      "洪": 2634,
      "洮": 2635,
      "洲": 2636,
      "活": 2637,
      "洼": 2638,
      "洽": 2639,
      "派": 2640,
      "流": 2641,
      "浃": 2642,
      "浅": 2643,
      "浆": 2644,
      "浇": 2645,
      "浊": 2646,
      "测": 2647,
      "济": 2648,
      "浏": 2649,
      "浑": 2650,
      "浓": 2651,
      "浚": 2652,
      "浣": 2653,
      "浦": 2654,
      "浩": 2655,
      "浪": 2656,
      "浬": 2657,
      "浮": 2658,
      "浴": 2659,
      "海": 2660,
      "浸": 2661,
      "涂": 2662,
      "涅": 2663,
      "消": 2664,
      "涉": 2665,
      "涌": 2666,
      "涎": 2667,
      "涓": 2668,
      "涕": 2669,
      "涛": 2670,
      "涝": 2671,
      "涟": 2672,
      "涡": 2673,
      "涣": 2674,
      "涤": 2675,
      "润": 2676,
      "涧": 2677,
      "涨": 2678,
      "涩": 2679,
      "涮": 2680,
      "涯": 2681,
      "液": 2682,
      "涵": 2683,
      "涸": 2684,
      "淀": 2685,
      "淆": 2686,
      "淇": 2687,
      "淋": 2688,
      "淌": 2689,
      "淑": 2690,
      "淖": 2691,
      "淘": 2692,
      "淙": 2693,
      "淡": 2694,
      "淤": 2695,
      "淨": 2696,
      "淫": 2697,
      "淬": 2698,
      "淮": 2699,
      "深": 2700,
      "淳": 2701,
      "混": 2702,
      "淸": 2703,
      "淹": 2704,
      "淺": 2705,
      "添": 2706,
      "淼": 2707,
      "清": 2708,
      "渉": 2709,
      "渊": 2710,
      "渍": 2711,
      "渎": 2712,
      "渐": 2713,
      "渔": 2714,
      "渗": 2715,
      "渝": 2716,
      "渠": 2717,
      "渡": 2718,
      "渣": 2719,
      "渤": 2720,
      "渥": 2721,
      "温": 2722,
      "渭": 2723,
      "港": 2724,
      "渲": 2725,
      "渴": 2726,
      "游": 2727,
      "渺": 2728,
      "湃": 2729,
      "湄": 2730,
      "湍": 2731,
      "湎": 2732,
      "湖": 2733,
      "湘": 2734,
      "湛": 2735,
      "湮": 2736,
      "湾": 2737,
      "湿": 2738,
      "溃": 2739,
      "溅": 2740,
      "溉": 2741,
      "源": 2742,
      "溜": 2743,
      "溢": 2744,
      "溥": 2745,
      "溪": 2746,
      "溯": 2747,
      "溴": 2748,
      "溶": 2749,
      "溷": 2750,
      "溺": 2751,
      "滂": 2752,
      "滋": 2753,
      "滑": 2754,
      "滓": 2755,
      "滔": 2756,
      "滕": 2757,
      "滚": 2758,
      "滞": 2759,
      "满": 2760,
      "滤": 2761,
      "滥": 2762,
      "滨": 2763,
      "滩": 2764,
      "滴": 2765,
      "滿": 2766,
      "漂": 2767,
      "漆": 2768,
      "漉": 2769,
      "漏": 2770,
      "漓": 2771,
      "演": 2772,
      "漕": 2773,
      "漠": 2774,
      "漩": 2775,
      "漪": 2776,
      "漫": 2777,
      "漱": 2778,
      "漾": 2779,
      "潇": 2780,
      "潘": 2781,
      "潜": 2782,
      "潢": 2783,
      "潦": 2784,
      "潭": 2785,
      "潮": 2786,
      "潸": 2787,
      "潺": 2788,
      "澄": 2789,
      "澈": 2790,
      "澍": 2791,
      "澎": 2792,
      "澜": 2793,
      "澡": 2794,
      "澳": 2795,
      "激": 2796,
      "濑": 2797,
      "濒": 2798,
      "濡": 2799,
      "濶": 2800,
      "瀑": 2801,
      "瀚": 2802,
      "灌": 2803,
      "火": 2804,
      "灭": 2805,
      "灯": 2806,
      "灰": 2807,
      "灵": 2808,
      "灶": 2809,
      "灸": 2810,
      "灼": 2811,
      "灾": 2812,
      "灿": 2813,
      "炉": 2814,
      "炊": 2815,
      "炎": 2816,
      "炒": 2817,
      "炖": 2818,
      "炙": 2819,
      "炫": 2820,
      "炬": 2821,
      "炭": 2822,
      "炮": 2823,
      "炷": 2824,
      "炸": 2825,
      "点": 2826,
      "為": 2827,
      "炼": 2828,
      "炽": 2829,
      "烁": 2830,
      "烂": 2831,
      "烃": 2832,
      "烈": 2833,
      "烊": 2834,
      "烘": 2835,
      "烙": 2836,
      "烛": 2837,
      "烟": 2838,
      "烤": 2839,
      "烦": 2840,
      "烧": 2841,
      "烩": 2842,
      "烫": 2843,
      "烬": 2844,
      "热": 2845,
      "烯": 2846,
      "烷": 2847,
      "烹": 2848,
      "烽": 2849,
      "焉": 2850,
      "焊": 2851,
      "焕": 2852,
      "焗": 2853,
      "焙": 2854,
      "焚": 2855,
      "無": 2856,
      "焦": 2857,
      "焰": 2858,
      "焱": 2859,
      "然": 2860,
      "煅": 2861,
      "煉": 2862,
      "煌": 2863,
      "煎": 2864,
      "煞": 2865,
      "煤": 2866,
      "煦": 2867,
      "照": 2868,
      "煮": 2869,
      "煲": 2870,
      "煳": 2871,
      "煽": 2872,
      "熄": 2873,
      "熊": 2874,
      "熏": 2875,
      "熔": 2876,
      "熙": 2877,
      "熟": 2878,
      "熠": 2879,
      "熨": 2880,
      "熬": 2881,
      "熵": 2882,
      "燃": 2883,
      "燎": 2884,
      "燕": 2885,
      "燥": 2886,
      "燧": 2887,
      "爆": 2888,
      "爛": 2889,
      "爪": 2890,
      "爬": 2891,
      "爱": 2892,
      "爲": 2893,
      "爵": 2894,
      "父": 2895,
      "爷": 2896,
      "爸": 2897,
      "爹": 2898,
      "爽": 2899,
      "爾": 2900,
      "牆": 2901,
      "片": 2902,
      "版": 2903,
      "牌": 2904,
      "牍": 2905,
      "牒": 2906,
      "牙": 2907,
      "牛": 2908,
      "牝": 2909,
      "牟": 2910,
      "牠": 2911,
      "牡": 2912,
      "牢": 2913,
      "牦": 2914,
      "牧": 2915,
      "物": 2916,
      "牲": 2917,
      "牵": 2918,
      "特": 2919,
      "牺": 2920,
      "犀": 2921,
      "犁": 2922,
      "犄": 2923,
      "犊": 2924,
      "犒": 2925,
      "犬": 2926,
      "犯": 2927,
      "犰": 2928,
      "状": 2929,
      "犷": 2930,
      "犸": 2931,
      "犹": 2932,
      "狀": 2933,
      "狂": 2934,
      "狄": 2935,
      "狈": 2936,
      "狐": 2937,
      "狒": 2938,
      "狓": 2939,
      "狗": 2940,
      "狙": 2941,
      "狞": 2942,
      "狠": 2943,
      "狡": 2944,
      "狩": 2945,
      "独": 2946,
      "狭": 2947,
      "狮": 2948,
      "狰": 2949,
      "狱": 2950,
      "狳": 2951,
      "狸": 2952,
      "狼": 2953,
      "猁": 2954,
      "猎": 2955,
      "猕": 2956,
      "猖": 2957,
      "猛": 2958,
      "猜": 2959,
      "猝": 2960,
      "猞": 2961,
      "猥": 2962,
      "猩": 2963,
      "猪": 2964,
      "猫": 2965,
      "猬": 2966,
      "献": 2967,
      "猴": 2968,
      "猾": 2969,
      "猿": 2970,
      "獒": 2971,
      "獗": 2972,
      "獠": 2973,
      "獭": 2974,
      "獲": 2975,
      "獴": 2976,
      "獾": 2977,
      "玄": 2978,
      "玆": 2979,
      "率": 2980,
      "玉": 2981,
      "王": 2982,
      "玎": 2983,
      "玑": 2984,
      "玖": 2985,
      "玛": 2986,
      "玩": 2987,
      "玫": 2988,
      "环": 2989,
      "现": 2990,
      "玲": 2991,
      "玳": 2992,
      "玷": 2993,
      "玺": 2994,
      "玻": 2995,
      "珀": 2996,
      "珂": 2997,
      "珈": 2998,
      "珉": 2999,
      "珊": 3000,
      "珍": 3001,
      "珐": 3002,
      "珑": 3003,
      "珞": 3004,
      "珠": 3005,
      "班": 3006,
      "現": 3007,
      "球": 3008,
      "琅": 3009,
      "理": 3010,
      "琉": 3011,
      "琐": 3012,
      "琢": 3013,
      "琥": 3014,
      "琦": 3015,
      "琪": 3016,
      "琳": 3017,
      "琴": 3018,
      "琵": 3019,
      "琶": 3020,
      "琼": 3021,
      "瑁": 3022,
      "瑕": 3023,
      "瑙": 3024,
      "瑚": 3025,
      "瑜": 3026,
      "瑞": 3027,
      "瑟": 3028,
      "瑰": 3029,
      "瑾": 3030,
      "璀": 3031,
      "璃": 3032,
      "璋": 3033,
      "璐": 3034,
      "璜": 3035,
      "璞": 3036,
      "璧": 3037,
      "璨": 3038,
      "瓜": 3039,
      "瓢": 3040,
      "瓣": 3041,
      "瓦": 3042,
      "瓮": 3043,
      "瓶": 3044,
      "瓷": 3045,
      "甄": 3046,
      "甘": 3047,
      "甚": 3048,
      "甜": 3049,
      "生": 3050,
      "產": 3051,
      "甥": 3052,
      "用": 3053,
      "甩": 3054,
      "甫": 3055,
      "甭": 3056,
      "田": 3057,
      "由": 3058,
      "甲": 3059,
      "申": 3060,
      "电": 3061,
      "男": 3062,
      "甸": 3063,
      "画": 3064,
      "甾": 3065,
      "畅": 3066,
      "界": 3067,
      "畏": 3068,
      "畔": 3069,
      "留": 3070,
      "畜": 3071,
      "略": 3072,
      "畦": 3073,
      "番": 3074,
      "異": 3075,
      "畴": 3076,
      "當": 3077,
      "畸": 3078,
      "疆": 3079,
      "疏": 3080,
      "疑": 3081,
      "疗": 3082,
      "疙": 3083,
      "疚": 3084,
      "疝": 3085,
      "疟": 3086,
      "疡": 3087,
      "疣": 3088,
      "疤": 3089,
      "疥": 3090,
      "疫": 3091,
      "疮": 3092,
      "疯": 3093,
      "疱": 3094,
      "疲": 3095,
      "疵": 3096,
      "疸": 3097,
      "疹": 3098,
      "疼": 3099,
      "疽": 3100,
      "疾": 3101,
      "痂": 3102,
      "病": 3103,
      "症": 3104,
      "痉": 3105,
      "痊": 3106,
      "痍": 3107,
      "痒": 3108,
      "痕": 3109,
      "痘": 3110,
      "痛": 3111,
      "痞": 3112,
      "痢": 3113,
      "痣": 3114,
      "痤": 3115,
      "痨": 3116,
      "痪": 3117,
      "痫": 3118,
      "痰": 3119,
      "痱": 3120,
      "痴": 3121,
      "痹": 3122,
      "痼": 3123,
      "痿": 3124,
      "瘀": 3125,
      "瘁": 3126,
      "瘆": 3127,
      "瘊": 3128,
      "瘋": 3129,
      "瘘": 3130,
      "瘙": 3131,
      "瘟": 3132,
      "瘠": 3133,
      "瘢": 3134,
      "瘤": 3135,
      "瘦": 3136,
      "瘩": 3137,
      "瘪": 3138,
      "瘫": 3139,
      "瘴": 3140,
      "瘵": 3141,
      "瘸": 3142,
      "瘾": 3143,
      "療": 3144,
      "癆": 3145,
      "癌": 3146,
      "癔": 3147,
      "癖": 3148,
      "癜": 3149,
      "癞": 3150,
      "癢": 3151,
      "癣": 3152,
      "癫": 3153,
      "癮": 3154,
      "登": 3155,
      "發": 3156,
      "白": 3157,
      "百": 3158,
      "皂": 3159,
      "的": 3160,
      "皆": 3161,
      "皇": 3162,
      "皈": 3163,
      "皎": 3164,
      "皑": 3165,
      "皓": 3166,
      "皙": 3167,
      "皮": 3168,
      "皱": 3169,
      "皿": 3170,
      "盂": 3171,
      "盆": 3172,
      "盈": 3173,
      "益": 3174,
      "盎": 3175,
      "盏": 3176,
      "盐": 3177,
      "监": 3178,
      "盒": 3179,
      "盔": 3180,
      "盖": 3181,
      "盗": 3182,
      "盘": 3183,
      "盛": 3184,
      "盜": 3185,
      "盟": 3186,
      "盡": 3187,
      "盤": 3188,
      "盥": 3189,
      "盪": 3190,
      "目": 3191,
      "盯": 3192,
      "盲": 3193,
      "直": 3194,
      "相": 3195,
      "盹": 3196,
      "盼": 3197,
      "盾": 3198,
      "省": 3199,
      "眇": 3200,
      "眈": 3201,
      "眉": 3202,
      "看": 3203,
      "真": 3204,
      "眠": 3205,
      "眨": 3206,
      "眩": 3207,
      "眯": 3208,
      "眶": 3209,
      "眷": 3210,
      "眸": 3211,
      "眺": 3212,
      "眼": 3213,
      "着": 3214,
      "睁": 3215,
      "睐": 3216,
      "睑": 3217,
      "睛": 3218,
      "睡": 3219,
      "督": 3220,
      "睦": 3221,
      "睪": 3222,
      "睫": 3223,
      "睬": 3224,
      "睹": 3225,
      "睽": 3226,
      "睾": 3227,
      "睿": 3228,
      "瞄": 3229,
      "瞅": 3230,
      "瞌": 3231,
      "瞎": 3232,
      "瞒": 3233,
      "瞟": 3234,
      "瞠": 3235,
      "瞥": 3236,
      "瞧": 3237,
      "瞩": 3238,
      "瞪": 3239,
      "瞬": 3240,
      "瞭": 3241,
      "瞰": 3242,
      "瞳": 3243,
      "瞻": 3244,
      "瞿": 3245,
      "矍": 3246,
      "矗": 3247,
      "矛": 3248,
      "矜": 3249,
      "矢": 3250,
      "矣": 3251,
      "知": 3252,
      "矩": 3253,
      "矫": 3254,
      "短": 3255,
      "矮": 3256,
      "石": 3257,
      "矶": 3258,
      "矽": 3259,
      "矿": 3260,
      "码": 3261,
      "砂": 3262,
      "砌": 3263,
      "砍": 3264,
      "砒": 3265,
      "研": 3266,
      "砖": 3267,
      "砜": 3268,
      "砝": 3269,
      "砥": 3270,
      "砧": 3271,
      "砭": 3272,
      "砰": 3273,
      "破": 3274,
      "砷": 3275,
      "砸": 3276,
      "砺": 3277,
      "砾": 3278,
      "础": 3279,
      "硅": 3280,
      "硌": 3281,
      "硒": 3282,
      "硕": 3283,
      "硝": 3284,
      "硫": 3285,
      "硬": 3286,
      "确": 3287,
      "硷": 3288,
      "硼": 3289,
      "碉": 3290,
      "碌": 3291,
      "碍": 3292,
      "碎": 3293,
      "碑": 3294,
      "碗": 3295,
      "碘": 3296,
      "碛": 3297,
      "碟": 3298,
      "碧": 3299,
      "碰": 3300,
      "碱": 3301,
      "碳": 3302,
      "碼": 3303,
      "碾": 3304,
      "磁": 3305,
      "磅": 3306,
      "磊": 3307,
      "磋": 3308,
      "磐": 3309,
      "磕": 3310,
      "磨": 3311,
      "磷": 3312,
      "磺": 3313,
      "礁": 3314,
      "礙": 3315,
      "礴": 3316,
      "示": 3317,
      "礼": 3318,
      "社": 3319,
      "祀": 3320,
      "祂": 3321,
      "祆": 3322,
      "祇": 3323,
      "祈": 3324,
      "祉": 3325,
      "祕": 3326,
      "祖": 3327,
      "祗": 3328,
      "祛": 3329,
      "祝": 3330,
      "神": 3331,
      "祟": 3332,
      "祥": 3333,
      "票": 3334,
      "祭": 3335,
      "祷": 3336,
      "祸": 3337,
      "禀": 3338,
      "禁": 3339,
      "禄": 3340,
      "禅": 3341,
      "福": 3342,
      "禧": 3343,
      "禹": 3344,
      "离": 3345,
      "禽": 3346,
      "禾": 3347,
      "秀": 3348,
      "私": 3349,
      "秃": 3350,
      "秆": 3351,
      "秉": 3352,
      "秋": 3353,
      "种": 3354,
      "科": 3355,
      "秒": 3356,
      "秘": 3357,
      "租": 3358,
      "秤": 3359,
      "秦": 3360,
      "秧": 3361,
      "秩": 3362,
      "积": 3363,
      "称": 3364,
      "秸": 3365,
      "移": 3366,
      "秽": 3367,
      "稀": 3368,
      "程": 3369,
      "稍": 3370,
      "税": 3371,
      "稔": 3372,
      "稚": 3373,
      "稠": 3374,
      "稣": 3375,
      "種": 3376,
      "稳": 3377,
      "稹": 3378,
      "稻": 3379,
      "稼": 3380,
      "稽": 3381,
      "稿": 3382,
      "穆": 3383,
      "穗": 3384,
      "穴": 3385,
      "究": 3386,
      "穷": 3387,
      "穹": 3388,
      "空": 3389,
      "穿": 3390,
      "突": 3391,
      "窃": 3392,
      "窄": 3393,
      "窈": 3394,
      "窍": 3395,
      "窑": 3396,
      "窒": 3397,
      "窕": 3398,
      "窖": 3399,
      "窗": 3400,
      "窘": 3401,
      "窜": 3402,
      "窝": 3403,
      "窟": 3404,
      "窠": 3405,
      "窣": 3406,
      "窥": 3407,
      "窦": 3408,
      "窪": 3409,
      "窸": 3410,
      "窿": 3411,
      "立": 3412,
      "竖": 3413,
      "站": 3414,
      "竞": 3415,
      "竟": 3416,
      "章": 3417,
      "竣": 3418,
      "童": 3419,
      "竭": 3420,
      "端": 3421,
      "竹": 3422,
      "竺": 3423,
      "竽": 3424,
      "竿": 3425,
      "笃": 3426,
      "笆": 3427,
      "笈": 3428,
      "笋": 3429,
      "笑": 3430,
      "笔": 3431,
      "笙": 3432,
      "笛": 3433,
      "笞": 3434,
      "符": 3435,
      "笨": 3436,
      "笫": 3437,
      "第": 3438,
      "笺": 3439,
      "笼": 3440,
      "筆": 3441,
      "等": 3442,
      "筋": 3443,
      "筏": 3444,
      "筐": 3445,
      "筑": 3446,
      "筒": 3447,
      "答": 3448,
      "策": 3449,
      "筛": 3450,
      "筝": 3451,
      "筵": 3452,
      "筷": 3453,
      "筹": 3454,
      "签": 3455,
      "简": 3456,
      "箍": 3457,
      "箔": 3458,
      "算": 3459,
      "管": 3460,
      "箩": 3461,
      "箭": 3462,
      "箱": 3463,
      "箴": 3464,
      "箸": 3465,
      "篆": 3466,
      "篇": 3467,
      "篑": 3468,
      "篓": 3469,
      "篝": 3470,
      "篡": 3471,
      "篦": 3472,
      "篮": 3473,
      "篱": 3474,
      "篷": 3475,
      "簇": 3476,
      "簌": 3477,
      "簟": 3478,
      "簧": 3479,
      "簪": 3480,
      "簸": 3481,
      "簿": 3482,
      "籁": 3483,
      "籍": 3484,
      "米": 3485,
      "类": 3486,
      "籽": 3487,
      "粉": 3488,
      "粑": 3489,
      "粒": 3490,
      "粕": 3491,
      "粗": 3492,
      "粘": 3493,
      "粝": 3494,
      "粟": 3495,
      "粤": 3496,
      "粥": 3497,
      "粪": 3498,
      "粮": 3499,
      "粱": 3500,
      "粲": 3501,
      "粹": 3502,
      "粼": 3503,
      "粽": 3504,
      "精": 3505,
      "糅": 3506,
      "糊": 3507,
      "糕": 3508,
      "糖": 3509,
      "糗": 3510,
      "糙": 3511,
      "糜": 3512,
      "糟": 3513,
      "糠": 3514,
      "系": 3515,
      "紀": 3516,
      "約": 3517,
      "紅": 3518,
      "紊": 3519,
      "納": 3520,
      "級": 3521,
      "素": 3522,
      "索": 3523,
      "紧": 3524,
      "紫": 3525,
      "累": 3526,
      "細": 3527,
      "紹": 3528,
      "終": 3529,
      "組": 3530,
      "結": 3531,
      "絡": 3532,
      "給": 3533,
      "絮": 3534,
      "統": 3535,
      "維": 3536,
      "綷": 3537,
      "縮": 3538,
      "繁": 3539,
      "織": 3540,
      "繫": 3541,
      "纂": 3542,
      "續": 3543,
      "纠": 3544,
      "红": 3545,
      "纣": 3546,
      "纤": 3547,
      "约": 3548,
      "级": 3549,
      "纨": 3550,
      "纪": 3551,
      "纫": 3552,
      "纬": 3553,
      "纭": 3554,
      "纯": 3555,
      "纰": 3556,
      "纱": 3557,
      "纲": 3558,
      "纳": 3559,
      "纵": 3560,
      "纶": 3561,
      "纷": 3562,
      "纸": 3563,
      "纹": 3564,
      "纺": 3565,
      "纽": 3566,
      "纾": 3567,
      "线": 3568,
      "练": 3569,
      "组": 3570,
      "绅": 3571,
      "细": 3572,
      "织": 3573,
      "终": 3574,
      "绉": 3575,
      "绊": 3576,
      "绌": 3577,
      "绍": 3578,
      "绎": 3579,
      "经": 3580,
      "绑": 3581,
      "绒": 3582,
      "结": 3583,
      "绔": 3584,
      "绕": 3585,
      "绘": 3586,
      "给": 3587,
      "绚": 3588,
      "络": 3589,
      "绝": 3590,
      "绞": 3591,
      "统": 3592,
      "绢": 3593,
      "绣": 3594,
      "绥": 3595,
      "绦": 3596,
      "继": 3597,
      "绩": 3598,
      "绪": 3599,
      "续": 3600,
      "绮": 3601,
      "绯": 3602,
      "绰": 3603,
      "绳": 3604,
      "维": 3605,
      "绵": 3606,
      "绶": 3607,
      "绷": 3608,
      "绸": 3609,
      "绺": 3610,
      "绻": 3611,
      "综": 3612,
      "绽": 3613,
      "绿": 3614,
      "缀": 3615,
      "缄": 3616,
      "缅": 3617,
      "缆": 3618,
      "缇": 3619,
      "缈": 3620,
      "缉": 3621,
      "缎": 3622,
      "缓": 3623,
      "缔": 3624,
      "缕": 3625,
      "编": 3626,
      "缘": 3627,
      "缚": 3628,
      "缛": 3629,
      "缜": 3630,
      "缝": 3631,
      "缠": 3632,
      "缢": 3633,
      "缤": 3634,
      "缥": 3635,
      "缦": 3636,
      "缧": 3637,
      "缨": 3638,
      "缩": 3639,
      "缪": 3640,
      "缬": 3641,
      "缭": 3642,
      "缮": 3643,
      "缰": 3644,
      "缴": 3645,
      "缸": 3646,
      "缺": 3647,
      "罂": 3648,
      "罄": 3649,
      "罅": 3650,
      "罐": 3651,
      "网": 3652,
      "罔": 3653,
      "罕": 3654,
      "罗": 3655,
      "罚": 3656,
      "罡": 3657,
      "罢": 3658,
      "罩": 3659,
      "罪": 3660,
      "置": 3661,
      "署": 3662,
      "罹": 3663,
      "羁": 3664,
      "羅": 3665,
      "羊": 3666,
      "羌": 3667,
      "美": 3668,
      "羔": 3669,
      "羚": 3670,
      "羞": 3671,
      "羟": 3672,
      "羡": 3673,
      "群": 3674,
      "羧": 3675,
      "羯": 3676,
      "羲": 3677,
      "羸": 3678,
      "羹": 3679,
      "羽": 3680,
      "翁": 3681,
      "翅": 3682,
      "翌": 3683,
      "習": 3684,
      "翔": 3685,
      "翘": 3686,
      "翠": 3687,
      "翡": 3688,
      "翩": 3689,
      "翰": 3690,
      "翱": 3691,
      "翳": 3692,
      "翻": 3693,
      "翼": 3694,
      "耀": 3695,
      "老": 3696,
      "考": 3697,
      "耄": 3698,
      "者": 3699,
      "耆": 3700,
      "耋": 3701,
      "而": 3702,
      "耍": 3703,
      "耐": 3704,
      "耕": 3705,
      "耗": 3706,
      "耘": 3707,
      "耙": 3708,
      "耦": 3709,
      "耨": 3710,
      "耳": 3711,
      "耶": 3712,
      "耷": 3713,
      "耸": 3714,
      "耻": 3715,
      "耽": 3716,
      "耿": 3717,
      "聂": 3718,
      "聆": 3719,
      "聊": 3720,
      "聋": 3721,
      "职": 3722,
      "聒": 3723,
      "联": 3724,
      "聖": 3725,
      "聘": 3726,
      "聚": 3727,
      "聩": 3728,
      "聪": 3729,
      "聲": 3730,
      "聿": 3731,
      "肃": 3732,
      "肆": 3733,
      "肇": 3734,
      "肉": 3735,
      "肋": 3736,
      "肌": 3737,
      "肓": 3738,
      "肖": 3739,
      "肘": 3740,
      "肚": 3741,
      "肛": 3742,
      "肝": 3743,
      "肠": 3744,
      "股": 3745,
      "肢": 3746,
      "肤": 3747,
      "肥": 3748,
      "肩": 3749,
      "肪": 3750,
      "肮": 3751,
      "肯": 3752,
      "肱": 3753,
      "育": 3754,
      "肴": 3755,
      "肺": 3756,
      "肽": 3757,
      "肾": 3758,
      "肿": 3759,
      "胀": 3760,
      "胁": 3761,
      "胃": 3762,
      "胆": 3763,
      "背": 3764,
      "胍": 3765,
      "胎": 3766,
      "胖": 3767,
      "胚": 3768,
      "胜": 3769,
      "胝": 3770,
      "胞": 3771,
      "胡": 3772,
      "胥": 3773,
      "胧": 3774,
      "胫": 3775,
      "胬": 3776,
      "胭": 3777,
      "胯": 3778,
      "胰": 3779,
      "胱": 3780,
      "胳": 3781,
      "胶": 3782,
      "胸": 3783,
      "胺": 3784,
      "胼": 3785,
      "能": 3786,
      "脂": 3787,
      "脆": 3788,
      "脈": 3789,
      "脉": 3790,
      "脊": 3791,
      "脍": 3792,
      "脏": 3793,
      "脐": 3794,
      "脑": 3795,
      "脓": 3796,
      "脖": 3797,
      "脚": 3798,
      "脯": 3799,
      "脱": 3800,
      "脲": 3801,
      "脸": 3802,
      "脾": 3803,
      "腆": 3804,
      "腈": 3805,
      "腊": 3806,
      "腋": 3807,
      "腌": 3808,
      "腐": 3809,
      "腑": 3810,
      "腓": 3811,
      "腔": 3812,
      "腕": 3813,
      "腥": 3814,
      "腭": 3815,
      "腮": 3816,
      "腰": 3817,
      "腱": 3818,
      "腴": 3819,
      "腹": 3820,
      "腺": 3821,
      "腻": 3822,
      "腼": 3823,
      "腾": 3824,
      "腿": 3825,
      "膀": 3826,
      "膈": 3827,
      "膊": 3828,
      "膏": 3829,
      "膑": 3830,
      "膛": 3831,
      "膜": 3832,
      "膝": 3833,
      "膦": 3834,
      "膨": 3835,
      "膳": 3836,
      "膺": 3837,
      "臀": 3838,
      "臂": 3839,
      "臃": 3840,
      "臆": 3841,
      "臊": 3842,
      "臌": 3843,
      "臣": 3844,
      "自": 3845,
      "臭": 3846,
      "至": 3847,
      "致": 3848,
      "臻": 3849,
      "臼": 3850,
      "舀": 3851,
      "舅": 3852,
      "舆": 3853,
      "與": 3854,
      "興": 3855,
      "舌": 3856,
      "舍": 3857,
      "舐": 3858,
      "舒": 3859,
      "舔": 3860,
      "舛": 3861,
      "舜": 3862,
      "舞": 3863,
      "舟": 3864,
      "航": 3865,
      "般": 3866,
      "舰": 3867,
      "舱": 3868,
      "舵": 3869,
      "舶": 3870,
      "舷": 3871,
      "船": 3872,
      "艄": 3873,
      "艇": 3874,
      "艘": 3875,
      "艮": 3876,
      "良": 3877,
      "艰": 3878,
      "色": 3879,
      "艳": 3880,
      "艺": 3881,
      "艾": 3882,
      "节": 3883,
      "芋": 3884,
      "芒": 3885,
      "芙": 3886,
      "芜": 3887,
      "芝": 3888,
      "芥": 3889,
      "芦": 3890,
      "芫": 3891,
      "芬": 3892,
      "芭": 3893,
      "芯": 3894,
      "花": 3895,
      "芳": 3896,
      "芸": 3897,
      "芹": 3898,
      "芽": 3899,
      "苇": 3900,
      "苍": 3901,
      "苏": 3902,
      "苑": 3903,
      "苒": 3904,
      "苔": 3905,
      "苗": 3906,
      "苛": 3907,
      "苜": 3908,
      "苞": 3909,
      "苟": 3910,
      "苣": 3911,
      "若": 3912,
      "苦": 3913,
      "苪": 3914,
      "苯": 3915,
      "英": 3916,
      "苷": 3917,
      "苹": 3918,
      "茁": 3919,
      "茂": 3920,
      "范": 3921,
      "茄": 3922,
      "茅": 3923,
      "茉": 3924,
      "茎": 3925,
      "茏": 3926,
      "茛": 3927,
      "茜": 3928,
      "茧": 3929,
      "茨": 3930,
      "茫": 3931,
      "茬": 3932,
      "茱": 3933,
      "茲": 3934,
      "茴": 3935,
      "茵": 3936,
      "茶": 3937,
      "茸": 3938,
      "茹": 3939,
      "荆": 3940,
      "草": 3941,
      "荏": 3942,
      "荐": 3943,
      "荑": 3944,
      "荒": 3945,
      "荔": 3946,
      "荚": 3947,
      "荞": 3948,
      "荟": 3949,
      "荡": 3950,
      "荣": 3951,
      "荧": 3952,
      "荨": 3953,
      "荫": 3954,
      "药": 3955,
      "荷": 3956,
      "荻": 3957,
      "荼": 3958,
      "荽": 3959,
      "莅": 3960,
      "莉": 3961,
      "莊": 3962,
      "莎": 3963,
      "莓": 3964,
      "莞": 3965,
      "莫": 3966,
      "莱": 3967,
      "莲": 3968,
      "莴": 3969,
      "获": 3970,
      "莹": 3971,
      "莺": 3972,
      "莽": 3973,
      "菁": 3974,
      "菅": 3975,
      "菇": 3976,
      "菊": 3977,
      "菌": 3978,
      "菜": 3979,
      "菠": 3980,
      "菡": 3981,
      "菩": 3982,
      "菱": 3983,
      "菲": 3984,
      "萃": 3985,
      "萄": 3986,
      "萋": 3987,
      "萌": 3988,
      "萍": 3989,
      "萎": 3990,
      "萘": 3991,
      "萝": 3992,
      "萡": 3993,
      "萤": 3994,
      "营": 3995,
      "萦": 3996,
      "萧": 3997,
      "萨": 3998,
      "萬": 3999,
      "萸": 4000,
      "落": 4001,
      "葆": 4002,
      "葉": 4003,
      "著": 4004,
      "葚": 4005,
      "葛": 4006,
      "葡": 4007,
      "董": 4008,
      "葩": 4009,
      "葫": 4010,
      "葬": 4011,
      "葱": 4012,
      "葳": 4013,
      "葵": 4014,
      "葺": 4015,
      "蒂": 4016,
      "蒙": 4017,
      "蒜": 4018,
      "蒡": 4019,
      "蒲": 4020,
      "蒸": 4021,
      "蒿": 4022,
      "蓄": 4023,
      "蓉": 4024,
      "蓋": 4025,
      "蓓": 4026,
      "蓝": 4027,
      "蓬": 4028,
      "蓭": 4029,
      "蓿": 4030,
      "蔑": 4031,
      "蔓": 4032,
      "蔗": 4033,
      "蔚": 4034,
      "蔡": 4035,
      "蔫": 4036,
      "蔬": 4037,
      "蔷": 4038,
      "蔻": 4039,
      "蔼": 4040,
      "蔽": 4041,
      "蕃": 4042,
      "蕈": 4043,
      "蕉": 4044,
      "蕊": 4045,
      "蕙": 4046,
      "蕨": 4047,
      "蕴": 4048,
      "蕾": 4049,
      "薄": 4050,
      "薇": 4051,
      "薛": 4052,
      "薩": 4053,
      "薪": 4054,
      "薮": 4055,
      "薯": 4056,
      "薰": 4057,
      "藉": 4058,
      "藏": 4059,
      "藐": 4060,
      "藓": 4061,
      "藕": 4062,
      "藜": 4063,
      "藝": 4064,
      "藤": 4065,
      "藩": 4066,
      "藻": 4067,
      "蘑": 4068,
      "蘭": 4069,
      "蘸": 4070,
      "虎": 4071,
      "虏": 4072,
      "虐": 4073,
      "虑": 4074,
      "虔": 4075,
      "虚": 4076,
      "虫": 4077,
      "虱": 4078,
      "虹": 4079,
      "虻": 4080,
      "虽": 4081,
      "虾": 4082,
      "蚀": 4083,
      "蚁": 4084,
      "蚂": 4085,
      "蚊": 4086,
      "蚌": 4087,
      "蚓": 4088,
      "蚕": 4089,
      "蚜": 4090,
      "蚣": 4091,
      "蚤": 4092,
      "蚪": 4093,
      "蚯": 4094,
      "蚱": 4095,
      "蚺": 4096,
      "蛀": 4097,
      "蛄": 4098,
      "蛆": 4099,
      "蛇": 4100,
      "蛊": 4101,
      "蛋": 4102,
      "蛎": 4103,
      "蛐": 4104,
      "蛔": 4105,
      "蛙": 4106,
      "蛛": 4107,
      "蛞": 4108,
      "蛟": 4109,
      "蛤": 4110,
      "蛭": 4111,
      "蛮": 4112,
      "蛰": 4113,
      "蛸": 4114,
      "蛹": 4115,
      "蛾": 4116,
      "蜀": 4117,
      "蜂": 4118,
      "蜃": 4119,
      "蜇": 4120,
      "蜈": 4121,
      "蜉": 4122,
      "蜊": 4123,
      "蜍": 4124,
      "蜒": 4125,
      "蜓": 4126,
      "蜕": 4127,
      "蜗": 4128,
      "蜘": 4129,
      "蜚": 4130,
      "蜜": 4131,
      "蜡": 4132,
      "蜢": 4133,
      "蜣": 4134,
      "蜥": 4135,
      "蜴": 4136,
      "蜷": 4137,
      "蜻": 4138,
      "蜿": 4139,
      "蝇": 4140,
      "蝉": 4141,
      "蝌": 4142,
      "蝎": 4143,
      "蝓": 4144,
      "蝗": 4145,
      "蝙": 4146,
      "蝠": 4147,
      "蝣": 4148,
      "蝮": 4149,
      "蝰": 4150,
      "蝴": 4151,
      "蝶": 4152,
      "蝾": 4153,
      "蝿": 4154,
      "螂": 4155,
      "螃": 4156,
      "螅": 4157,
      "螈": 4158,
      "螋": 4159,
      "融": 4160,
      "螟": 4161,
      "螨": 4162,
      "螫": 4163,
      "螯": 4164,
      "螳": 4165,
      "螺": 4166,
      "螽": 4167,
      "蟀": 4168,
      "蟆": 4169,
      "蟋": 4170,
      "蟎": 4171,
      "蟑": 4172,
      "蟒": 4173,
      "蟹": 4174,
      "蟾": 4175,
      "蠕": 4176,
      "蠢": 4177,
      "蠱": 4178,
      "蠼": 4179,
      "血": 4180,
      "衅": 4181,
      "行": 4182,
      "衍": 4183,
      "術": 4184,
      "衔": 4185,
      "街": 4186,
      "衝": 4187,
      "衡": 4188,
      "衣": 4189,
      "补": 4190,
      "表": 4191,
      "衫": 4192,
      "衬": 4193,
      "衰": 4194,
      "衷": 4195,
      "衾": 4196,
      "袁": 4197,
      "袂": 4198,
      "袄": 4199,
      "袅": 4200,
      "袋": 4201,
      "袍": 4202,
      "袒": 4203,
      "袖": 4204,
      "袛": 4205,
      "袜": 4206,
      "袤": 4207,
      "被": 4208,
      "袭": 4209,
      "袱": 4210,
      "裁": 4211,
      "裂": 4212,
      "装": 4213,
      "裆": 4214,
      "裔": 4215,
      "裕": 4216,
      "裘": 4217,
      "裙": 4218,
      "裝": 4219,
      "裡": 4220,
      "裤": 4221,
      "裨": 4222,
      "裱": 4223,
      "裳": 4224,
      "裸": 4225,
      "裹": 4226,
      "褂": 4227,
      "複": 4228,
      "褐": 4229,
      "褒": 4230,
      "褓": 4231,
      "褛": 4232,
      "褥": 4233,
      "褪": 4234,
      "褴": 4235,
      "褶": 4236,
      "襁": 4237,
      "襞": 4238,
      "襟": 4239,
      "西": 4240,
      "要": 4241,
      "覆": 4242,
      "見": 4243,
      "視": 4244,
      "覺": 4245,
      "见": 4246,
      "观": 4247,
      "规": 4248,
      "觅": 4249,
      "视": 4250,
      "览": 4251,
      "觉": 4252,
      "觊": 4253,
      "觎": 4254,
      "觑": 4255,
      "角": 4256,
      "觜": 4257,
      "解": 4258,
      "触": 4259,
      "觸": 4260,
      "言": 4261,
      "訇": 4262,
      "計": 4263,
      "訊": 4264,
      "託": 4265,
      "設": 4266,
      "許": 4267,
      "訴": 4268,
      "詈": 4269,
      "試": 4270,
      "話": 4271,
      "該": 4272,
      "詹": 4273,
      "詺": 4274,
      "誉": 4275,
      "誊": 4276,
      "誌": 4277,
      "認": 4278,
      "誓": 4279,
      "說": 4280,
      "誰": 4281,
      "課": 4282,
      "請": 4283,
      "論": 4284,
      "諾": 4285,
      "謂": 4286,
      "謎": 4287,
      "謝": 4288,
      "警": 4289,
      "譬": 4290,
      "讃": 4291,
      "變": 4292,
      "计": 4293,
      "订": 4294,
      "讣": 4295,
      "认": 4296,
      "讥": 4297,
      "讧": 4298,
      "讨": 4299,
      "让": 4300,
      "讪": 4301,
      "训": 4302,
      "议": 4303,
      "讯": 4304,
      "记": 4305,
      "讲": 4306,
      "讳": 4307,
      "讶": 4308,
      "讷": 4309,
      "许": 4310,
      "讹": 4311,
      "论": 4312,
      "讼": 4313,
      "讽": 4314,
      "设": 4315,
      "访": 4316,
      "诀": 4317,
      "证": 4318,
      "诃": 4319,
      "评": 4320,
      "诅": 4321,
      "识": 4322,
      "诈": 4323,
      "诉": 4324,
      "诊": 4325,
      "诋": 4326,
      "诌": 4327,
      "词": 4328,
      "诏": 4329,
      "译": 4330,
      "诓": 4331,
      "试": 4332,
      "诗": 4333,
      "诘": 4334,
      "诙": 4335,
      "诚": 4336,
      "话": 4337,
      "诞": 4338,
      "诟": 4339,
      "诠": 4340,
      "诡": 4341,
      "询": 4342,
      "诣": 4343,
      "该": 4344,
      "详": 4345,
      "诧": 4346,
      "诨": 4347,
      "诩": 4348,
      "诫": 4349,
      "诬": 4350,
      "语": 4351,
      "误": 4352,
      "诱": 4353,
      "诲": 4354,
      "说": 4355,
      "诵": 4356,
      "诶": 4357,
      "请": 4358,
      "诸": 4359,
      "诺": 4360,
      "读": 4361,
      "诽": 4362,
      "课": 4363,
      "诿": 4364,
      "谁": 4365,
      "调": 4366,
      "谄": 4367,
      "谅": 4368,
      "谈": 4369,
      "谊": 4370,
      "谋": 4371,
      "谍": 4372,
      "谎": 4373,
      "谏": 4374,
      "谐": 4375,
      "谑": 4376,
      "谓": 4377,
      "谔": 4378,
      "谕": 4379,
      "谙": 4380,
      "谚": 4381,
      "谛": 4382,
      "谜": 4383,
      "谟": 4384,
      "谢": 4385,
      "谣": 4386,
      "谤": 4387,
      "谦": 4388,
      "谧": 4389,
      "谨": 4390,
      "谩": 4391,
      "谬": 4392,
      "谭": 4393,
      "谱": 4394,
      "谲": 4395,
      "谴": 4396,
      "谶": 4397,
      "谷": 4398,
      "豁": 4399,
      "豆": 4400,
      "豉": 4401,
      "豌": 4402,
      "豔": 4403,
      "豕": 4404,
      "豚": 4405,
      "象": 4406,
      "豢": 4407,
      "豪": 4408,
      "豫": 4409,
      "豹": 4410,
      "豺": 4411,
      "貂": 4412,
      "貉": 4413,
      "貌": 4414,
      "貓": 4415,
      "貘": 4416,
      "貝": 4417,
      "貨": 4418,
      "貴": 4419,
      "貼": 4420,
      "資": 4421,
      "賈": 4422,
      "贝": 4423,
      "贞": 4424,
      "负": 4425,
      "贡": 4426,
      "财": 4427,
      "责": 4428,
      "贤": 4429,
      "败": 4430,
      "账": 4431,
      "货": 4432,
      "质": 4433,
      "贩": 4434,
      "贪": 4435,
      "贫": 4436,
      "贬": 4437,
      "购": 4438,
      "贮": 4439,
      "贯": 4440,
      "贱": 4441,
      "贴": 4442,
      "贵": 4443,
      "贷": 4444,
      "贸": 4445,
      "费": 4446,
      "贺": 4447,
      "贻": 4448,
      "贼": 4449,
      "贾": 4450,
      "贿": 4451,
      "赀": 4452,
      "赁": 4453,
      "赂": 4454,
      "赃": 4455,
      "资": 4456,
      "赅": 4457,
      "赇": 4458,
      "赈": 4459,
      "赊": 4460,
      "赋": 4461,
      "赌": 4462,
      "赎": 4463,
      "赏": 4464,
      "赐": 4465,
      "赔": 4466,
      "赖": 4467,
      "赘": 4468,
      "赚": 4469,
      "赛": 4470,
      "赝": 4471,
      "赞": 4472,
      "赠": 4473,
      "赡": 4474,
      "赢": 4475,
      "赤": 4476,
      "赦": 4477,
      "赫": 4478,
      "赭": 4479,
      "走": 4480,
      "赴": 4481,
      "赶": 4482,
      "起": 4483,
      "趁": 4484,
      "趄": 4485,
      "超": 4486,
      "越": 4487,
      "趋": 4488,
      "趔": 4489,
      "趟": 4490,
      "趣": 4491,
      "足": 4492,
      "趴": 4493,
      "趸": 4494,
      "趾": 4495,
      "跃": 4496,
      "跄": 4497,
      "跆": 4498,
      "跋": 4499,
      "跌": 4500,
      "跎": 4501,
      "跑": 4502,
      "跚": 4503,
      "跛": 4504,
      "距": 4505,
      "跟": 4506,
      "跡": 4507,
      "跤": 4508,
      "跨": 4509,
      "跪": 4510,
      "路": 4511,
      "跳": 4512,
      "践": 4513,
      "跶": 4514,
      "跷": 4515,
      "跺": 4516,
      "跻": 4517,
      "踉": 4518,
      "踊": 4519,
      "踌": 4520,
      "踏": 4521,
      "踝": 4522,
      "踞": 4523,
      "踢": 4524,
      "踩": 4525,
      "踪": 4526,
      "踫": 4527,
      "踮": 4528,
      "踱": 4529,
      "踵": 4530,
      "踹": 4531,
      "蹂": 4532,
      "蹄": 4533,
      "蹈": 4534,
      "蹉": 4535,
      "蹊": 4536,
      "蹋": 4537,
      "蹒": 4538,
      "蹚": 4539,
      "蹦": 4540,
      "蹩": 4541,
      "蹬": 4542,
      "蹭": 4543,
      "蹲": 4544,
      "蹴": 4545,
      "蹶": 4546,
      "蹼": 4547,
      "蹿": 4548,
      "躁": 4549,
      "躇": 4550,
      "躏": 4551,
      "身": 4552,
      "躬": 4553,
      "躯": 4554,
      "躲": 4555,
      "躶": 4556,
      "躹": 4557,
      "躺": 4558,
      "車": 4559,
      "軟": 4560,
      "輕": 4561,
      "轉": 4562,
      "车": 4563,
      "轧": 4564,
      "轨": 4565,
      "轩": 4566,
      "转": 4567,
      "轮": 4568,
      "软": 4569,
      "轰": 4570,
      "轴": 4571,
      "轶": 4572,
      "轻": 4573,
      "载": 4574,
      "轾": 4575,
      "轿": 4576,
      "较": 4577,
      "辄": 4578,
      "辅": 4579,
      "辆": 4580,
      "辈": 4581,
      "辉": 4582,
      "辊": 4583,
      "辋": 4584,
      "辍": 4585,
      "辐": 4586,
      "辑": 4587,
      "输": 4588,
      "辕": 4589,
      "辖": 4590,
      "辗": 4591,
      "辘": 4592,
      "辙": 4593,
      "辛": 4594,
      "辜": 4595,
      "辞": 4596,
      "辟": 4597,
      "辣": 4598,
      "辦": 4599,
      "辨": 4600,
      "辩": 4601,
      "辫": 4602,
      "辰": 4603,
      "辱": 4604,
      "边": 4605,
      "辽": 4606,
      "达": 4607,
      "迁": 4608,
      "迂": 4609,
      "迄": 4610,
      "迅": 4611,
      "过": 4612,
      "迈": 4613,
      "迎": 4614,
      "运": 4615,
      "近": 4616,
      "返": 4617,
      "还": 4618,
      "这": 4619,
      "进": 4620,
      "远": 4621,
      "违": 4622,
      "连": 4623,
      "迟": 4624,
      "迢": 4625,
      "迥": 4626,
      "迦": 4627,
      "迩": 4628,
      "迪": 4629,
      "迫": 4630,
      "迭": 4631,
      "述": 4632,
      "迳": 4633,
      "迴": 4634,
      "迷": 4635,
      "迸": 4636,
      "迹": 4637,
      "追": 4638,
      "退": 4639,
      "送": 4640,
      "适": 4641,
      "逃": 4642,
      "逅": 4643,
      "逆": 4644,
      "选": 4645,
      "逊": 4646,
      "逍": 4647,
      "透": 4648,
      "逐": 4649,
      "递": 4650,
      "途": 4651,
      "逗": 4652,
      "這": 4653,
      "通": 4654,
      "逛": 4655,
      "逝": 4656,
      "逞": 4657,
      "速": 4658,
      "造": 4659,
      "逢": 4660,
      "連": 4661,
      "逮": 4662,
      "進": 4663,
      "逸": 4664,
      "逻": 4665,
      "逼": 4666,
      "逾": 4667,
      "遁": 4668,
      "遂": 4669,
      "遇": 4670,
      "遊": 4671,
      "運": 4672,
      "遍": 4673,
      "過": 4674,
      "遏": 4675,
      "遐": 4676,
      "遑": 4677,
      "遒": 4678,
      "道": 4679,
      "達": 4680,
      "遗": 4681,
      "遛": 4682,
      "遠": 4683,
      "遢": 4684,
      "遣": 4685,
      "遥": 4686,
      "遨": 4687,
      "適": 4688,
      "遭": 4689,
      "遮": 4690,
      "遴": 4691,
      "遵": 4692,
      "遽": 4693,
      "避": 4694,
      "邀": 4695,
      "邂": 4696,
      "邃": 4697,
      "還": 4698,
      "邋": 4699,
      "邑": 4700,
      "邓": 4701,
      "邗": 4702,
      "邝": 4703,
      "那": 4704,
      "邦": 4705,
      "邪": 4706,
      "邮": 4707,
      "邱": 4708,
      "邸": 4709,
      "邻": 4710,
      "郁": 4711,
      "郊": 4712,
      "郎": 4713,
      "郑": 4714,
      "郝": 4715,
      "郞": 4716,
      "郡": 4717,
      "部": 4718,
      "郭": 4719,
      "都": 4720,
      "鄂": 4721,
      "鄙": 4722,
      "酊": 4723,
      "酋": 4724,
      "酌": 4725,
      "配": 4726,
      "酐": 4727,
      "酒": 4728,
      "酗": 4729,
      "酚": 4730,
      "酝": 4731,
      "酣": 4732,
      "酥": 4733,
      "酩": 4734,
      "酪": 4735,
      "酬": 4736,
      "酮": 4737,
      "酯": 4738,
      "酰": 4739,
      "酱": 4740,
      "酵": 4741,
      "酶": 4742,
      "酷": 4743,
      "酸": 4744,
      "酿": 4745,
      "醇": 4746,
      "醉": 4747,
      "醋": 4748,
      "醍": 4749,
      "醐": 4750,
      "醒": 4751,
      "醚": 4752,
      "醛": 4753,
      "醣": 4754,
      "醫": 4755,
      "醺": 4756,
      "釆": 4757,
      "采": 4758,
      "釉": 4759,
      "释": 4760,
      "釋": 4761,
      "里": 4762,
      "重": 4763,
      "野": 4764,
      "量": 4765,
      "釐": 4766,
      "金": 4767,
      "釜": 4768,
      "鉄": 4769,
      "鉴": 4770,
      "銥": 4771,
      "鋶": 4772,
      "錫": 4773,
      "錯": 4774,
      "鎝": 4775,
      "鐘": 4776,
      "鐡": 4777,
      "针": 4778,
      "钉": 4779,
      "钋": 4780,
      "钍": 4781,
      "钎": 4782,
      "钒": 4783,
      "钓": 4784,
      "钔": 4785,
      "钙": 4786,
      "钚": 4787,
      "钛": 4788,
      "钝": 4789,
      "钞": 4790,
      "钟": 4791,
      "钠": 4792,
      "钡": 4793,
      "钢": 4794,
      "钣": 4795,
      "钥": 4796,
      "钦": 4797,
      "钧": 4798,
      "钨": 4799,
      "钩": 4800,
      "钪": 4801,
      "钮": 4802,
      "钯": 4803,
      "钱": 4804,
      "钳": 4805,
      "钴": 4806,
      "钵": 4807,
      "钶": 4808,
      "钸": 4809,
      "钹": 4810,
      "钻": 4811,
      "钼": 4812,
      "钽": 4813,
      "钾": 4814,
      "铀": 4815,
      "铁": 4816,
      "铂": 4817,
      "铃": 4818,
      "铄": 4819,
      "铅": 4820,
      "铆": 4821,
      "铇": 4822,
      "铉": 4823,
      "铊": 4824,
      "铋": 4825,
      "铍": 4826,
      "铎": 4827,
      "铐": 4828,
      "铒": 4829,
      "铙": 4830,
      "铛": 4831,
      "铜": 4832,
      "铝": 4833,
      "铠": 4834,
      "铣": 4835,
      "铤": 4836,
      "铩": 4837,
      "铬": 4838,
      "铭": 4839,
      "铯": 4840,
      "铰": 4841,
      "铱": 4842,
      "铲": 4843,
      "铵": 4844,
      "银": 4845,
      "铷": 4846,
      "铸": 4847,
      "铺": 4848,
      "铼": 4849,
      "链": 4850,
      "铿": 4851,
      "销": 4852,
      "锁": 4853,
      "锂": 4854,
      "锃": 4855,
      "锄": 4856,
      "锅": 4857,
      "锆": 4858,
      "锇": 4859,
      "锈": 4860,
      "锋": 4861,
      "锌": 4862,
      "锏": 4863,
      "锐": 4864,
      "锑": 4865,
      "锒": 4866,
      "锗": 4867,
      "错": 4868,
      "锚": 4869,
      "锝": 4870,
      "锡": 4871,
      "锢": 4872,
      "锣": 4873,
      "锤": 4874,
      "锥": 4875,
      "锦": 4876,
      "锭": 4877,
      "键": 4878,
      "锯": 4879,
      "锰": 4880,
      "锲": 4881,
      "锵": 4882,
      "锹": 4883,
      "锻": 4884,
      "镀": 4885,
      "镁": 4886,
      "镂": 4887,
      "镇": 4888,
      "镉": 4889,
      "镊": 4890,
      "镌": 4891,
      "镍": 4892,
      "镐": 4893,
      "镑": 4894,
      "镓": 4895,
      "镖": 4896,
      "镜": 4897,
      "镣": 4898,
      "镫": 4899,
      "镭": 4900,
      "镯": 4901,
      "镰": 4902,
      "镲": 4903,
      "镳": 4904,
      "镶": 4905,
      "長": 4906,
      "长": 4907,
      "門": 4908,
      "開": 4909,
      "間": 4910,
      "關": 4911,
      "门": 4912,
      "闩": 4913,
      "闪": 4914,
      "闭": 4915,
      "问": 4916,
      "闯": 4917,
      "闰": 4918,
      "闲": 4919,
      "闳": 4920,
      "间": 4921,
      "闵": 4922,
      "闷": 4923,
      "闸": 4924,
      "闹": 4925,
      "闺": 4926,
      "闻": 4927,
      "闽": 4928,
      "阀": 4929,
      "阁": 4930,
      "阂": 4931,
      "阅": 4932,
      "阈": 4933,
      "阉": 4934,
      "阎": 4935,
      "阐": 4936,
      "阑": 4937,
      "阔": 4938,
      "阖": 4939,
      "阙": 4940,
      "队": 4941,
      "阪": 4942,
      "阮": 4943,
      "阱": 4944,
      "防": 4945,
      "阳": 4946,
      "阴": 4947,
      "阵": 4948,
      "阶": 4949,
      "阻": 4950,
      "阿": 4951,
      "陀": 4952,
      "附": 4953,
      "际": 4954,
      "陆": 4955,
      "陈": 4956,
      "陋": 4957,
      "陌": 4958,
      "降": 4959,
      "限": 4960,
      "陕": 4961,
      "陛": 4962,
      "陡": 4963,
      "院": 4964,
      "除": 4965,
      "陨": 4966,
      "险": 4967,
      "陪": 4968,
      "陲": 4969,
      "陵": 4970,
      "陶": 4971,
      "陷": 4972,
      "陸": 4973,
      "隅": 4974,
      "隆": 4975,
      "随": 4976,
      "隐": 4977,
      "隔": 4978,
      "隘": 4979,
      "隙": 4980,
      "際": 4981,
      "障": 4982,
      "隧": 4983,
      "隨": 4984,
      "隳": 4985,
      "隶": 4986,
      "隻": 4987,
      "隼": 4988,
      "隽": 4989,
      "难": 4990,
      "雀": 4991,
      "雁": 4992,
      "雄": 4993,
      "雅": 4994,
      "集": 4995,
      "雇": 4996,
      "雉": 4997,
      "雌": 4998,
      "雍": 4999,
      "雏": 5000,
      "雕": 5001,
      "離": 5002,
      "難": 5003,
      "雨": 5004,
      "雪": 5005,
      "雯": 5006,
      "雳": 5007,
      "零": 5008,
      "雷": 5009,
      "雹": 5010,
      "電": 5011,
      "雾": 5012,
      "需": 5013,
      "霄": 5014,
      "霆": 5015,
      "震": 5016,
      "霉": 5017,
      "霍": 5018,
      "霎": 5019,
      "霓": 5020,
      "霖": 5021,
      "霜": 5022,
      "霞": 5023,
      "露": 5024,
      "霸": 5025,
      "霹": 5026,
      "霾": 5027,
      "青": 5028,
      "靓": 5029,
      "靖": 5030,
      "静": 5031,
      "靛": 5032,
      "非": 5033,
      "靠": 5034,
      "靡": 5035,
      "面": 5036,
      "革": 5037,
      "靴": 5038,
      "靶": 5039,
      "鞋": 5040,
      "鞍": 5041,
      "鞘": 5042,
      "鞠": 5043,
      "鞣": 5044,
      "鞥": 5045,
      "鞭": 5046,
      "韦": 5047,
      "韧": 5048,
      "韩": 5049,
      "韬": 5050,
      "音": 5051,
      "韵": 5052,
      "須": 5053,
      "領": 5054,
      "頸": 5055,
      "顏": 5056,
      "類": 5057,
      "顫": 5058,
      "页": 5059,
      "顶": 5060,
      "顷": 5061,
      "项": 5062,
      "顺": 5063,
      "须": 5064,
      "顽": 5065,
      "顾": 5066,
      "顿": 5067,
      "颁": 5068,
      "颂": 5069,
      "预": 5070,
      "颅": 5071,
      "领": 5072,
      "颇": 5073,
      "颈": 5074,
      "颊": 5075,
      "颌": 5076,
      "颏": 5077,
      "颐": 5078,
      "频": 5079,
      "颓": 5080,
      "颖": 5081,
      "颗": 5082,
      "题": 5083,
      "颚": 5084,
      "颜": 5085,
      "额": 5086,
      "颞": 5087,
      "颠": 5088,
      "颤": 5089,
      "颧": 5090,
      "风": 5091,
      "飓": 5092,
      "飕": 5093,
      "飘": 5094,
      "飙": 5095,
      "飚": 5096,
      "飛": 5097,
      "飞": 5098,
      "食": 5099,
      "餐": 5100,
      "餘": 5101,
      "館": 5102,
      "餮": 5103,
      "饕": 5104,
      "饥": 5105,
      "饨": 5106,
      "饪": 5107,
      "饭": 5108,
      "饮": 5109,
      "饰": 5110,
      "饱": 5111,
      "饲": 5112,
      "饴": 5113,
      "饵": 5114,
      "饶": 5115,
      "饺": 5116,
      "饼": 5117,
      "饿": 5118,
      "馀": 5119,
      "馁": 5120,
      "馄": 5121,
      "馅": 5122,
      "馆": 5123,
      "馈": 5124,
      "馊": 5125,
      "馋": 5126,
      "馏": 5127,
      "馔": 5128,
      "首": 5129,
      "香": 5130,
      "馥": 5131,
      "馨": 5132,
      "馬": 5133,
      "馮": 5134,
      "驗": 5135,
      "驚": 5136,
      "马": 5137,
      "驭": 5138,
      "驮": 5139,
      "驯": 5140,
      "驰": 5141,
      "驱": 5142,
      "驳": 5143,
      "驴": 5144,
      "驶": 5145,
      "驹": 5146,
      "驻": 5147,
      "驼": 5148,
      "驾": 5149,
      "骁": 5150,
      "骂": 5151,
      "骄": 5152,
      "骆": 5153,
      "骇": 5154,
      "骋": 5155,
      "验": 5156,
      "骏": 5157,
      "骑": 5158,
      "骗": 5159,
      "骚": 5160,
      "骛": 5161,
      "骡": 5162,
      "骤": 5163,
      "骨": 5164,
      "骰": 5165,
      "骶": 5166,
      "骷": 5167,
      "骸": 5168,
      "骼": 5169,
      "髂": 5170,
      "髅": 5171,
      "髋": 5172,
      "髓": 5173,
      "髖": 5174,
      "高": 5175,
      "髦": 5176,
      "髭": 5177,
      "髯": 5178,
      "髻": 5179,
      "鬃": 5180,
      "鬓": 5181,
      "鬣": 5182,
      "鬱": 5183,
      "鬼": 5184,
      "魁": 5185,
      "魂": 5186,
      "魄": 5187,
      "魅": 5188,
      "魇": 5189,
      "魏": 5190,
      "魔": 5191,
      "魚": 5192,
      "魟": 5193,
      "魨": 5194,
      "魯": 5195,
      "鮟": 5196,
      "鮭": 5197,
      "鮮": 5198,
      "鯊": 5199,
      "鯨": 5200,
      "鰺": 5201,
      "鱇": 5202,
      "鱼": 5203,
      "鱿": 5204,
      "鲁": 5205,
      "鲈": 5206,
      "鲍": 5207,
      "鲎": 5208,
      "鲑": 5209,
      "鲔": 5210,
      "鲛": 5211,
      "鲜": 5212,
      "鲟": 5213,
      "鲠": 5214,
      "鲤": 5215,
      "鲦": 5216,
      "鲨": 5217,
      "鲭": 5218,
      "鲯": 5219,
      "鲱": 5220,
      "鲶": 5221,
      "鲷": 5222,
      "鲸": 5223,
      "鲹": 5224,
      "鲼": 5225,
      "鲾": 5226,
      "鳀": 5227,
      "鳃": 5228,
      "鳄": 5229,
      "鳅": 5230,
      "鳊": 5231,
      "鳌": 5232,
      "鳍": 5233,
      "鳏": 5234,
      "鳐": 5235,
      "鳕": 5236,
      "鳖": 5237,
      "鳗": 5238,
      "鳝": 5239,
      "鳞": 5240,
      "鳟": 5241,
      "鵟": 5242,
      "鷉": 5243,
      "鸟": 5244,
      "鸠": 5245,
      "鸡": 5246,
      "鸢": 5247,
      "鸣": 5248,
      "鸥": 5249,
      "鸦": 5250,
      "鸨": 5251,
      "鸩": 5252,
      "鸫": 5253,
      "鸭": 5254,
      "鸯": 5255,
      "鸳": 5256,
      "鸵": 5257,
      "鸸": 5258,
      "鸽": 5259,
      "鸿": 5260,
      "鹀": 5261,
      "鹃": 5262,
      "鹅": 5263,
      "鹈": 5264,
      "鹉": 5265,
      "鹊": 5266,
      "鹋": 5267,
      "鹏": 5268,
      "鹓": 5269,
      "鹕": 5270,
      "鹛": 5271,
      "鹜": 5272,
      "鹞": 5273,
      "鹟": 5274,
      "鹤": 5275,
      "鹦": 5276,
      "鹫": 5277,
      "鹬": 5278,
      "鹭": 5279,
      "鹰": 5280,
      "鹱": 5281,
      "鹳": 5282,
      "鹿": 5283,
      "麋": 5284,
      "麒": 5285,
      "麓": 5286,
      "麝": 5287,
      "麟": 5288,
      "麦": 5289,
      "麸": 5290,
      "麻": 5291,
      "麼": 5292,
      "麽": 5293,
      "麾": 5294,
      "黃": 5295,
      "黄": 5296,
      "黍": 5297,
      "黎": 5298,
      "黏": 5299,
      "黑": 5300,
      "黔": 5301,
      "默": 5302,
      "黛": 5303,
      "黜": 5304,
      "黝": 5305,
      "點": 5306,
      "黢": 5307,
      "黯": 5308,
      "黾": 5309,
      "鼎": 5310,
      "鼓": 5311,
      "鼠": 5312,
      "鼩": 5313,
      "鼬": 5314,
      "鼯": 5315,
      "鼹": 5316,
      "鼻": 5317,
      "鼾": 5318,
      "齐": 5319,
      "齿": 5320,
      "龄": 5321,
      "龅": 5322,
      "龈": 5323,
      "龊": 5324,
      "龋": 5325,
      "龌": 5326,
      "龙": 5327,
      "龚": 5328,
      "龛": 5329,
      "龟": 5330,
      "︰": 5331,
      "﹐": 5332,
      "﹔": 5333,
      "﹕": 5334,
      "﹖": 5335,
      "﹣": 5336,
      "﻿": 5337,
      "！": 5338,
      "＂": 5339,
      "＃": 5340,
      "％": 5341,
      "（": 5342,
      "）": 5343,
      "＋": 5344,
      "，": 5345,
      "－": 5346,
      "．": 5347,
      "／": 5348,
      "０": 5349,
      "１": 5350,
      "２": 5351,
      "３": 5352,
      "５": 5353,
      "６": 5354,
      "７": 5355,
      "８": 5356,
      "９": 5357,
      "：": 5358,
      "；": 5359,
      "＝": 5360,
      "？": 5361,
      "＠": 5362,
      "Ａ": 5363,
      "Ｂ": 5364,
      "Ｃ": 5365,
      "Ｍ": 5366,
      "Ｕ": 5367,
      "Ｗ": 5368,
      "Ｘ": 5369,
      "Ｙ": 5370,
      "Ｚ": 5371,
      "［": 5372,
      "］": 5373,
      "｀": 5374,
      "｛": 5375,
      "｝": 5376,
      "～": 5377,
      "｡": 5378,
      "｢": 5379,
      "｣": 5380,
      "､": 5381,
      "･": 5382,
      "￥": 5383,
      "￼": 5384,
      "𥚃": 5385,
      "我们": 5386,
      "一个": 5387,
      "他们": 5388,
      "这个": 5389,
      "可以": 5390,
      "这些": 5391,
      "什么": 5392,
      "因为": 5393,
      "就是": 5394,
      "如果": 5395,
      "没有": 5396,
      "这是": 5397,
      "所以": 5398,
      "我的": 5399,
      "问题": 5400,
      "现在": 5401,
      "但是": 5402,
      "知道": 5403,
      "的人": 5404,
      "自己": 5405,
      "这样": 5406,
      "不是": 5407,
      "它们": 5408,
      "需要": 5409,
      "可能": 5410,
      "世界": 5411,
      "我们的": 5412,
      "你们": 5413,
      "开始": 5414,
      "的时": 5415,
      "非常": 5416,
      "一些": 5417,
      "——": 5418,
      "笑声": 5419,
      "看到": 5420,
      "所有": 5421,
      "然后": 5422,
      "的是": 5423,
      "工作": 5424,
      "那些": 5425,
      "00": 5426,
      "一种": 5427,
      "已经": 5428,
      "人们": 5429,
      "很多": 5430,
      "这种": 5431,
      "的事": 5432,
      "的时候": 5433,
      "你的": 5434,
      "东西": 5435,
      "或者": 5436,
      "认为": 5437,
      "发现": 5438,
      "研究": 5439,
      "我想": 5440,
      "如何": 5441,
      "不同": 5442,
      "一样": 5443,
      "到了": 5444,
      "发生": 5445,
      "孩子": 5446,
      "生活": 5447,
      "大的": 5448,
      "。”": 5449,
      "其他": 5450,
      "重要": 5451,
      "国家": 5452,
      "通过": 5453,
      "那么": 5454,
      "的一": 5455,
      "美国": 5456,
      "还有": 5457,
      "这里": 5458,
      "--": 5459,
      "能够": 5460,
      "改变": 5461,
      "起来": 5462,
      "方式": 5463,
      "他们的": 5464,
      "地方": 5465,
      "如果你": 5466,
      "部分": 5467,
      "人的": 5468,
      "告诉": 5469,
      "而且": 5470,
      "中的": 5471,
      "以及": 5472,
      "这一": 5473,
      "都是": 5474,
      "好的": 5475,
      "大家": 5476,
      "人类": 5477,
      "并且": 5478,
      "掌声": 5479,
      "任何": 5480,
      "使用": 5481,
      "不会": 5482,
      "为什么": 5483,
      "故事": 5484,
      "时间": 5485,
      "系统": 5486,
      "只是": 5487,
      "进行": 5488,
      "设计": 5489,
      "一起": 5490,
      "这样的": 5491,
      "关于": 5492,
      "应该": 5493,
      "自己的": 5494,
      "为了": 5495,
      "是一个": 5496,
      "科学": 5497,
      "来说": 5498,
      "数据": 5499,
      "觉得": 5500,
      "事实": 5501,
      "怎么": 5502,
      "社会": 5503,
      "不能": 5504,
      "一下": 5505,
      "上的": 5506,
      "技术": 5507,
      "个人": 5508,
      "希望": 5509,
      "来的": 5510,
      "一次": 5511,
      "正在": 5512,
      "甚至": 5513,
      "必须": 5514,
      "就像": 5515,
      "他的": 5516,
      "帮助": 5517,
      "我在": 5518,
      "对于": 5519,
      "信息": 5520,
      "这就是": 5521,
      "影响": 5522,
      "因此": 5523,
      "20": 5524,
      "方法": 5525,
      "那个": 5526,
      "实际": 5527,
      "还是": 5528,
      "的事情": 5529,
      "公司": 5530,
      "创造": 5531,
      "我们可以": 5532,
      "存在": 5533,
      "到的": 5534,
      "生物": 5535,
      "你可以": 5536,
      "解决": 5537,
      "也是": 5538,
      "真的": 5539,
      "更多": 5540,
      "成为": 5541,
      "大脑": 5542,
      "同时": 5543,
      "新的": 5544,
      "作为": 5545,
      "谢谢": 5546,
      "比如": 5547,
      "今天": 5548,
      "让我们": 5549,
      "完全": 5550,
      "情况": 5551,
      "喜欢": 5552,
      "这么": 5553,
      "一直": 5554,
      "之后": 5555,
      "了一": 5556,
      "选择": 5557,
      "机器": 5558,
      "生命": 5559,
      "发展": 5560,
      "的东西": 5561,
      "决定": 5562,
      "就会": 5563,
      "了一个": 5564,
      "有一个": 5565,
      "意识": 5566,
      "了解": 5567,
      "有一": 5568,
      "的问题": 5569,
      "当然": 5570,
      "城市": 5571,
      "真正": 5572,
      "来自": 5573,
      "细胞": 5574,
      "那里": 5575,
      "如此": 5576,
      "最后": 5577,
      "是在": 5578,
      "做的": 5579,
      "无法": 5580,
      "不同的": 5581,
      "经济": 5582,
      "我们在": 5583,
      "想法": 5584,
      "简单": 5585,
      "让我": 5586,
      "也许": 5587,
      "并不": 5588,
      "相信": 5589,
      "时候": 5590,
      "变得": 5591,
      "许多": 5592,
      "两个": 5593,
      "我不": 5594,
      "实际上": 5595,
      "产生": 5596,
      "结果": 5597,
      "组织": 5598,
      "其中": 5599,
      "它的": 5600,
      "女性": 5601,
      "实验": 5602,
      "过去": 5603,
      "感觉": 5604,
      "样的": 5605,
      "过程": 5606,
      "事实上": 5607,
      "其实": 5608,
      "想要": 5609,
      "环境": 5610,
      "事情": 5611,
      "？”": 5612,
      "之前": 5613,
      "仅仅": 5614,
      "0年": 5615,
      "地球": 5616,
      "的地方": 5617,
      "19": 5618,
      "想象": 5619,
      "理解": 5620,
      "有些": 5621,
      "我认为": 5622,
      "音乐": 5623,
      "政府": 5624,
      "动物": 5625,
      "能力": 5626,
      "原因": 5627,
      "得到": 5628,
      "之间": 5629,
      "提供": 5630,
      "，“": 5631,
      "全球": 5632,
      "整个": 5633,
      "朋友": 5634,
      "性的": 5635,
      "我是": 5636,
      "项目": 5637,
      "只有": 5638,
      "拥有": 5639,
      "：“": 5640,
      "当时": 5641,
      "方面": 5642,
      "艺术": 5643,
      "看看": 5644,
      "学习": 5645,
      "之一": 5646,
      "第一": 5647,
      "运动": 5648,
      "如果我们": 5649,
      "行为": 5650,
      "我们需要": 5651,
      "于是": 5652,
      "是什么": 5653,
      "经历": 5654,
      "健康": 5655,
      "当我": 5656,
      "变化": 5657,
      "变成": 5658,
      "当你": 5659,
      "身体": 5660,
      "下来": 5661,
      "自然": 5662,
      "例子": 5663,
      "找到": 5664,
      "照片": 5665,
      "成功": 5666,
      "你会": 5667,
      "的话": 5668,
      "出来": 5669,
      "我说": 5670,
      "思考": 5671,
      "所有的": 5672,
      "教育": 5673,
      "第二": 5674,
      "关系": 5675,
      "意味": 5676,
      "而是": 5677,
      "感到": 5678,
      "学生": 5679,
      "她们": 5680,
      "声音": 5681,
      "主义": 5682,
      "学家": 5683,
      "的方式": 5684,
      "她的": 5685,
      "历史": 5686,
      "是否": 5687,
      "er": 5688,
      "不过": 5689,
      "年前": 5690,
      "出现": 5691,
      "安全": 5692,
      "我要": 5693,
      "网络": 5694,
      "非洲": 5695,
      "建筑": 5696,
      "基因": 5697,
      "意味着": 5698,
      "是一": 5699,
      "未来": 5700,
      "an": 5701,
      "机会": 5702,
      "展示": 5703,
      "这是一个": 5704,
      "件事": 5705,
      "学校": 5706,
      "意思": 5707,
      "科技": 5708,
      "有人": 5709,
      "..": 5710,
      "基本": 5711,
      "令人": 5712,
      "里的": 5713,
      "医生": 5714,
      "利用": 5715,
      "世纪": 5716,
      "目标": 5717,
      "的时间": 5718,
      "200": 5719,
      "建立": 5720,
      "计算": 5721,
      "当我们": 5722,
      "并不是": 5723,
      "在我": 5724,
      "将会": 5725,
      "保护": 5726,
      "控制": 5727,
      "尝试": 5728,
      "每个": 5729,
      "获得": 5730,
      "意义": 5731,
      "10": 5732,
      "最终": 5733,
      "意识到": 5734,
      "家庭": 5735,
      "治疗": 5736,
      "语言": 5737,
      "复杂": 5738,
      "文化": 5739,
      "社区": 5740,
      "空间": 5741,
      "食物": 5742,
      "”。": 5743,
      "一点": 5744,
      "在这个": 5745,
      "有趣": 5746,
      "电脑": 5747,
      "神经": 5748,
      "我们有": 5749,
      "疾病": 5750,
      "接受": 5751,
      "我会": 5752,
      "美元": 5753,
      "我们就": 5754,
      "是个": 5755,
      "参与": 5756,
      "都会": 5757,
      "完成": 5758,
      "多数": 5759,
      "另一个": 5760,
      "各种": 5761,
      "数字": 5762,
      "继续": 5763,
      "作用": 5764,
      "政治": 5765,
      "注意": 5766,
      "几个": 5767,
      "演讲": 5768,
      "重要的": 5769,
      "我们不": 5770,
      "然而": 5771,
      "怎样": 5772,
      "进入": 5773,
      "在这": 5774,
      "活动": 5775,
      "多少": 5776,
      "更加": 5777,
      "宇宙": 5778,
      "在一起": 5779,
      "制造": 5780,
      "我也": 5781,
      "都有": 5782,
      "合作": 5783,
      "把它": 5784,
      "特别": 5785,
      "包括": 5786,
      "实现": 5787,
      "才能": 5788,
      "游戏": 5789,
      "我就": 5790,
      "它是": 5791,
      "联系": 5792,
      "努力": 5793,
      "大学": 5794,
      "年轻": 5795,
      "价值": 5796,
      "小时": 5797,
      "的一个": 5798,
      "每个人": 5799,
      "也就是": 5800,
      "几乎": 5801,
      "看起来": 5802,
      "计划": 5803,
      "答案": 5804,
      "一位": 5805,
      "世界上": 5806,
      "我觉得": 5807,
      "是因为": 5808,
      "做出": 5809,
      "确实": 5810,
      "分享": 5811,
      "解释": 5812,
      "反应": 5813,
      "每天": 5814,
      "重新": 5815,
      "小的": 5816,
      "现实": 5817,
      "可能会": 5818,
      "或是": 5819,
      "挑战": 5820,
      "中心": 5821,
      "做了": 5822,
      "首先": 5823,
      "容易": 5824,
      "工具": 5825,
      "我们要": 5826,
      "电影": 5827,
      "同样": 5828,
      "支持": 5829,
      "15": 5830,
      "叫做": 5831,
      "”，": 5832,
      "自由": 5833,
      "超过": 5834,
      "回到": 5835,
      "大多数": 5836,
      "生产": 5837,
      "地区": 5838,
      "持续": 5839,
      "视频": 5840,
      "都在": 5841,
      "这个问题": 5842,
      "中国": 5843,
      "你知道": 5844,
      "即使": 5845,
      "机器人": 5846,
      "量的": 5847,
      "ar": 5848,
      "我知道": 5849,
      "科学家": 5850,
      "年的": 5851,
      "另一": 5852,
      "领域": 5853,
      "处理": 5854,
      "in": 5855,
      "讨论": 5856,
      "三个": 5857,
      "在一个": 5858,
      "100": 5859,
      "一定": 5860,
      "我们也": 5861,
      "而不是": 5862,
      "不可": 5863,
      "在这里": 5864,
      "死亡": 5865,
      "十分": 5866,
      "第一个": 5867,
      "观察": 5868,
      "印度": 5869,
      "太阳": 5870,
      "不断": 5871,
      "不知道": 5872,
      "服务": 5873,
      "是我们": 5874,
      "准备": 5875,
      "更多的": 5876,
      "曾经": 5877,
      "出了": 5878,
      "产品": 5879,
      "每一个": 5880,
      "所以我": 5881,
      "on": 5882,
      "孩子们": 5883,
      "关注": 5884,
      "另外": 5885,
      "模式": 5886,
      "女孩": 5887,
      "导致": 5888,
      "力量": 5889,
      "市场": 5890,
      "行动": 5891,
      "说的": 5892,
      "通常": 5893,
      "有点": 5894,
      "大约": 5895,
      "结构": 5896,
      "尽管": 5897,
      "就在": 5898,
      "病毒": 5899,
      "但我": 5900,
      "那样": 5901,
      "观众": 5902,
      "不到": 5903,
      "百万": 5904,
      "并没有": 5905,
      "作品": 5906,
      "认识": 5907,
      "我们会": 5908,
      "大概": 5909,
      "代表": 5910,
      "那是": 5911,
      "他说": 5912,
      "带来": 5913,
      "的故事": 5914,
      "总是": 5915,
      "资源": 5916,
      "真实": 5917,
      "唯一": 5918,
      "成的": 5919,
      "母亲": 5920,
      "第一次": 5921,
      "虽然": 5922,
      "不要": 5923,
      "考虑": 5924,
      "医疗": 5925,
      "有关": 5926,
      "寻找": 5927,
      "直到": 5928,
      "力的": 5929,
      "我们所": 5930,
      "观点": 5931,
      "对我": 5932,
      "越来": 5933,
      "过的": 5934,
      "主要": 5935,
      "分子": 5936,
      "巨大的": 5937,
      "越来越": 5938,
      "大部分": 5939,
      "父母": 5940,
      "分钟": 5941,
      "看到的": 5942,
      "鼓掌": 5943,
      "那就是": 5944,
      "就可以": 5945,
      "目前": 5946,
      "有的": 5947,
      "海洋": 5948,
      "我可以": 5949,
      "感受": 5950,
      "色的": 5951,
      "程度": 5952,
      "精神": 5953,
      "十年": 5954,
      "制作": 5955,
      "有了": 5956,
      "结束": 5957,
      "随着": 5958,
      "我们能": 5959,
      "ED": 5960,
      "用来": 5961,
      "有很多": 5962,
      "的方法": 5963,
      "无论": 5964,
      "里面": 5965,
      "就能": 5966,
      "仍然": 5967,
      "感谢": 5968,
      "知识": 5969,
      "成了": 5970,
      "战争": 5971,
      "一切": 5972,
      "类似": 5973,
      "出的": 5974,
      "明白": 5975,
      "根本": 5976,
      "我们都": 5977,
      "病人": 5978,
      "去了": 5979,
      "别人": 5980,
      "面对": 5981,
      "多的": 5982,
      "物质": 5983,
      "药物": 5984,
      "理论": 5985,
      "化的": 5986,
      "那时": 5987,
      "你能": 5988,
      "增长": 5989,
      "也会": 5990,
      "离开": 5991,
      "自我": 5992,
      "正确": 5993,
      "区域": 5994,
      "气候": 5995,
      "电话": 5996,
      "的工作": 5997,
      "我很": 5998,
      "是的": 5999,
      "相当": 6000,
      "不仅": 6001,
      "团队": 6002,
      "某种": 6003,
      "它们的": 6004,
      "所以我们": 6005,
      "最近": 6006,
      "投资": 6007,
      "有着": 6008,
      "有效": 6009,
      "发生了": 6010,
      "显示": 6011,
      "记录": 6012,
      "记得": 6013,
      "手机": 6014,
      "NA": 6015,
      "保持": 6016,
      "充满": 6017,
      "模型": 6018,
      "或许": 6019,
      "的人们": 6020,
      "以前": 6021,
      "机构": 6022,
      "速度": 6023,
      "基础": 6024,
      "比较": 6025,
      "领导": 6026,
      "的小": 6027,
      "兴趣": 6028,
      "共同": 6029,
      "纽约": 6030,
      "错误": 6031,
      "媒体": 6032,
      "身上": 6033,
      "而言": 6034,
      "关键": 6035,
      "听到": 6036,
      "清楚": 6037,
      "名字": 6038,
      "工程": 6039,
      "不仅仅": 6040,
      "证明": 6041,
      "在我们": 6042,
      "能源": 6043,
      "增加": 6044,
      "直接": 6045,
      "办法": 6046,
      "TED": 6047,
      "汽车": 6048,
      "移动": 6049,
      "概念": 6050,
      "父亲": 6051,
      "我们还": 6052,
      "人都": 6053,
      "的世界": 6054,
      "相关": 6055,
      "传统": 6056,
      "更好": 6057,
      "定的": 6058,
      "看着": 6059,
      "管理": 6060,
      "做到": 6061,
      "减少": 6062,
      "例如": 6063,
      "那种": 6064,
      "发明": 6065,
      "我们必须": 6066,
      "哪里": 6067,
      "让人": 6068,
      "不再": 6069,
      "表现": 6070,
      "足够": 6071,
      "是如何": 6072,
      "企业": 6073,
      "en": 6074,
      "让你": 6075,
      "50": 6076,
      "只要": 6077,
      "试图": 6078,
      "一名": 6079,
      "能量": 6080,
      "情况下": 6081,
      "愿意": 6082,
      "电子": 6083,
      "不管": 6084,
      "材料": 6085,
      "人员": 6086,
      "30": 6087,
      "到底": 6088,
      "测试": 6089,
      "很难": 6090,
      "最大的": 6091,
      "同样的": 6092,
      "者的": 6093,
      "英国": 6094,
      "经常": 6095,
      "永远": 6096,
      "儿童": 6097,
      "的大": 6098,
      "我希望": 6099,
      "我们已经": 6100,
      "应用": 6101,
      "谈论": 6102,
      "我们对": 6103,
      "得不": 6104,
      "回答": 6105,
      "有个": 6106,
      "下的": 6107,
      "内容": 6108,
      "建造": 6109,
      "他们会": 6110,
      "实验室": 6111,
      "你在": 6112,
      "计算机": 6113,
      "连接": 6114,
      "心理": 6115,
      "我们现在": 6116,
      "危险": 6117,
      "了我": 6118,
      "探索": 6119,
      "设备": 6120,
      "方案": 6121,
      "看见": 6122,
      "交流": 6123,
      "在那": 6124,
      "图片": 6125,
      "是我": 6126,
      "男人": 6127,
      "这一点": 6128,
      "世界的": 6129,
      "也不": 6130,
      "范围": 6131,
      "智能": 6132,
      "其它": 6133,
      "植物": 6134,
      "之间的": 6135,
      "面的": 6136,
      "在那里": 6137,
      "女人": 6138,
      "角度": 6139,
      "一样的": 6140,
      "在一": 6141,
      "物理": 6142,
      "如今": 6143,
      "体的": 6144,
      "至少": 6145,
      "真正的": 6146,
      "这张": 6147,
      "风险": 6148,
      "也有": 6149,
      "具有": 6150,
      "利亚": 6151,
      "18": 6152,
      "让他们": 6153,
      "位置": 6154,
      "12": 6155,
      "要求": 6156,
      "只能": 6157,
      "好了": 6158,
      "是一种": 6159,
      "子的": 6160,
      "我还": 6161,
      "数学": 6162,
      "在于": 6163,
      "现象": 6164,
      "更好的": 6165,
      "的原因": 6166,
      "我从": 6167,
      "的一部分": 6168,
      "用的": 6169,
      "人口": 6170,
      "功能": 6171,
      "不可能": 6172,
      "公共": 6173,
      "严重": 6174,
      "民主": 6175,
      "本身": 6176,
      "电视": 6177,
      "种族": 6178,
      "时代": 6179,
      "我开始": 6180,
      "称为": 6181,
      "这项": 6182,
      "规模": 6183,
      "接着": 6184,
      "形式": 6185,
      "我对": 6186,
      "恐惧": 6187,
      "一步": 6188,
      "我和": 6189,
      "用于": 6190,
      "担心": 6191,
      "癌症": 6192,
      "当地": 6193,
      "某些": 6194,
      "也可以": 6195,
      "很多人": 6196,
      "预测": 6197,
      "简单的": 6198,
      "很好": 6199,
      "想到": 6200,
      "我所": 6201,
      "数量": 6202,
      "正是": 6203,
      "困难": 6204,
      "根据": 6205,
      "or": 6206,
      "一天": 6207,
      "物种": 6208,
      "做什么": 6209,
      "给我": 6210,
      "他们在": 6211,
      "DNA": 6212,
      "后来": 6213,
      "任务": 6214,
      "进化": 6215,
      "周围": 6216,
      "达到": 6217,
      "我们是": 6218,
      "000": 6219,
      "相同": 6220,
      "新闻": 6221,
      "突然": 6222,
      "除了": 6223,
      "面临": 6224,
      "明显": 6225,
      "正常": 6226,
      "最好的": 6227,
      "行的": 6228,
      "调查": 6229,
      "暴力": 6230,
      "使得": 6231,
      "好吧": 6232,
      "le": 6233,
      "分析": 6234,
      "受到": 6235,
      "百分": 6236,
      "宗教": 6237,
      "难以": 6238,
      "但这": 6239,
      "确定": 6240,
      "我们知道": 6241,
      "一个人": 6242,
      "好像": 6243,
      "我们将": 6244,
      "有时": 6245,
      "加入": 6246,
      "欧洲": 6247,
      "体验": 6248,
      "信号": 6249,
      "老师": 6250,
      "很快": 6251,
      "开发": 6252,
      "方向": 6253,
      "告诉我": 6254,
      "来到": 6255,
      "化学": 6256,
      "医院": 6257,
      "定义": 6258,
      "手术": 6259,
      "这是一": 6260,
      "很有": 6261,
      "由于": 6262,
      "其他人": 6263,
      "有什么": 6264,
      "接下来": 6265,
      "等等": 6266,
      "完美": 6267,
      "放在": 6268,
      "表达": 6269,
      "形成": 6270,
      "商业": 6271,
      "每年": 6272,
      "记忆": 6273,
      "上面": 6274,
      "来看": 6275,
      "梦想": 6276,
      "因为我": 6277,
      "眼睛": 6278,
      "传播": 6279,
      "描述": 6280,
      "状态": 6281,
      "收入": 6282,
      "创新": 6283,
      "法律": 6284,
      "人类的": 6285,
      "告诉你": 6286,
      "过程中": 6287,
      "刚刚": 6288,
      "各位": 6289,
      "参加": 6290,
      "训练": 6291,
      "在美国": 6292,
      "快乐": 6293,
      "压力": 6294,
      "妈妈": 6295,
      "给你们": 6296,
      "尤其": 6297,
      "这是个": 6298,
      "生存": 6299,
      "发现了": 6300,
      "你就": 6301,
      "at": 6302,
      "似乎": 6303,
      "上去": 6304,
      "国际": 6305,
      "目的": 6306,
      "行星": 6307,
      "我能": 6308,
      "提高": 6309,
      "尼亚": 6310,
      "消息": 6311,
      "生的": 6312,
      "细菌": 6313,
      "型的": 6314,
      "这一切": 6315,
      "以后": 6316,
      "和我": 6317,
      "标准": 6318,
      "飞机": 6319,
      "因素": 6320,
      "现代": 6321,
      "可能是": 6322,
      "房间": 6323,
      "程序": 6324,
      "网站": 6325,
      "这些人": 6326,
      "需求": 6327,
      "基于": 6328,
      "长的": 6329,
      "。“": 6330,
      "肯定": 6331,
      "会有": 6332,
      "因为我们": 6333,
      "全世界": 6334,
      "失败": 6335,
      "带着": 6336,
      "想想": 6337,
      "没有人": 6338,
      "互联": 6339,
      "男性": 6340,
      "值得": 6341,
      "斯坦": 6342,
      "假设": 6343,
      "糟糕": 6344,
      "空气": 6345,
      "这就": 6346,
      "11": 6347,
      "相互": 6348,
      "你要": 6349,
      "收集": 6350,
      "el": 6351,
      "这不是": 6352,
      "看到了": 6353,
      "ic": 6354,
      "的研究": 6355,
      "第三": 6356,
      "it": 6357,
      "危机": 6358,
      "奇怪": 6359,
      "在过去": 6360,
      "飞行": 6361,
      "吸引": 6362,
      "对吧": 6363,
      "他们是": 6364,
      "一旦": 6365,
      "思想": 6366,
      "给你": 6367,
      "25": 6368,
      "有多": 6369,
      "一年": 6370,
      "改变了": 6371,
      "彼此": 6372,
      "个月": 6373,
      "痛苦": 6374,
      "各地": 6375,
      "表明": 6376,
      "感染": 6377,
      "有一些": 6378,
      "这件事": 6379,
      "黑人": 6380,
      "后的": 6381,
      "事件": 6382,
      "事物": 6383,
      "它会": 6384,
      "权利": 6385,
      "会议": 6386,
      "系列": 6387,
      "角色": 6388,
      "情绪": 6389,
      "成为了": 6390,
      "责任": 6391,
      "软件": 6392,
      "基本上": 6393,
      "所有人": 6394,
      "作为一个": 6395,
      "我将": 6396,
      "并非": 6397,
      "al": 6398,
      "了这个": 6399,
      "正如": 6400,
      "的孩子": 6401,
      "发生的": 6402,
      "生活在": 6403,
      "样子": 6404,
      "问题的": 6405,
      "40": 6406,
      "is": 6407,
      "接触": 6408,
      "阶段": 6409,
      "如果我": 6410,
      "互联网": 6411,
      "你是": 6412,
      "一条": 6413,
      "国家的": 6414,
      "从而": 6415,
      "图像": 6416,
      "普通": 6417,
      "蛋白": 6418,
      "一般": 6419,
      "以来": 6420,
      "以为": 6421,
      "心脏": 6422,
      "水平": 6423,
      "消失": 6424,
      "0年代": 6425,
      "意思是": 6426,
      "不需要": 6427,
      "自身": 6428,
      "专家": 6429,
      "我们应该": 6430,
      "见的": 6431,
      "革命": 6432,
      "高的": 6433,
      "到达": 6434,
      "其他的": 6435,
      "平均": 6436,
      "政策": 6437,
      "重要的是": 6438,
      "艺术家": 6439,
      "经过": 6440,
      "经验": 6441,
      "因为他们": 6442,
      "子里": 6443,
      "患者": 6444,
      "里斯": 6445,
      "聪明": 6446,
      "过来": 6447,
      "这意味着": 6448,
      "效果": 6449,
      "处于": 6450,
      "性别": 6451,
      "道德": 6452,
      "一直在": 6453,
      "地图": 6454,
      "问题是": 6455,
      "这样做": 6456,
      "说过": 6457,
      "对话": 6458,
      "距离": 6459,
      "住在": 6460,
      "平等": 6461,
      "得到了": 6462,
      "威胁": 6463,
      "两种": 6464,
      "我相信": 6465,
      "发生在": 6466,
      "oo": 6467,
      "是有": 6468,
      "同事": 6469,
      "每个人都": 6470,
      "am": 6471,
      "上了": 6472,
      "进步": 6473,
      "我不知道": 6474,
      "我们把": 6475,
      "心的": 6476,
      "他在": 6477,
      "全部": 6478,
      "很重要": 6479,
      "的最": 6480,
      "都不": 6481,
      "。（": 6482,
      "的生活": 6483,
      "我想要": 6484,
      "句话": 6485,
      "坐在": 6486,
      "一段": 6487,
      "快速": 6488,
      "星球": 6489,
      "试着": 6490,
      "百分之": 6491,
      "社交": 6492,
      "我有": 6493,
      "某个": 6494,
      "避免": 6495,
      "拍摄": 6496,
      "出来的": 6497,
      "婴儿": 6498,
      "像是": 6499,
      "复杂的": 6500,
      "几年": 6501,
      "出生": 6502,
      "结合": 6503,
      "说明": 6504,
      "允许": 6505,
      "的一切": 6506,
      "规则": 6507,
      "未来的": 6508,
      "兴奋": 6509,
      "建议": 6510,
      "一张": 6511,
      "从来": 6512,
      "的影响": 6513,
      "告诉我们": 6514,
      "上帝": 6515,
      "绝对": 6516,
      "非常感谢": 6517,
      "相反": 6518,
      "美丽": 6519,
      "ac": 6520,
      "害怕": 6521,
      "的成": 6522,
      "他人": 6523,
      "积极": 6524,
      "降低": 6525,
      "比如说": 6526,
      "创作": 6527,
      "有时候": 6528,
      "幸运": 6529,
      "打开": 6530,
      "所有这些": 6531,
      "公民": 6532,
      "提出": 6533,
      "属于": 6534,
      "失去": 6535,
      "不起": 6536,
      "中间": 6537,
      "土地": 6538,
      "有些人": 6539,
      "去做": 6540,
      "听起来": 6541,
      "身份": 6542,
      "造成": 6543,
      "本书": 6544,
      "森林": 6545,
      "感兴趣": 6546,
      "视觉": 6547,
      "你所": 6548,
      "运作": 6549,
      "的能力": 6550,
      "es": 6551,
      "大量": 6552,
      "期的": 6553,
      "你需要": 6554,
      "是很": 6555,
      "条件": 6556,
      "恐怖": 6557,
      "这么做": 6558,
      "了很多": 6559,
      "总统": 6560,
      "的想法": 6561,
      "表演": 6562,
      "下面": 6563,
      "男孩": 6564,
      "对我来说": 6565,
      "一只": 6566,
      "下去": 6567,
      "医学": 6568,
      "生态": 6569,
      "但我们": 6570,
      "行业": 6571,
      "没有任何": 6572,
      "我现在": 6573,
      "的确": 6574,
      "工作的": 6575,
      "妇女": 6576,
      "家人": 6577,
      "监狱": 6578,
      "这也是": 6579,
      "显然": 6580,
      "讲述": 6581,
      "边的": 6582,
      "情感": 6583,
      "给我们": 6584,
      "状况": 6585,
      "回来": 6586,
      "是非常": 6587,
      "花费": 6588,
      "了我们": 6589,
      "运用": 6590,
      "之为": 6591,
      "停止": 6592,
      "神奇": 6593,
      "职业": 6594,
      "证据": 6595,
      "不用": 6596,
      "人工": 6597,
      "不错": 6598,
      "的信息": 6599,
      "，”": 6600,
      "确保": 6601,
      "16": 6602,
      "我发现": 6603,
      "特殊": 6604,
      "还要": 6605,
      "每次": 6606,
      "试验": 6607,
      "群体": 6608,
      "我们发现": 6609,
      "消费": 6610,
      "适应": 6611,
      "阅读": 6612,
      "把它们": 6613,
      "呼吸": 6614,
      "多么": 6615,
      "思维": 6616,
      "称之为": 6617,
      "……": 6618,
      "信任": 6619,
      "太空": 6620,
      "美国人": 6621,
      "介绍": 6622,
      "表面": 6623,
      "之中": 6624,
      "取得": 6625,
      "很大": 6626,
      "的数据": 6627,
      "地球上": 6628,
      "爱的": 6629,
      "专业": 6630,
      "年轻人": 6631,
      "时的": 6632,
      "相似": 6633,
      "幸福": 6634,
      "你们的": 6635,
      "保证": 6636,
      "找到了": 6637,
      "每一": 6638,
      "颜色": 6639,
      "之外": 6640,
      "再次": 6641,
      "可怕": 6642,
      "学会": 6643,
      "工业": 6644,
      "其中的": 6645,
      "她说": 6646,
      "负责": 6647,
      "他们说": 6648,
      "投入": 6649,
      "...": 6650,
      "因为它": 6651,
      "对我们": 6652,
      "警察": 6653,
      "女儿": 6654,
      "在你": 6655,
      "这是我": 6656,
      "动作": 6657,
      "有可能": 6658,
      "毫无": 6659,
      "人生": 6660,
      "都能": 6661,
      "我们从": 6662,
      "在我的": 6663,
      "女士": 6664,
      "转变": 6665,
      "17": 6666,
      "生活中": 6667,
      "不多": 6668,
      "塑料": 6669,
      "大量的": 6670,
      "去年": 6671,
      "是由": 6672,
      "想象一下": 6673,
      "体系": 6674,
      "带来的": 6675,
      "变成了": 6676,
      "伟大的": 6677,
      "针对": 6678,
      "办公": 6679,
      "组成": 6680,
      "动的": 6681,
      "），": 6682,
      "不仅仅是": 6683,
      "破坏": 6684,
      "认知": 6685,
      "这次": 6686,
      "限制": 6687,
      "我已经": 6688,
      "的国家": 6689,
      "一代": 6690,
      "克里斯": 6691,
      "内部": 6692,
      "动力": 6693,
      "包含": 6694,
      "形状": 6695,
      "障碍": 6696,
      "ou": 6697,
      "开放": 6698,
      "智慧": 6699,
      "是不": 6700,
      "表示": 6701,
      "些什么": 6702,
      "有多少": 6703,
      "类的": 6704,
      "哪些": 6705,
      "当中": 6706,
      "竞争": 6707,
      "as": 6708,
      "氧化": 6709,
      "14": 6710,
      "晚上": 6711,
      "互相": 6712,
      "联合": 6713,
      "质量": 6714,
      "或者是": 6715,
      "的声音": 6716,
      "巨大": 6717,
      "时刻": 6718,
      "他是": 6719,
      "火星": 6720,
      "污染": 6721,
      "星期": 6722,
      "名的": 6723,
      "il": 6724,
      "了一些": 6725,
      "垃圾": 6726,
      "谢谢大家": 6727,
      "交通": 6728,
      "检测": 6729,
      "石油": 6730,
      "重复": 6731,
      "也没有": 6732,
      "很好的": 6733,
      "难民": 6734,
      "）。": 6735,
      "的那": 6736,
      "银行": 6737,
      "但是我": 6738,
      "移民": 6739,
      "站在": 6740,
      "可能性": 6741,
      "有一天": 6742,
      "引起": 6743,
      "回家": 6744,
      "房子": 6745,
      "相比": 6746,
      "信仰": 6747,
      "正确的": 6748,
      "儿子": 6749,
      "先生": 6750,
      "把这些": 6751,
      "记住": 6752,
      "生命的": 6753,
      "习惯": 6754,
      "第二个": 6755,
      "独立": 6756,
      "循环": 6757,
      "60": 6758,
      "下一个": 6759,
      "逐渐": 6760,
      "我们开始": 6761,
      "英里": 6762,
      "可以在": 6763,
      "邀请": 6764,
      "CA": 6765,
      "和平": 6766,
      "常常": 6767,
      "所谓": 6768,
      "才是": 6769,
      "下来的": 6770,
      "关心": 6771,
      "阻止": 6772,
      "背景": 6773,
      "出去": 6774,
      "承认": 6775,
      "武器": 6776,
      "测量": 6777,
      "下降": 6778,
      "对此": 6779,
      "疯狂": 6780,
      "伤害": 6781,
      "可是": 6782,
      "年龄": 6783,
      "你可以看到": 6784,
      "英尺": 6785,
      "资金": 6786,
      "帮助我们": 6787,
      "恢复": 6788,
      "遇到": 6789,
      "这个世界": 6790,
      "不幸": 6791,
      "可以看到": 6792,
      "一件": 6793,
      "没人": 6794,
      "生长": 6795,
      "什么是": 6796,
      "比赛": 6797,
      "冲突": 6798,
      "花了": 6799,
      "注意到": 6800,
      "多样": 6801,
      "文章": 6802,
      "鼓励": 6803,
      "一场": 6804,
      "微生物": 6805,
      "惊讶": 6806,
      "成本": 6807,
      "接近": 6808,
      "在这些": 6809,
      "的情况": 6810,
      "过了": 6811,
      "来源": 6812,
      "神经元": 6813,
      "et": 6814,
      "算法": 6815,
      "人们的": 6816,
      "太多": 6817,
      "教授": 6818,
      "知的": 6819,
      "西方": 6820,
      "我把": 6821,
      "自动": 6822,
      "13": 6823,
      "从未": 6824,
      "四个": 6825,
      "产生的": 6826,
      "卫生": 6827,
      "度的": 6828,
      "的新": 6829,
      "日常": 6830,
      "给他们": 6831,
      "告诉你们": 6832,
      "必要": 6833,
      "成长": 6834,
      "犯罪": 6835,
      "我们正在": 6836,
      "你不": 6837,
      "工程师": 6838,
      "都没有": 6839,
      "阿拉": 6840,
      "世界各地": 6841,
      "气候变化": 6842,
      "依赖": 6843,
      "依然": 6844,
      "在座": 6845,
      "基金": 6846,
      "差异": 6847,
      "也能": 6848,
      "发表": 6849,
      "高兴": 6850,
      "在19": 6851,
      "我们能够": 6852,
      "在的": 6853,
      "很大的": 6854,
      "物体": 6855,
      "原子": 6856,
      "和其他": 6857,
      "我们想": 6858,
      "我们如何": 6859,
      "会发生": 6860,
      "小孩": 6861,
      "广告": 6862,
      "拯救": 6863,
      "英语": 6864,
      "其中一个": 6865,
      "屏幕": 6866,
      "还在": 6867,
      "价格": 6868,
      "皮肤": 6869,
      "真是": 6870,
      "操作": 6871,
      "用了": 6872,
      "释放": 6873,
      "给大家": 6874,
      "亿美元": 6875,
      "学的": 6876,
      "你必须": 6877,
      "而这": 6878,
      "差不多": 6879,
      "往往": 6880,
      "燃料": 6881,
      "看来": 6882,
      "采取": 6883,
      "！”": 6884,
      "生活的": 6885,
      "二氧化": 6886,
      "好奇": 6887,
      "获取": 6888,
      "很棒": 6889,
      "选举": 6890,
      "人民": 6891,
      "应对": 6892,
      "诊断": 6893,
      "面前": 6894,
      "10年": 6895,
      "你可能": 6896,
      "改善": 6897,
      "设施": 6898,
      "上升": 6899,
      "理由": 6900,
      "会在": 6901,
      "放弃": 6902,
      "的环境": 6903,
      "的照片": 6904,
      "让它": 6905,
      "怎么样": 6906,
      "程度上": 6907,
      "二十": 6908,
      "这条": 6909,
      "长大": 6910,
      "一些人": 6911,
      "设计的": 6912,
      "来自于": 6913,
      "你看": 6914,
      "利益": 6915,
      "给予": 6916,
      "说话": 6917,
      "疫苗": 6918,
      "贫困": 6919,
      "存在的": 6920,
      "分之一": 6921,
      "解决方案": 6922,
      "om": 6923,
      "文明": 6924,
      "都可以": 6925,
      "集中": 6926,
      "之处": 6927,
      "位于": 6928,
      "特的": 6929,
      "只需要": 6930,
      "岁的": 6931,
      "平衡": 6932,
      "时期": 6933,
      "家里": 6934,
      "权力": 6935,
      "贫穷": 6936,
      "蛋白质": 6937,
      "别的": 6938,
      "太阳能": 6939,
      "互动": 6940,
      "准确": 6941,
      "排放": 6942,
      "爆炸": 6943,
      "的结果": 6944,
      "主义者": 6945,
      "报道": 6946,
      "二氧化碳": 6947,
      "交易": 6948,
      "对待": 6949,
      "这位": 6950,
      "这儿": 6951,
      "模拟": 6952,
      "装置": 6953,
      "得到的": 6954,
      "道路": 6955,
      "终于": 6956,
      "办公室": 6957,
      "假如": 6958,
      "统计": 6959,
      "部门": 6960,
      "仔细": 6961,
      "我喜欢": 6962,
      "出现在": 6963,
      "抑郁": 6964,
      "的主": 6965,
      "咖啡": 6966,
      "满足": 6967,
      "特征": 6968,
      "相对": 6969,
      "罗斯": 6970,
      "博物": 6971,
      "在20": 6972,
      "英雄": 6973,
      "这个词": 6974,
      "公开": 6975,
      "在我们的": 6976,
      "的感觉": 6977,
      "这也": 6978,
      "元素": 6979,
      "刚才": 6980,
      "来了": 6981,
      "成功的": 6982,
      "坚持": 6983,
      "当他们": 6984,
      "艾滋": 6985,
      "有趣的": 6986,
      "会被": 6987,
      "平台": 6988,
      "是最": 6989,
      "%。": 6990,
      "员工": 6991,
      "成员": 6992,
      "等待": 6993,
      "绿色": 6994,
      "报告": 6995,
      "仅仅是": 6996,
      "博物馆": 6997,
      "会说": 6998,
      "看上去": 6999,
      "不在": 7000,
      "同意": 7001,
      "拒绝": 7002,
      "检查": 7003,
      "卫星": 7004,
      "本质": 7005,
      "用户": 7006,
      "这样一个": 7007,
      "80": 7008,
      "器官": 7009,
      "秘密": 7010,
      "给了": 7011,
      "你想": 7012,
      "公园": 7013,
      "安德": 7014,
      "的水": 7015,
      "可持续": 7016,
      "同情": 7017,
      "尤其是": 7018,
      "熟悉": 7019,
      "记者": 7020,
      "身边": 7021,
      "几个月": 7022,
      "原则": 7023,
      "比亚": 7024,
      "珊瑚": 7025,
      "约翰": 7026,
      "而我": 7027,
      "但在": 7028,
      "你有": 7029,
      "是不是": 7030,
      "攻击": 7031,
      "的力量": 7032,
      "结论": 7033,
      "的事物": 7034,
      "也在": 7035,
      "体内": 7036,
      "温度": 7037,
      "看待": 7038,
      "超级": 7039,
      "运行": 7040,
      "re": 7041,
      "博士": 7042,
      "是怎么": 7043,
      "网上": 7044,
      "食品": 7045,
      "这类": 7046,
      "享受": 7047,
      "做的事情": 7048,
      "白人": 7049,
      "设计师": 7050,
      "变得更": 7051,
      "真实的": 7052,
      "不想": 7053,
      "培养": 7054,
      "没错": 7055,
      "看法": 7056,
      "多年": 7057,
      "让人们": 7058,
      "千万": 7059,
      "发出": 7060,
      "思议": 7061,
      "邮件": 7062,
      "至于": 7063,
      "不可思议": 7064,
      "组合": 7065,
      "传递": 7066,
      "兄弟": 7067,
      "制度": 7068,
      "它可以": 7069,
      "强大的": 7070,
      "提醒": 7071,
      "展现": 7072,
      "愤怒": 7073,
      "打算": 7074,
      "还没有": 7075,
      "不够": 7076,
      "创建": 7077,
      "学院": 7078,
      "我当时": 7079,
      "旅行": 7080,
      "星系": 7081,
      "极端": 7082,
      "深入": 7083,
      "公平": 7084,
      "粒子": 7085,
      "我们认为": 7086,
      "一家": 7087,
      "好处": 7088,
      "的例子": 7089,
      "肌肉": 7090,
      "长期": 7091,
      "杂志": 7092,
      "细节": 7093,
      "马上": 7094,
      "原理": 7095,
      "核心": 7096,
      "相同的": 7097,
      "了我的": 7098,
      "见过": 7099,
      "但是我们": 7100,
      "理想": 7101,
      "贡献": 7102,
      "但它": 7103,
      "技能": 7104,
      "血液": 7105,
      "这个项目": 7106,
      "这些问题": 7107,
      "这是一种": 7108,
      "很容易": 7109,
      "被称为": 7110,
      "驾驶": 7111,
      "农业": 7112,
      "妻子": 7113,
      "我没有": 7114,
      "执行": 7115,
      "财富": 7116,
      "全国": 7117,
      "日本": 7118,
      "不得不": 7119,
      "反对": 7120,
      "文字": 7121,
      "课程": 7122,
      "走进": 7123,
      "怎么做": 7124,
      "500": 7125,
      "也不是": 7126,
      "即便": 7127,
      "各个": 7128,
      "我自己": 7129,
      "我需要": 7130,
      "节目": 7131,
      "的过程": 7132,
      "免疫": 7133,
      "它们是": 7134,
      "德国": 7135,
      "怀疑": 7136,
      "的社会": 7137,
      "做得": 7138,
      "大家都": 7139,
      "流行": 7140,
      "进一步": 7141,
      "外的": 7142,
      "沟通": 7143,
      "这段": 7144,
      "ch": 7145,
      "一部分": 7146,
      "图书": 7147,
      "普遍": 7148,
      "这会": 7149,
      "使用的": 7150,
      "发生了什么": 7151,
      "大气": 7152,
      "很少": 7153,
      "究竟": 7154,
      "衣服": 7155,
      "一项": 7156,
      "上万": 7157,
      "不了": 7158,
      "摄影": 7159,
      "漂亮": 7160,
      "也就是说": 7161,
      "搜索": 7162,
      "迅速": 7163,
      "然后我": 7164,
      "投票": 7165,
      "斯特": 7166,
      "范围内": 7167,
      "ad": 7168,
      "下了": 7169,
      "得以": 7170,
      "他们可以": 7171,
      "的机会": 7172,
      "我们用": 7173,
      "免费": 7174,
      "家伙": 7175,
      "左右": 7176,
      "最好": 7177,
      "肿瘤": 7178,
      "观念": 7179,
      "注意力": 7180,
      "和我们": 7181,
      "谷歌": 7182,
      "这场": 7183,
      "居住": 7184,
      "最喜欢": 7185,
      "还能": 7186,
      "就像是": 7187,
      "存在于": 7188,
      "法国": 7189,
      "一个小": 7190,
      "之所以": 7191,
      "是关于": 7192,
      "谈谈": 7193,
      "资本": 7194,
      "彻底": 7195,
      "十亿": 7196,
      "工厂": 7197,
      "期间": 7198,
      "不只是": 7199,
      "性恋": 7200,
      "话题": 7201,
      "这些东西": 7202,
      "这些都是": 7203,
      "70": 7204,
      "态度": 7205,
      "是这样的": 7206,
      "机制": 7207,
      "出现了": 7208,
      "消耗": 7209,
      "症状": 7210,
      "是从": 7211,
      "部的": 7212,
      "丰富": 7213,
      "我不是": 7214,
      "克斯": 7215,
      "创意": 7216,
      "实在": 7217,
      "有所": 7218,
      "的地": 7219,
      "这点": 7220,
      "5年": 7221,
      "完整": 7222,
      "真相": 7223,
      "90": 7224,
      "us": 7225,
      "建设": 7226,
      "毕业": 7227,
      "美国的": 7228,
      "专注": 7229,
      "也不会": 7230,
      "交谈": 7231,
      "另一种": 7232,
      "成千": 7233,
      "公众": 7234,
      "拉克": 7235,
      "早上": 7236,
      "脆弱": 7237,
      "一开始": 7238,
      "不久": 7239,
      "更有": 7240,
      "激动": 7241,
      "一群": 7242,
      "在过去的": 7243,
      "比例": 7244,
      "睡眠": 7245,
      "者们": 7246,
      "购买": 7247,
      "ed": 7248,
      "很长": 7249,
      "最初": 7250,
      "现在的": 7251,
      "公司的": 7252,
      "另外一个": 7253,
      "内心": 7254,
      "打印": 7255,
      "早期": 7256,
      "附近": 7257,
      "黑暗": 7258,
      "今年": 7259,
      "后果": 7260,
      "寻求": 7261,
      "电池": 7262,
      "我的意思是": 7263,
      "一半": 7264,
      "这个人": 7265,
      "孩子的": 7266,
      "式的": 7267,
      "策略": 7268,
      "识别": 7269,
      "强烈": 7270,
      "放到": 7271,
      "演奏": 7272,
      "举个": 7273,
      "我被": 7274,
      "稳定": 7275,
      "那样的": 7276,
      "都很": 7277,
      "原始": 7278,
      "怎样的": 7279,
      "为止": 7280,
      "扫描": 7281,
      "欢迎": 7282,
      "理念": 7283,
      "量子": 7284,
      "进行了": 7285,
      "人工智能": 7286,
      "os": 7287,
      "区别": 7288,
      "将其": 7289,
      "穿过": 7290,
      "老鼠": 7291,
      "复制": 7292,
      "提升": 7293,
      "案例": 7294,
      "维持": 7295,
      "系统的": 7296,
      "判断": 7297,
      "它在": 7298,
      "说法": 7299,
      "足够的": 7300,
      "ra": 7301,
      "美好": 7302,
      "字母": 7303,
      "所在": 7304,
      "ol": 7305,
      "不论": 7306,
      "感知": 7307,
      "自行": 7308,
      "这两": 7309,
      "然后我们": 7310,
      "就有": 7311,
      "广泛": 7312,
      "灾难": 7313,
      "追求": 7314,
      "这是我们": 7315,
      "刺激": 7316,
      "期待": 7317,
      "都被": 7318,
      "8年": 7319,
      "收到": 7320,
      "我们没有": 7321,
      "发挥": 7322,
      "的发展": 7323,
      "红色": 7324,
      "找出": 7325,
      "猩猩": 7326,
      "路上": 7327,
      "名为": 7328,
      "激励": 7329,
      "缺乏": 7330,
      "高中": 7331,
      "忘记": 7332,
      "慢慢": 7333,
      "旅程": 7334,
      "没什么": 7335,
      "这两个": 7336,
      "这就是为什么": 7337,
      "对方": 7338,
      "我去": 7339,
      "而已": 7340,
      "决策": 7341,
      "最重要的": 7342,
      "漫画": 7343,
      "震惊": 7344,
      "所谓的": 7345,
      "认识到": 7346,
      "人体": 7347,
      "像我": 7348,
      "我一直": 7349,
      "的技术": 7350,
      "见到": 7351,
      "非常重要": 7352,
      "历史上": 7353,
      "几年前": 7354,
      "合理": 7355,
      "爸爸": 7356,
      "现场": 7357,
      "说服": 7358,
      "一致": 7359,
      "但他们": 7360,
      "你不能": 7361,
      "大规模": 7362,
      "尊重": 7363,
      "少年": 7364,
      "得多": 7365,
      "遗传": 7366,
      "丈夫": 7367,
      "受害": 7368,
      "开心": 7369,
      "我来": 7370,
      "199": 7371,
      "th": 7372,
      "不太": 7373,
      "伦敦": 7374,
      "失去了": 7375,
      "对的": 7376,
      "强大": 7377,
      "人群": 7378,
      "倾向": 7379,
      "取决": 7380,
      "团体": 7381,
      "掌握": 7382,
      "置信": 7383,
      "高度": 7384,
      "浪费": 7385,
      "照顾": 7386,
      "个小时": 7387,
      "军队": 7388,
      "那天": 7389,
      "现在我们": 7390,
      "或者说": 7391,
      "使我们": 7392,
      "特定": 7393,
      "这个故事": 7394,
      "什么呢": 7395,
      "健康的": 7396,
      "不足": 7397,
      "从事": 7398,
      "变革": 7399,
      "呈现": 7400,
      "层面": 7401,
      "灭绝": 7402,
      "陌生": 7403,
      "的时刻": 7404,
      "成千上万": 7405,
      "21": 7406,
      "回应": 7407,
      "旋转": 7408,
      "是为了": 7409,
      "要么": 7410,
      "领袖": 7411,
      "24": 7412,
      "居民": 7413,
      "我意识到": 7414,
      "歧视": 7415,
      "的行为": 7416,
      "还会": 7417,
      "这很": 7418,
      "成为一个": 7419,
      "两年": 7420,
      "热情": 7421,
      "穿着": 7422,
      "这些是": 7423,
      "需要的": 7424,
      "为何": 7425,
      "你就会": 7426,
      "做一个": 7427,
      "恒星": 7428,
      "成就": 7429,
      "无人": 7430,
      "前进": 7431,
      "同一": 7432,
      "说的是": 7433,
      "资料": 7434,
      "适合": 7435,
      "大脑的": 7436,
      "大多数人": 7437,
      "阿拉伯": 7438,
      "Ch": 7439,
      "写的": 7440,
      "气体": 7441,
      "谈话": 7442,
      "都要": 7443,
      "20年": 7444,
      "即将": 7445,
      "哪个": 7446,
      "途径": 7447,
      "可能的": 7448,
      "方面的": 7449,
      "取决于": 7450,
      "到处": 7451,
      "艰难": 7452,
      "问我": 7453,
      "州的": 7454,
      "翻译": 7455,
      "聚集": 7456,
      "邻居": 7457,
      "间的": 7458,
      "创造了": 7459,
      "今天的": 7460,
      "产生了": 7461,
      "的情况下": 7462,
      "看到的是": 7463,
      "这里的": 7464,
      "不好": 7465,
      "错误的": 7466,
      "场景": 7467,
      "点是": 7468,
      "一系列": 7469,
      "它能": 7470,
      "的速度": 7471,
      "相机": 7472,
      "一份": 7473,
      "大众": 7474,
      "效率": 7475,
      "舞台": 7476,
      "他们有": 7477,
      "甚至是": 7478,
      "地说": 7479,
      "对象": 7480,
      "接下来的": 7481,
      "边缘": 7482,
      "举个例子": 7483,
      "了吗": 7484,
      "渴望": 7485,
      "有效的": 7486,
      "利的": 7487,
      "文件": 7488,
      "那儿": 7489,
      "农民": 7490,
      "探测": 7491,
      "斗争": 7492,
      "来看看": 7493,
      "许多人": 7494,
      "难以置信": 7495,
      "为我们": 7496,
      "如同": 7497,
      "调整": 7498,
      "引发": 7499,
      "很明显": 7500,
      "看不": 7501,
      "起了": 7502,
      "逻辑": 7503,
      "金融": 7504,
      "合适": 7505,
      "面包": 7506,
      "ri": 7507,
      "具体": 7508,
      "技巧": 7509,
      "提到": 7510,
      "的学生": 7511,
      "这只是": 7512,
      "一生": 7513,
      "为此": 7514,
      "共享": 7515,
      "客户": 7516,
      "古老": 7517,
      "就要": 7518,
      "把这个": 7519,
      "涉及": 7520,
      "隐藏": 7521,
      "从中": 7522,
      "大型": 7523,
      "当今": 7524,
      "艾滋病": 7525,
      "个体": 7526,
      "优秀": 7527,
      "营养": 7528,
      "人士": 7529,
      "作家": 7530,
      "加上": 7531,
      "后面": 7532,
      "对抗": 7533,
      "美金": 7534,
      "西哥": 7535,
      "趋势": 7536,
      "创造力": 7537,
      "你会发现": 7538,
      "特别是": 7539,
      "将来": 7540,
      "患有": 7541,
      "成年": 7542,
      "极其": 7543,
      "的部分": 7544,
      "虚拟": 7545,
      "提供了": 7546,
      "相当于": 7547,
      "同性恋": 7548,
      "墨西哥": 7549,
      "手段": 7550,
      "50年": 7551,
      "9年": 7552,
      "与此": 7553,
      "倾听": 7554,
      "全新的": 7555,
      "学到": 7556,
      "我必须": 7557,
      "的所有": 7558,
      "而我们": 7559,
      "启发": 7560,
      "简直": 7561,
      "苹果": 7562,
      "走了": 7563,
      "生物学": 7564,
      "做法": 7565,
      "就这样": 7566,
      "成果": 7567,
      "承诺": 7568,
      "改革": 7569,
      "斯林": 7570,
      "最大": 7571,
      "紧张": 7572,
      "我们不能": 7573,
      "图书馆": 7574,
      "中有": 7575,
      "做过": 7576,
      "单词": 7577,
      "在他": 7578,
      "富有": 7579,
      "岁的时候": 7580,
      "所做的": 7581,
      "把他们": 7582,
      "是这样": 7583,
      "更大的": 7584,
      "穆斯林": 7585,
      "奴隶": 7586,
      "措施": 7587,
      "深刻": 7588,
      "错了": 7589,
      "评论": 7590,
      "真的很": 7591,
      "1000": 7592,
      "这张照片": 7593,
      "你自己": 7594,
      "一个问题": 7595,
      "过去的": 7596,
      "推动": 7597,
      "除非": 7598,
      "麻烦": 7599,
      "这些数据": 7600,
      "同时也": 7601,
      "ing": 7602,
      "联合国": 7603,
      "ter": 7604,
      "一边": 7605,
      "修复": 7606,
      "前的": 7607,
      "我决定": 7608,
      "打电话": 7609,
      "矛盾": 7610,
      "进来": 7611,
      "远的": 7612,
      "7年": 7613,
      "不停": 7614,
      "培训": 7615,
      "焦虑": 7616,
      "血管": 7617,
      "采用": 7618,
      "感受到": 7619,
      "围绕": 7620,
      "明确": 7621,
      "真的是": 7622,
      "走向": 7623,
      "我们希望": 7624,
      "基因组": 7625,
      "eb": 7626,
      "一块": 7627,
      "昆虫": 7628,
      "能在": 7629,
      "蓝色": 7630,
      "转化": 7631,
      "件事情": 7632,
      "得了": 7633,
      "我记得": 7634,
      "望远": 7635,
      "你们知道": 7636,
      "如果你想": 7637,
      "其实是": 7638,
      "各种各": 7639,
      "制定": 7640,
      "妙的": 7641,
      "走到": 7642,
      "做的是": 7643,
      "律师": 7644,
      "播放": 7645,
      "的人口": 7646,
      "非常有": 7647,
      "完美的": 7648,
      "望远镜": 7649,
      "依靠": 7650,
      "班牙": 7651,
      "的女性": 7652,
      "西班牙": 7653,
      "转移": 7654,
      "这对": 7655,
      "进去": 7656,
      "的时代": 7657,
      "做的事": 7658,
      "密码": 7659,
      "富汗": 7660,
      "混合": 7661,
      "版本": 7662,
      "致力": 7663,
      "阿富汗": 7664,
      "我问": 7665,
      "期望": 7666,
      "混乱": 7667,
      "符合": 7668,
      "任何人": 7669,
      "伙伴": 7670,
      "发布": 7671,
      "寿命": 7672,
      "巴西": 7673,
      "我今天": 7674,
      "辩论": 7675,
      "你可能会": 7676,
      "加速": 7677,
      "无数": 7678,
      "编辑": 7679,
      "透明": 7680,
      "随机": 7681,
      "ub": 7682,
      "偏见": 7683,
      "带到": 7684,
      "所需": 7685,
      "瞬间": 7686,
      "设想": 7687,
      "－－": 7688,
      "他们都": 7689,
      "我的工作": 7690,
      "供应": 7691,
      "按照": 7692,
      "蚂蚁": 7693,
      "覆盖": 7694,
      "赋予": 7695,
      "预防": 7696,
      "出版": 7697,
      "在此": 7698,
      "摄像": 7699,
      "送到": 7700,
      "这个想法": 7701,
      "因为他": 7702,
      "实践": 7703,
      "当作": 7704,
      "很简单": 7705,
      "我曾": 7706,
      "把我": 7707,
      "超越": 7708,
      "万人": 7709,
      "分布": 7710,
      "在了": 7711,
      "在哪里": 7712,
      "我只是": 7713,
      "轨道": 7714,
      "li": 7715,
      "的重要": 7716,
      "祖先": 7717,
      "综合": 7718,
      "进展": 7719,
      "面积": 7720,
      "的事实": 7721,
      "一刻": 7722,
      "伊斯": 7723,
      "惊人的": 7724,
      "我非常": 7725,
      "有机": 7726,
      "标志": 7727,
      "已经被": 7728,
      "发现的": 7729,
      "感觉到": 7730,
      "临床": 7731,
      "主意": 7732,
      "乐观": 7733,
      "年代": 7734,
      "没法": 7735,
      "严重的": 7736,
      "好消息": 7737,
      "忽略": 7738,
      "画面": 7739,
      "了解到": 7740,
      "几天": 7741,
      "印象": 7742,
      "有没有": 7743,
      "来做": 7744,
      "还可以": 7745,
      "ot": 7746,
      "了这些": 7747,
      "构建": 7748,
      "种植": 7749,
      "练习": 7750,
      "重建": 7751,
      "他们就": 7752,
      "但是在": 7753,
      "促进": 7754,
      "分裂": 7755,
      "小说": 7756,
      "教堂": 7757,
      "的设计": 7758,
      "转换": 7759,
      "便宜": 7760,
      "和一个": 7761,
      "放大": 7762,
      "30年": 7763,
      "相关的": 7764,
      "不知": 7765,
      "很久": 7766,
      "打破": 7767,
      "有一种": 7768,
      "美洲": 7769,
      "世界上最": 7770,
      "回收": 7771,
      "疟疾": 7772,
      "所有人都": 7773,
      "致力于": 7774,
      "同一个": 7775,
      "在地": 7776,
      "士兵": 7777,
      "我是一个": 7778,
      "效应": 7779,
      "海岸": 7780,
      "玻璃": 7781,
      "的一些": 7782,
      "蜜蜂": 7783,
      "她在": 7784,
      "的生物": 7785,
      "纳米": 7786,
      "部落": 7787,
      "陷入": 7788,
      "获得了": 7789,
      "合成": 7790,
      "回事": 7791,
      "教会": 7792,
      "自闭": 7793,
      "不幸的是": 7794,
      "安德森": 7795,
      "不一样": 7796,
      "恐龙": 7797,
      "机械": 7798,
      "沙漠": 7799,
      "观看": 7800,
      "造成的": 7801,
      "时间的": 7802,
      "这么多": 7803,
      "在座的": 7804,
      "存活": 7805,
      "样本": 7806,
      "袭击": 7807,
      "五年": 7808,
      "则是": 7809,
      "少数": 7810,
      "忽视": 7811,
      "应该是": 7812,
      "id": 7813,
      "听说过": 7814,
      "开车": 7815,
      "形态": 7816,
      "无限": 7817,
      "说到": 7818,
      "名叫": 7819,
      "成立": 7820,
      "死去": 7821,
      "脑海": 7822,
      "街道": 7823,
      "衡量": 7824,
      "他们也": 7825,
      "充满了": 7826,
      "自行车": 7827,
      "你也": 7828,
      "去看": 7829,
      "角落": 7830,
      "顺便": 7831,
      "黑洞": 7832,
      "我们自己": 7833,
      "了不起": 7834,
      "以至于": 7835,
      "保留": 7836,
      "报纸": 7837,
      "规划": 7838,
      "就是这样": 7839,
      "价值观": 7840,
      "从一个": 7841,
      "估计": 7842,
      "强调": 7843,
      "精确": 7844,
      "评估": 7845,
      "那就": 7846,
      "发展中": 7847,
      "我是说": 7848,
      "安全的": 7849,
      "伟大": 7850,
      "大自然": 7851,
      "意见": 7852,
      "演员": 7853,
      "类似的": 7854,
      "伊斯兰": 7855,
      "出一个": 7856,
      "加拿": 7857,
      "发射": 7858,
      "才会": 7859,
      "死于": 7860,
      "天空": 7861,
      "援助": 7862,
      "物品": 7863,
      "的概念": 7864,
      "至今": 7865,
      "？“": 7866,
      "300": 7867,
      "华盛": 7868,
      "奇迹": 7869,
      "当他": 7870,
      "留下": 7871,
      "的城市": 7872,
      "一无": 7873,
      "传染": 7874,
      "疑问": 7875,
      "视角": 7876,
      "遭受": 7877,
      "什么时候": 7878,
      "多样性": 7879,
      "自闭症": 7880,
      "华盛顿": 7881,
      "ab": 7882,
      "人和": 7883,
      "对吗": 7884,
      "疼痛": 7885,
      "冒险": 7886,
      "希腊": 7887,
      "治愈": 7888,
      "特定的": 7889,
      "着的": 7890,
      "而在": 7891,
      "而这些": 7892,
      "让他": 7893,
      "这幅": 7894,
      "每一个人": 7895,
      "我只": 7896,
      "扮演": 7897,
      "输入": 7898,
      "重大": 7899,
      "动机": 7900,
      "无线": 7901,
      "标记": 7902,
      "灵感": 7903,
      "结婚": 7904,
      "告诉他们": 7905,
      "你将": 7906,
      "创伤": 7907,
      "土壤": 7908,
      "得更": 7909,
      "直觉": 7910,
      "饼干": 7911,
      "一片": 7912,
      "化石": 7913,
      "支付": 7914,
      "旁边": 7915,
      "是我的": 7916,
      "民族": 7917,
      "清晰": 7918,
      "爱情": 7919,
      "电力": 7920,
      "纤维": 7921,
      "他会": 7922,
      "光线": 7923,
      "处的": 7924,
      "是谁": 7925,
      "带来了": 7926,
      "从来没有": 7927,
      "小小的": 7928,
      "就开始": 7929,
      "就好像": 7930,
      "犹太": 7931,
      "的不": 7932,
      "的前": 7933,
      "怎么办": 7934,
      "代价": 7935,
      "农场": 7936,
      "勇气": 7937,
      "地位": 7938,
      "外面": 7939,
      "损失": 7940,
      "死了": 7941,
      "的关系": 7942,
      "神秘": 7943,
      "St": 7944,
      "实施": 7945,
      "的书": 7946,
      "而非": 7947,
      "肯尼亚": 7948,
      "会儿": 7949,
      "在他们": 7950,
      "岁时": 7951,
      "抓住": 7952,
      "擅长": 7953,
      "曲线": 7954,
      "青少年": 7955,
      "美丽的": 7956,
      "灵魂": 7957,
      "统治": 7958,
      "金钱": 7959,
      "头发": 7960,
      "承担": 7961,
      "称作": 7962,
      "这只": 7963,
      "还有一个": 7964,
      "玩具": 7965,
      "生素": 7966,
      "贵的": 7967,
      "她们的": 7968,
      "唯一的": 7969,
      "6年": 7970,
      "不对": 7971,
      "优势": 7972,
      "的第一": 7973,
      "致命": 7974,
      "IS": 7975,
      "公正": 7976,
      "埃及": 7977,
      "天然": 7978,
      "想像": 7979,
      "自杀": 7980,
      "跟我": 7981,
      "我们想要": 7982,
      "他们不": 7983,
      "展开": 7984,
      "现状": 7985,
      "这本书": 7986,
      "金属": 7987,
      "受害者": 7988,
      "上千": 7989,
      "地点": 7990,
      "更高": 7991,
      "最高": 7992,
      "给他": 7993,
      "朋友们": 7994,
      "以下": 7995,
      "克服": 7996,
      "家的": 7997,
      "爆发": 7998,
      "以此": 7999,
      "奖励": 8000,
      "我看到": 8001,
      "着我": 8002,
      "研发": 8003,
      "行走": 8004,
      "这将": 8005,
      "运动员": 8006,
      "你得": 8007,
      "充分": 8008,
      "到一个": 8009,
      "没有什么": 8010,
      "的人类": 8011,
      "发展的": 8012,
      "传统的": 8013,
      "看了": 8014,
      "背后": 8015,
      "地球的": 8016,
      "拥有的": 8017,
      "事业": 8018,
      "大陆": 8019,
      "婚姻": 8020,
      "远远": 8021,
      "基本的": 8022,
      "ha": 8023,
      "变的": 8024,
      "手指": 8025,
      "教室": 8026,
      "是如此": 8027,
      "销售": 8028,
      "我们看到": 8029,
      "因为在": 8030,
      "以上": 8031,
      "私人": 8032,
      "诞生": 8033,
      "象征": 8034,
      "阳光": 8035,
      "198": 8036,
      "合法": 8037,
      "天文": 8038,
      "我得": 8039,
      "毕竟": 8040,
      "短信": 8041,
      "蚊子": 8042,
      "让你们": 8043,
      "基础设施": 8044,
      "保健": 8045,
      "反馈": 8046,
      "达成": 8047,
      "于是我": 8048,
      "3年": 8049,
      "中最": 8050,
      "关联": 8051,
      "加州": 8052,
      "地的": 8053,
      "志愿": 8054,
      "随后": 8055,
      "城市的": 8056,
      "经历了": 8057,
      "一遍": 8058,
      "之内": 8059,
      "吸收": 8060,
      "段时间": 8061,
      "论文": 8062,
      "生态系统": 8063,
      "伊拉克": 8064,
      "对我说": 8065,
      "尼日": 8066,
      "慈善": 8067,
      "村庄": 8068,
      "沮丧": 8069,
      "组成的": 8070,
      "为什么要": 8071,
      "在那儿": 8072,
      "产业": 8073,
      "博客": 8074,
      "在你的": 8075,
      "子上": 8076,
      "总结": 8077,
      "正义": 8078,
      "生意": 8079,
      "第三个": 8080,
      "黑猩猩": 8081,
      "他们所": 8082,
      "研究的": 8083,
      "有趣的是": 8084,
      "ook": 8085,
      "%，": 8086,
      "应当": 8087,
      "追踪": 8088,
      "高速": 8089,
      "的人生": 8090,
      "社会的": 8091,
      "年轻的": 8092,
      "更好地": 8093,
      "了我们的": 8094,
      "做些什么": 8095,
      "哪儿": 8096,
      "在200": 8097,
      "我都": 8098,
      "改进": 8099,
      "认同": 8100,
      "什么样的": 8101,
      "你现在": 8102,
      "再生": 8103,
      "氧气": 8104,
      "突破": 8105,
      "立刻": 8106,
      "老年": 8107,
      "可以用": 8108,
      "建筑师": 8109,
      "某种程度上": 8110,
      "像这样": 8111,
      "启动": 8112,
      "教师": 8113,
      "毒品": 8114,
      "罗马": 8115,
      "自信": 8116,
      "难道": 8117,
      "难题": 8118,
      "因为你": 8119,
      "创造出": 8120,
      "我不想": 8121,
      "分离": 8122,
      "品牌": 8123,
      "将它": 8124,
      "流动": 8125,
      "潜力": 8126,
      "视为": 8127,
      "这是我的": 8128,
      "几百": 8129,
      "大小": 8130,
      "标签": 8131,
      "特性": 8132,
      "规律": 8133,
      "采访": 8134,
      "重视": 8135,
      "如果他们": 8136,
      "还有很多": 8137,
      "非洲的": 8138,
      "疾病的": 8139,
      "心脏病": 8140,
      "与此同时": 8141,
      "主题": 8142,
      "代码": 8143,
      "做一些": 8144,
      "悲伤": 8145,
      "感情": 8146,
      "我不能": 8147,
      "摆脱": 8148,
      "重点": 8149,
      "因为这": 8150,
      "任何一个": 8151,
      "取代": 8152,
      "指导": 8153,
      "那时候": 8154,
      "宇宙的": 8155,
      "ia": 8156,
      "un": 8157,
      "左边": 8158,
      "很小": 8159,
      "我又": 8160,
      "杉矶": 8161,
      "洛杉矶": 8162,
      "申请": 8163,
      "的项目": 8164,
      "看过": 8165,
      "舞蹈": 8166,
      "主义的": 8167,
      "争论": 8168,
      "但他": 8169,
      "你说": 8170,
      "公里": 8171,
      "前面": 8172,
      "发电": 8173,
      "层的": 8174,
      "拉斯": 8175,
      "着手": 8176,
      "这个过程": 8177,
      "敏感": 8178,
      "数百万": 8179,
      "道理": 8180,
      "动物的": 8181,
      "我们就能": 8182,
      "15年": 8183,
      "4年": 8184,
      "商品": 8185,
      "宣传": 8186,
      "推特": 8187,
      "提到的": 8188,
      "生理": 8189,
      "葡萄": 8190,
      "费用": 8191,
      "集体": 8192,
      "人们在": 8193,
      "一台": 8194,
      "分配": 8195,
      "反映": 8196,
      "向你们": 8197,
      "团结": 8198,
      "姐妹": 8199,
      "有两个": 8200,
      "....": 8201,
      "在这儿": 8202,
      "ur": 8203,
      "传感": 8204,
      "我曾经": 8205,
      "指出": 8206,
      "活跃": 8207,
      "贸易": 8208,
      "也很": 8209,
      "变暖": 8210,
      "更容易": 8211,
      "联邦": 8212,
      "运输": 8213,
      "阿尔": 8214,
      "解决问题": 8215,
      "ay": 8216,
      "im": 8217,
      "专门": 8218,
      "保守": 8219,
      "图表": 8220,
      "孤独": 8221,
      "改造": 8222,
      "数以": 8223,
      "本来": 8224,
      "清洁": 8225,
      "的经历": 8226,
      "的食物": 8227,
      "知道的": 8228,
      "最后一个": 8229,
      "掉了": 8230,
      "演示": 8231,
      "这是在": 8232,
      "那么多": 8233,
      "人物": 8234,
      "的未来": 8235,
      "而不": 8236,
      "400": 8237,
      "上学": 8238,
      "南非": 8239,
      "哺乳": 8240,
      "开展": 8241,
      "意大": 8242,
      "月球": 8243,
      "的观点": 8244,
      "的内容": 8245,
      "它们在": 8246,
      "保险": 8247,
      "塑造": 8248,
      "引导": 8249,
      "录像": 8250,
      "我真的": 8251,
      "有机会": 8252,
      "科医生": 8253,
      "就算": 8254,
      "扩大": 8255,
      "的一种": 8256,
      "之下": 8257,
      "听说": 8258,
      "在这种": 8259,
      "教学": 8260,
      "火箭": 8261,
      "过度": 8262,
      "我是个": 8263,
      "学生们": 8264,
      "科学家们": 8265,
      "可怕的": 8266,
      "ir": 8267,
      "一百": 8268,
      "指数": 8269,
      "换句话": 8270,
      "是你": 8271,
      "消费者": 8272,
      "加拿大": 8273,
      "人在": 8274,
      "勇敢": 8275,
      "单位": 8276,
      "寻常": 8277,
      "意外": 8278,
      "替代": 8279,
      "潜水": 8280,
      "美好的": 8281,
      "讨厌": 8282,
      "防止": 8283,
      "隔离": 8284,
      "意义的": 8285,
      "。\"": 8286,
      "与我们": 8287,
      "但如果": 8288,
      "的位置": 8289,
      "技术的": 8290,
      "ow": 8291,
      "回去": 8292,
      "拿着": 8293,
      "有许多": 8294,
      "热爱": 8295,
      "用它": 8296,
      "著名的": 8297,
      "它们会": 8298,
      "你们可以": 8299,
      "我们就可以": 8300,
      "专利": 8301,
      "住了": 8302,
      "做好": 8303,
      "和他们": 8304,
      "夏天": 8305,
      "差距": 8306,
      "欢呼": 8307,
      "质疑": 8308,
      "起源": 8309,
      "大学的": 8310,
      "一件事": 8311,
      "别人的": 8312,
      "去世": 8313,
      "合物": 8314,
      "小组": 8315,
      "不像": 8316,
      "严肃": 8317,
      "我不会": 8318,
      "澳大": 8319,
      "贝尔": 8320,
      "不应该": 8321,
      "却是": 8322,
      "回报": 8323,
      "幻灯": 8324,
      "把这": 8325,
      "禁止": 8326,
      "不喜欢": 8327,
      "俄罗斯": 8328,
      "右边": 8329,
      "处在": 8330,
      "显著": 8331,
      "片段": 8332,
      "有一点": 8333,
      "尼日利亚": 8334,
      "澳大利亚": 8335,
      "三年": 8336,
      "不止": 8337,
      "以色": 8338,
      "使我": 8339,
      "少的": 8340,
      "整体": 8341,
      "节奏": 8342,
      "跨越": 8343,
      "饮食": 8344,
      "实际上是": 8345,
      "身体的": 8346,
      "它就": 8347,
      "干细胞": 8348,
      "染色": 8349,
      "但是他们": 8350,
      "不是吗": 8351,
      "展示了": 8352,
      "世纪的": 8353,
      "面临的": 8354,
      "基金会": 8355,
      "ob": 8356,
      "五个": 8357,
      "仪器": 8358,
      "最有": 8359,
      "游泳": 8360,
      "激发": 8361,
      "表情": 8362,
      "谈到": 8363,
      "几十年": 8364,
      "在想": 8365,
      "带有": 8366,
      "开了": 8367,
      "更重要的是": 8368,
      "最重要的是": 8369,
      "模仿": 8370,
      "的呢": 8371,
      "的海": 8372,
      "礼物": 8373,
      "紧密": 8374,
      "作为一名": 8375,
      "变得更加": 8376,
      "以色列": 8377,
      "对比": 8378,
      "形象": 8379,
      "的空间": 8380,
      "进了": 8381,
      "靠近": 8382,
      "我们正": 8383,
      "可以说": 8384,
      "组织的": 8385,
      "换句话说": 8386,
      "不安": 8387,
      "因斯坦": 8388,
      "它是一个": 8389,
      "差别": 8390,
      "承受": 8391,
      "爱因斯坦": 8392,
      "由此": 8393,
      "部电影": 8394,
      "雕塑": 8395,
      "陌生人": 8396,
      "传感器": 8397,
      "听到的": 8398,
      "多了": 8399,
      "当人们": 8400,
      "所说的": 8401,
      "无关": 8402,
      "的变化": 8403,
      "繁荣": 8404,
      "还没": 8405,
      "驱动": 8406,
      "这种情况": 8407,
      "中央": 8408,
      "工人": 8409,
      "是被": 8410,
      "更为": 8411,
      "来讲": 8412,
      "腐败": 8413,
      "这时": 8414,
      "and": 8415,
      "有点像": 8416,
      "企业家": 8417,
      "当地的": 8418,
      "特殊的": 8419,
      "体会": 8420,
      "北极": 8421,
      "头脑": 8422,
      "将要": 8423,
      "布鲁": 8424,
      "护士": 8425,
      "摧毁": 8426,
      "消除": 8427,
      "越多": 8428,
      "保存": 8429,
      "内的": 8430,
      "和你": 8431,
      "地下": 8432,
      "它也": 8433,
      "安排": 8434,
      "对他们": 8435,
      "提取": 8436,
      "有能力": 8437,
      "精力": 8438,
      "级的": 8439,
      "如果你们": 8440,
      "已经在": 8441,
      "一定要": 8442,
      "以一种": 8443,
      "信念": 8444,
      "前往": 8445,
      "尽可能": 8446,
      "得很": 8447,
      "沿着": 8448,
      "精彩": 8449,
      "于是我们": 8450,
      "会发生什么": 8451,
      "ag": 8452,
      "不平等": 8453,
      "写作": 8454,
      "受伤": 8455,
      "只会": 8456,
      "形的": 8457,
      "抗生素": 8458,
      "玩耍": 8459,
      "的历史": 8460,
      "诊所": 8461,
      "他们对": 8462,
      "这些事情": 8463,
      "然后你": 8464,
      "的话题": 8465,
      "完成了": 8466,
      "制的": 8467,
      "娱乐": 8468,
      "连续": 8469,
      "马拉": 8470,
      "奇怪的": 8471,
      "2年": 8472,
      "万美元": 8473,
      "在那个": 8474,
      "庆祝": 8475,
      "携带": 8476,
      "水的": 8477,
      "该如何": 8478,
      "跟踪": 8479,
      "是一位": 8480,
      "下一": 8481,
      "多种": 8482,
      "学到的": 8483,
      "想过": 8484,
      "我用": 8485,
      "我应该": 8486,
      "拿到": 8487,
      "此时": 8488,
      "至关": 8489,
      "频率": 8490,
      "麦克": 8491,
      "可以被": 8492,
      "不断地": 8493,
      "aceb": 8494,
      "一辆": 8495,
      "亚洲": 8496,
      "伊朗": 8497,
      "作出": 8498,
      "小心": 8499,
      "尔斯": 8500,
      "想知道": 8501,
      "打造": 8502,
      "捕捉": 8503,
      "掌控": 8504,
      "描绘": 8505,
      "的公司": 8506,
      "石头": 8507,
      "笔记": 8508,
      "编码": 8509,
      "acebook": 8510,
      "大卫": 8511,
      "定律": 8512,
      "得出": 8513,
      "手臂": 8514,
      "格兰": 8515,
      "深深": 8516,
      "的角度": 8517,
      "盒子": 8518,
      "能看到": 8519,
      "面上": 8520,
      "发生的事情": 8521,
      "环境中": 8522,
      "iP": 8523,
      "三角": 8524,
      "原本": 8525,
      "商店": 8526,
      "国会": 8527,
      "影片": 8528,
      "我还是": 8529,
      "拉丁": 8530,
      "流感": 8531,
      "点子": 8532,
      "的数量": 8533,
      "这份": 8534,
      "这并不是": 8535,
      "但你": 8536,
      "国的": 8537,
      "大象": 8538,
      "尔的": 8539,
      "平方": 8540,
      "战斗": 8541,
      "有限": 8542,
      "这个数字": 8543,
      "独特的": 8544,
      "辐射": 8545,
      "解决这个问题": 8546,
      "意大利": 8547,
      "个人的": 8548,
      "厨房": 8549,
      "屋顶": 8550,
      "愿望": 8551,
      "更快": 8552,
      "残疾": 8553,
      "沉默": 8554,
      "浏览": 8555,
      "疗法": 8556,
      "的工具": 8557,
      "讽刺": 8558,
      "这里是": 8559,
      "我不得不": 8560,
      "2000": 8561,
      "交换": 8562,
      "学术": 8563,
      "家长": 8564,
      "强的": 8565,
      "我爱": 8566,
      "更大": 8567,
      "猴子": 8568,
      "认真": 8569,
      "远离": 8570,
      "一个非常": 8571,
      "第二天": 8572,
      "特别的": 8573,
      "An": 8574,
      "在未来": 8575,
      "基督": 8576,
      "抗议": 8577,
      "是怎样": 8578,
      "负担": 8579,
      "av": 8580,
      "和他的": 8581,
      "惊奇": 8582,
      "我才": 8583,
      "我正在": 8584,
      "正好": 8585,
      "词汇": 8586,
      "告诉大家": 8587,
      "不去": 8588,
      "为你": 8589,
      "争议": 8590,
      "它将": 8591,
      "我父亲": 8592,
      "景象": 8593,
      "看不到": 8594,
      "已经有": 8595,
      "谢谢你": 8596,
      "这么说": 8597,
      "我们都知道": 8598,
      "倾向于": 8599,
      "两者": 8600,
      "人性": 8601,
      "否则": 8602,
      "好事": 8603,
      "所未": 8604,
      "每周": 8605,
      "环保": 8606,
      "生涯": 8607,
      "祖母": 8608,
      "都没": 8609,
      "原因是": 8610,
      "无论是": 8611,
      "便是": 8612,
      "反射": 8613,
      "外星": 8614,
      "牺牲": 8615,
      "的目标": 8616,
      "着迷": 8617,
      "空中": 8618,
      "都知道": 8619,
      "经济学家": 8620,
      "物理学家": 8621,
      "幻灯片": 8622,
      "亚马": 8623,
      "几周": 8624,
      "到20": 8625,
      "的样子": 8626,
      "类型的": 8627,
      "融合": 8628,
      "进行的": 8629,
      "女性的": 8630,
      "永远不会": 8631,
      "Facebook": 8632,
      "图案": 8633,
      "学者": 8634,
      "宣布": 8635,
      "异常": 8636,
      "戏剧": 8637,
      "我做": 8638,
      "所能": 8639,
      "斯的": 8640,
      "繁殖": 8641,
      "见证": 8642,
      "里克": 8643,
      "创造一个": 8644,
      "与人": 8645,
      "单一": 8646,
      "多个": 8647,
      "将这些": 8648,
      "年来": 8649,
      "并在": 8650,
      "愚蠢": 8651,
      "挣扎": 8652,
      "有两": 8653,
      "法官": 8654,
      "而易": 8655,
      "自主": 8656,
      "自从": 8657,
      "被认为": 8658,
      "另一方面": 8659,
      "ul": 8660,
      "先进": 8661,
      "我感到": 8662,
      "河流": 8663,
      "移植": 8664,
      "缺陷": 8665,
      "舒服": 8666,
      "遇到了": 8667,
      "因为它们": 8668,
      "非常的": 8669,
      "一段时间": 8670,
      "你应该": 8671,
      "分辨": 8672,
      "区分": 8673,
      "听过": 8674,
      "对你": 8675,
      "引擎": 8676,
      "当我在": 8677,
      "想的": 8678,
      "我并不": 8679,
      "杀死": 8680,
      "穷人": 8681,
      "建立一个": 8682,
      "”（": 8683,
      "你想要": 8684,
      "在线": 8685,
      "地理": 8686,
      "学到了": 8687,
      "怀孕": 8688,
      "房屋": 8689,
      "把我们": 8690,
      "有意思": 8691,
      "民众": 8692,
      "法庭": 8693,
      "看一下": 8694,
      "纪录": 8695,
      "胜利": 8696,
      "走出": 8697,
      "高效": 8698,
      "答案是": 8699,
      "Al": 8700,
      "gle": 8701,
      "一座": 8702,
      "为他们": 8703,
      "付出": 8704,
      "体育": 8705,
      "你就可以": 8706,
      "听众": 8707,
      "成分": 8708,
      "我跟": 8709,
      "无聊": 8710,
      "构成": 8711,
      "街上": 8712,
      "我们得": 8713,
      "帮助他们": 8714,
      "死亡率": 8715,
      "十年代": 8716,
      "各种各样的": 8717,
      "你是否": 8718,
      "出发": 8719,
      "创业": 8720,
      "固定": 8721,
      "担忧": 8722,
      "看出": 8723,
      "询问": 8724,
      "预算": 8725,
      "也许会": 8726,
      "最喜欢的": 8727,
      "依旧": 8728,
      "命运": 8729,
      "场所": 8730,
      "家族": 8731,
      "毁灭": 8732,
      "玩笑": 8733,
      "种子": 8734,
      "货币": 8735,
      "一点点": 8736,
      "完成的": 8737,
      "你知道吗": 8738,
      "专注于": 8739,
      "he": 8740,
      "以便": 8741,
      "你觉得": 8742,
      "写了": 8743,
      "和你们": 8744,
      "天的": 8745,
      "安装": 8746,
      "局限": 8747,
      "层次": 8748,
      "树木": 8749,
      "药品": 8750,
      "运转": 8751,
      "我们是否": 8752,
      "开始了": 8753,
      "领导者": 8754,
      "保障": 8755,
      "后代": 8756,
      "探讨": 8757,
      "既然": 8758,
      "的那些": 8759,
      "第四": 8760,
      "要知道": 8761,
      "就是一个": 8762,
      "所以他们": 8763,
      "亚马逊": 8764,
      "45": 8765,
      "反复": 8766,
      "噪音": 8767,
      "增强": 8768,
      "为什么会": 8769,
      "宇宙中": 8770,
      "准备好": 8771,
      "这项技术": 8772,
      "幸运的是": 8773,
      "发展中国家": 8774,
      "um": 8775,
      "共和": 8776,
      "回顾": 8777,
      "并不能": 8778,
      "接收": 8779,
      "框架": 8780,
      "气味": 8781,
      "的可能性": 8782,
      "符号": 8783,
      "能让": 8784,
      "达尔": 8785,
      "餐厅": 8786,
      "可以通过": 8787,
      "也就": 8788,
      "传达": 8789,
      "伴侣": 8790,
      "作者": 8791,
      "出于": 8792,
      "定位": 8793,
      "对称": 8794,
      "性和": 8795,
      "注射": 8796,
      "病人的": 8797,
      "秒钟": 8798,
      "过滤": 8799,
      "饥饿": 8800,
      "我们的生活": 8801,
      "开始的": 8802,
      "政府的": 8803,
      "运动的": 8804,
      "ak": 8805,
      "中的一": 8806,
      "委员": 8807,
      "安静": 8808,
      "把自己": 8809,
      "最佳": 8810,
      "步骤": 8811,
      "纪念": 8812,
      "编程": 8813,
      "隐私": 8814,
      "196": 8815,
      "是一名": 8816,
      "发明了": 8817,
      "仪式": 8818,
      "何时": 8819,
      "关闭": 8820,
      "坚信": 8821,
      "并不会": 8822,
      "延伸": 8823,
      "我甚至": 8824,
      "拥抱": 8825,
      "满意": 8826,
      "火车": 8827,
      "穿越": 8828,
      "我们去": 8829,
      "不是一个": 8830,
      "危险的": 8831,
      "为人": 8832,
      "你怎么": 8833,
      "天气": 8834,
      "崩溃": 8835,
      "平面": 8836,
      "恰恰": 8837,
      "折磨": 8838,
      "法案": 8839,
      "睡觉": 8840,
      "种类": 8841,
      "的问题是": 8842,
      "做的就是": 8843,
      "离开了": 8844,
      "上有": 8845,
      "各自": 8846,
      "忘了": 8847,
      "方的": 8848,
      "活着": 8849,
      "的这个": 8850,
      "花园": 8851,
      "要去": 8852,
      "转向": 8853,
      "首次": 8854,
      "研究人员": 8855,
      "科学的": 8856,
      "我和我的": 8857,
      "3D": 8858,
      "Goo": 8859,
      "ris": 8860,
      "中东": 8861,
      "很可能": 8862,
      "推进": 8863,
      "的系统": 8864,
      "的名字": 8865,
      "目睹": 8866,
      "稍微": 8867,
      "给我的": 8868,
      "赢得": 8869,
      "身处": 8870,
      "边界": 8871,
      "我们甚至": 8872,
      "他们想": 8873,
      "这是因为": 8874,
      "那里的": 8875,
      "197": 8876,
      "99": 8877,
      "son": 8878,
      "停车": 8879,
      "发光": 8880,
      "和我的": 8881,
      "她是": 8882,
      "规定": 8883,
      "资助": 8884,
      "这座": 8885,
      "鼓舞": 8886,
      "工作中": 8887,
      "这就是我们": 8888,
      "结果是": 8889,
      "但却": 8890,
      "困境": 8891,
      "欣赏": 8892,
      "生成": 8893,
      "的路": 8894,
      "的存在": 8895,
      "阻碍": 8896,
      "人们会": 8897,
      "You": 8898,
      "一小": 8899,
      "乐队": 8900,
      "你对": 8901,
      "发送": 8902,
      "干净": 8903,
      "幸存": 8904,
      "是多么": 8905,
      "水中": 8906,
      "灵活": 8907,
      "燃烧": 8908,
      "的高": 8909,
      "观测": 8910,
      "还记得": 8911,
      "非凡": 8912,
      "他们需要": 8913,
      "如果我们能": 8914,
      "两次": 8915,
      "乔治": 8916,
      "几千": 8917,
      "利润": 8918,
      "只有一个": 8919,
      "吃惊": 8920,
      "哲学": 8921,
      "想一下": 8922,
      "激素": 8923,
      "的作用": 8924,
      "鸟类": 8925,
      "他们能": 8926,
      "这些信息": 8927,
      "工作者": 8928,
      "越来越多": 8929,
      "op": 8930,
      "三十": 8931,
      "他就": 8932,
      "他人的": 8933,
      "地面": 8934,
      "扩展": 8935,
      "有过": 8936,
      "首歌": 8937,
      "所以在": 8938,
      "st": 8939,
      "包容": 8940,
      "原来": 8941,
      "好好": 8942,
      "密度": 8943,
      "广场": 8944,
      "强迫": 8945,
      "是对": 8946,
      "温室": 8947,
      "自豪": 8948,
      "融入": 8949,
      "雄性": 8950,
      "顺利": 8951,
      "你的大脑": 8952,
      "我想说": 8953,
      "为什么不": 8954,
      "自然的": 8955,
      "个性": 8956,
      "乐器": 8957,
      "将近": 8958,
      "激情": 8959,
      "确信": 8960,
      "绝望": 8961,
      "而来": 8962,
      "重的": 8963,
      "钢琴": 8964,
      "，\"": 8965,
      "很多的": 8966,
      "这里有": 8967,
      "珊瑚礁": 8968,
      "古老的": 8969,
      "Jo": 8970,
      "一大": 8971,
      "不确定": 8972,
      "体现": 8973,
      "周期": 8974,
      "困扰": 8975,
      "抽象": 8976,
      "数百": 8977,
      "整合": 8978,
      "构造": 8979,
      "让它们": 8980,
      "队伍": 8981,
      "风格": 8982,
      "你会看到": 8983,
      "正常的": 8984,
      "志愿者": 8985,
      "情形": 8986,
      "我之前": 8987,
      "我一直在": 8988,
      "是可以": 8989,
      "深处": 8990,
      "的基础": 8991,
      "肥胖": 8992,
      "贷款": 8993,
      "他们认为": 8994,
      "但是这": 8995,
      "---": 8996,
      "导致了": 8997,
      "糟糕的": 8998,
      "1年": 8999,
      "南极": 9000,
      "可靠": 9001,
      "始终": 9002,
      "很有趣": 9003,
      "数千": 9004,
      "极了": 9005,
      "马克": 9006,
      "非常非常": 9007,
      "生物学家": 9008,
      "让我来": 9009,
      "SA": 9010,
      "五十": 9011,
      "再一次": 9012,
      "分之": 9013,
      "告知": 9014,
      "哈佛": 9015,
      "形成的": 9016,
      "想着": 9017,
      "护理": 9018,
      "最重要": 9019,
      "概率": 9020,
      "此外": 9021,
      "生气": 9022,
      "的外": 9023,
      "监管": 9024,
      "解放": 9025,
      "随之": 9026,
      "随时": 9027,
      "使用了": 9028,
      "太阳系": 9029,
      "one": 9030,
      "有多少人": 9031,
      "35": 9032,
      "不少": 9033,
      "亿人": 9034,
      "保罗": 9035,
      "储存": 9036,
      "动画": 9037,
      "威尔": 9038,
      "它有": 9039,
      "常见的": 9040,
      "惩罚": 9041,
      "的形式": 9042,
      "让自己": 9043,
      "我们称之为": 9044,
      "地区的": 9045,
      "一周": 9046,
      "作物": 9047,
      "协调": 9048,
      "发达": 9049,
      "只不过": 9050,
      "在印度": 9051,
      "形成了": 9052,
      "悲剧": 9053,
      "成绩": 9054,
      "日子": 9055,
      "显微": 9056,
      "现今": 9057,
      "美的": 9058,
      "然后再": 9059,
      "只是一个": 9060,
      "三种": 9061,
      "反而": 9062,
      "宝宝": 9063,
      "就被": 9064,
      "植入": 9065,
      "此刻": 9066,
      "液体": 9067,
      "点击": 9068,
      "现有的": 9069,
      "的风险": 9070,
      "的过程中": 9071,
      "观的": 9072,
      "设置": 9073,
      "足以": 9074,
      "我们做": 9075,
      "如果没有": 9076,
      "所以说": 9077,
      "必须要": 9078,
      "创造的": 9079,
      "想象的": 9080,
      "我说的": 9081,
      "ube": 9082,
      "你不会": 9083,
      "典型的": 9084,
      "冰川": 9085,
      "分解": 9086,
      "在很多": 9087,
      "地上": 9088,
      "存储": 9089,
      "就不会": 9090,
      "微笑": 9091,
      "感官": 9092,
      "所知": 9093,
      "是我们的": 9094,
      "的心": 9095,
      "的朋友": 9096,
      "类型": 9097,
      "聊天": 9098,
      "脂肪": 9099,
      "证实": 9100,
      "马斯": 9101,
      "这种方式": 9102,
      "的一点": 9103,
      "大脑中": 9104,
      "一千": 9105,
      "三分之一": 9106,
      "两倍": 9107,
      "做到的": 9108,
      "具备": 9109,
      "可见": 9110,
      "失望": 9111,
      "对了": 9112,
      "懂得": 9113,
      "抵抗": 9114,
      "是用": 9115,
      "渐渐": 9116,
      "轻松": 9117,
      "里有": 9118,
      "一切都": 9119,
      "但现在": 9120,
      "信心": 9121,
      "几率": 9122,
      "分类": 9123,
      "动态": 9124,
      "回忆": 9125,
      "小时候": 9126,
      "形容": 9127,
      "我第一次": 9128,
      "激进": 9129,
      "监控": 9130,
      "着一个": 9131,
      "遭遇": 9132,
      "金山": 9133,
      "中国的": 9134,
      "社交媒体": 9135,
      "人数": 9136,
      "前所未": 9137,
      "又一次": 9138,
      "影像": 9139,
      "成熟": 9140,
      "我为": 9141,
      "看作": 9142,
      "进程": 9143,
      "鱼类": 9144,
      "我们无法": 9145,
      "他们自己的": 9146,
      "这些都": 9147,
      "这样一": 9148,
      "的是什么": 9149,
      "完整的": 9150,
      "委员会": 9151,
      "ap": 9152,
      "下一代": 9153,
      "向前": 9154,
      "向我": 9155,
      "含义": 9156,
      "咨询": 9157,
      "奇妙": 9158,
      "打击": 9159,
      "探险": 9160,
      "旧金山": 9161,
      "独自": 9162,
      "聆听": 9163,
      "认可": 9164,
      "这句话": 9165,
      "黑客": 9166,
      "我们今天": 9167,
      "我们就会": 9168,
      "就是在": 9169,
      "意义上": 9170,
      "消失了": 9171,
      "Google": 9172,
      "75": 9173,
      "CE": 9174,
      "其它的": 9175,
      "到来": 9176,
      "在学校": 9177,
      "大楼": 9178,
      "放进": 9179,
      "洞穴": 9180,
      "特点": 9181,
      "玛丽": 9182,
      "老人": 9183,
      "镜头": 9184,
      "他们没有": 9185,
      "可以让": 9186,
      "出现的": 9187,
      "建筑物": 9188,
      "Mar": 9189,
      "但事实上": 9190,
      "你认为": 9191,
      "军事": 9192,
      "只需": 9193,
      "司法": 9194,
      "巴马": 9195,
      "是这个": 9196,
      "比起": 9197,
      "的动物": 9198,
      "等于": 9199,
      "老板": 9200,
      "街头": 9201,
      "鲨鱼": 9202,
      "）（": 9203,
      "我们被": 9204,
      "人们对": 9205,
      "如果你在": 9206,
      "普通的": 9207,
      "在非洲": 9208,
      "扩张": 9209,
      "的生命": 9210,
      "膨胀": 9211,
      "顾客": 9212,
      "骨头": 9213,
      "故事的": 9214,
      "变得越来越": 9215,
      "想象力": 9216,
      "世上": 9217,
      "会怎样": 9218,
      "你已经": 9219,
      "刚开始": 9220,
      "卡车": 9221,
      "厕所": 9222,
      "遵循": 9223,
      "建立了": 9224,
      "目前为止": 9225,
      "写着": 9226,
      "岩石": 9227,
      "捐赠": 9228,
      "理性": 9229,
      "的反应": 9230,
      "诗歌": 9231,
      "之前的": 9232,
      "我们不知道": 9233,
      "人心": 9234,
      "协议": 9235,
      "展览": 9236,
      "帝国": 9237,
      "推广": 9238,
      "要是": 9239,
      "课堂": 9240,
      "过于": 9241,
      "这个系统": 9242,
      "因为这些": 9243,
      "考虑到": 9244,
      "染色体": 9245,
      "三维": 9246,
      "剩下的": 9247,
      "劳动": 9248,
      "开启": 9249,
      "方便": 9250,
      "的同时": 9251,
      "的作品": 9252,
      "这片": 9253,
      "这个国家": 9254,
      "世界上的": 9255,
      "对于我": 9256,
      "一句": 9257,
      "与其": 9258,
      "与我": 9259,
      "剩下": 9260,
      "年里": 9261,
      "激光": 9262,
      "用在": 9263,
      "请求": 9264,
      "这在": 9265,
      "重量": 9266,
      "事实是": 9267,
      "心理学家": 9268,
      "ik": 9269,
      "众多": 9270,
      "创立": 9271,
      "化了": 9272,
      "发育": 9273,
      "喜剧": 9274,
      "巴黎": 9275,
      "年后": 9276,
      "战略": 9277,
      "敌人": 9278,
      "是时候": 9279,
      "棒了": 9280,
      "模糊": 9281,
      "的选择": 9282,
      "的运动": 9283,
      "舒适": 9284,
      "要比": 9285,
      "部位": 9286,
      "没有一个": 9287,
      "领导人": 9288,
      "飞行器": 9289,
      "AI": 9290,
      "像这样的": 9291,
      "单独": 9292,
      "它被": 9293,
      "对我们的": 9294,
      "的光": 9295,
      "给了我": 9296,
      "领域的": 9297,
      "》，": 9298,
      "一想": 9299,
      "使你": 9300,
      "在她": 9301,
      "场的": 9302,
      "大笑": 9303,
      "我没": 9304,
      "昨天": 9305,
      "棒的": 9306,
      "玩家": 9307,
      "的能量": 9308,
      "碰撞": 9309,
      "缓慢": 9310,
      "试试": 9311,
      "野生": 9312,
      "雇佣": 9313,
      "就是我们": 9314,
      "就是这个": 9315,
      "还有一些": 9316,
      "起来的": 9317,
      "参与者": 9318,
      "书籍": 9319,
      "人权": 9320,
      "使命": 9321,
      "分散": 9322,
      "味道": 9323,
      "在全球": 9324,
      "尴尬": 9325,
      "常见": 9326,
      "意的": 9327,
      "指的是": 9328,
      "满了": 9329,
      "用一个": 9330,
      "航天": 9331,
      "虐待": 9332,
      "还不": 9333,
      "适用于": 9334,
      "长达": 9335,
      "飞船": 9336,
      "然后他": 9337,
      "信息的": 9338,
      "细胞的": 9339,
      "DP": 9340,
      "了个": 9341,
      "在他的": 9342,
      "太棒了": 9343,
      "家乡": 9344,
      "干扰": 9345,
      "排列": 9346,
      "无处": 9347,
      "本地": 9348,
      "确认": 9349,
      "粮食": 9350,
      "腺癌": 9351,
      "贫民": 9352,
      "跟着": 9353,
      "我们只是": 9354,
      "是一件": 9355,
      "在我看来": 9356,
      "显微镜": 9357,
      "ie": 9358,
      "亲密": 9359,
      "区的": 9360,
      "发起": 9361,
      "国王": 9362,
      "巴基": 9363,
      "干预": 9364,
      "比尔": 9365,
      "海底": 9366,
      "消灭": 9367,
      "都不会": 9368,
      "错的": 9369,
      "的人的": 9370,
      "意味着什么": 9371,
      "越来越多的": 9372,
      "困惑": 9373,
      "多久": 9374,
      "多元": 9375,
      "学位": 9376,
      "当下": 9377,
      "无比": 9378,
      "是吧": 9379,
      "栖息": 9380,
      "比方": 9381,
      "气球": 9382,
      "联盟": 9383,
      "蝙蝠": 9384,
      "言论": 9385,
      "银河": 9386,
      "他们把": 9387,
      "当时的": 9388,
      "经历过": 9389,
      "增加了": 9390,
      "我从来": 9391,
      "不可能的": 9392,
      "学会了": 9393,
      "本质上": 9394,
      "23": 9395,
      "加哥": 9396,
      "受到了": 9397,
      "屠杀": 9398,
      "度过": 9399,
      "微小的": 9400,
      "某人": 9401,
      "约会": 9402,
      "缺少": 9403,
      "芝加哥": 9404,
      "这可能": 9405,
      "黄金": 9406,
      "他们将": 9407,
      "研究中": 9408,
      "ard": 9409,
      "不再是": 9410,
      "哺乳动物": 9411,
      "为我": 9412,
      "伯特": 9413,
      "做这个": 9414,
      "四处": 9415,
      "宇航": 9416,
      "工资": 9417,
      "布朗": 9418,
      "拿出": 9419,
      "显而易": 9420,
      "查看": 9421,
      "永久": 9422,
      "流程": 9423,
      "炸弹": 9424,
      "独特": 9425,
      "站起来": 9426,
      "那是一个": 9427,
      "不仅是": 9428,
      "化学物质": 9429,
      "》。": 9430,
      "不受": 9431,
      "克林": 9432,
      "成像": 9433,
      "负面": 9434,
      "存在着": 9435,
      "房间里": 9436,
      "星球上": 9437,
      "企鹅": 9438,
      "但如果你": 9439,
      "尺寸": 9440,
      "挖掘": 9441,
      "病的": 9442,
      "访问": 9443,
      "赚钱": 9444,
      "退休": 9445,
      "逃离": 9446,
      "部件": 9447,
      "我们可能": 9448,
      "优秀的": 9449,
      "ah": 9450,
      "为自己": 9451,
      "你也可以": 9452,
      "公路": 9453,
      "向我们": 9454,
      "姆斯": 9455,
      "得知": 9456,
      "惊人": 9457,
      "新鲜": 9458,
      "来帮助": 9459,
      "男子": 9460,
      "罪犯": 9461,
      "航空": 9462,
      "讲话": 9463,
      "非法": 9464,
      "一个新的": 9465,
      "万个": 9466,
      "之类的": 9467,
      "交互": 9468,
      "其次": 9469,
      "司机": 9470,
      "心里": 9471,
      "我有一个": 9472,
      "源于": 9473,
      "瑞典": 9474,
      "的手": 9475,
      "的角色": 9476,
      "者和": 9477,
      "而现在": 9478,
      "背后的": 9479,
      "说出": 9480,
      "购物": 9481,
      "足球": 9482,
      "问自己": 9483,
      "世界中": 9484,
      "这种方法": 9485,
      "代表着": 9486,
      "巴基斯坦": 9487,
      "600": 9488,
      "主动": 9489,
      "也没": 9490,
      "休息": 9491,
      "博拉": 9492,
      "叙利亚": 9493,
      "和他": 9494,
      "感激": 9495,
      "数学家": 9496,
      "极度": 9497,
      "缩小": 9498,
      "而这个": 9499,
      "我们很": 9500,
      "的一面": 9501,
      "经济增长": 9502,
      "即使是": 9503,
      "时代的": 9504,
      "笔记本": 9505,
      "达尔文": 9506,
      "一部": 9507,
      "个国家": 9508,
      "之上": 9509,
      "会上": 9510,
      "公寓": 9511,
      "哲学家": 9512,
      "对手": 9513,
      "生育": 9514,
      "的社区": 9515,
      "眼镜": 9516,
      "能否": 9517,
      "般的": 9518,
      "讲的": 9519,
      "追溯": 9520,
      "预期": 9521,
      "我们人类": 9522,
      "它们可以": 9523,
      "意识的": 9524,
      "一本": 9525,
      "举办": 9526,
      "代谢": 9527,
      "你还": 9528,
      "分别": 9529,
      "南部": 9530,
      "含有": 9531,
      "实时": 9532,
      "张照片": 9533,
      "当成": 9534,
      "快的": 9535,
      "扩散": 9536,
      "指挥": 9537,
      "机遇": 9538,
      "用水": 9539,
      "考试": 9540,
      "荷兰": 9541,
      "说了": 9542,
      "他们自己": 9543,
      "所以我想": 9544,
      "这样的人": 9545,
      "你们可能": 9546,
      "中的一个": 9547,
      "任何东西": 9548,
      "给你们看": 9549,
      "抑郁症": 9550,
      "同情心": 9551,
      "漂亮的": 9552,
      "顺便说": 9553,
      "GDP": 9554,
      "与之": 9555,
      "事故": 9556,
      "停下来": 9557,
      "几分钟": 9558,
      "却没有": 9559,
      "在大": 9560,
      "支撑": 9561,
      "理工": 9562,
      "美妙": 9563,
      "芯片": 9564,
      "蜘蛛": 9565,
      "让大家": 9566,
      "醒来": 9567,
      "我们通过": 9568,
      "20世纪": 9569,
      "上班": 9570,
      "在纽约": 9571,
      "在接下来的": 9572,
      "当她": 9573,
      "我最": 9574,
      "数的": 9575,
      "整整": 9576,
      "是完全": 9577,
      "白色": 9578,
      "的不同": 9579,
      "组装": 9580,
      "耳朵": 9581,
      "证明了": 9582,
      "必要的": 9583,
      "ev": 9584,
      "不出": 9585,
      "争取": 9586,
      "化合物": 9587,
      "占据": 9588,
      "将它们": 9589,
      "意料": 9590,
      "欺骗": 9591,
      "的那个": 9592,
      "的演讲": 9593,
      "神圣": 9594,
      "那个人": 9595,
      "风暴": 9596,
      "魔术": 9597,
      "我们一直": 9598,
      "我们的大脑": 9599,
      "非常好": 9600,
      "接受了": 9601,
      "下午": 9602,
      "乐趣": 9603,
      "仿佛": 9604,
      "你去": 9605,
      "全世界的": 9606,
      "关节": 9607,
      "天才": 9608,
      "我无法": 9609,
      "我感觉": 9610,
      "文学": 9611,
      "明天": 9612,
      "色彩": 9613,
      "说道": 9614,
      "那位": 9615,
      "青年": 9616,
      "我们又": 9617,
      "我的朋友": 9618,
      "世界里": 9619,
      "联系起来": 9620,
      "明白了": 9621,
      "毫无疑问": 9622,
      "来源于": 9623,
      "od": 9624,
      "一同": 9625,
      "上下": 9626,
      "你看到": 9627,
      "加利": 9628,
      "北部": 9629,
      "只有一": 9630,
      "找到的": 9631,
      "海豚": 9632,
      "莱坞": 9633,
      "评价": 9634,
      "其他地方": 9635,
      "大部分的": 9636,
      "句子": 9637,
      "序列": 9638,
      "心灵": 9639,
      "惊叹": 9640,
      "想起": 9641,
      "收获": 9642,
      "时报": 9643,
      "最多": 9644,
      "服用": 9645,
      "的需求": 9646,
      "骨骼": 9647,
      "我们将会": 9648,
      "困难的": 9649,
      "举手": 9650,
      "以外": 9651,
      "分开": 9652,
      "哥伦": 9653,
      "回到了": 9654,
      "大多": 9655,
      "帮我": 9656,
      "应的": 9657,
      "我猜": 9658,
      "我就是": 9659,
      "找不到": 9660,
      "板上": 9661,
      "深度": 9662,
      "的家庭": 9663,
      "祈祷": 9664,
      "经营": 9665,
      "见了": 9666,
      "资产": 9667,
      "一些东西": 9668,
      "一定会": 9669,
      "ig": 9670,
      "以往": 9671,
      "你好": 9672,
      "你就能": 9673,
      "做成": 9674,
      "台上": 9675,
      "审查": 9676,
      "尔夫": 9677,
      "留在": 9678,
      "笑话": 9679,
      "线上": 9680,
      "脱离": 9681,
      "这不": 9682,
      "采集": 9683,
      "这个是": 9684,
      "病毒的": 9685,
      "自身的": 9686,
      "22": 9687,
      "ut": 9688,
      "们的": 9689,
      "入侵": 9690,
      "对这个": 9691,
      "录音": 9692,
      "抱歉": 9693,
      "有用": 9694,
      "稳定的": 9695,
      "等着": 9696,
      "遇到的": 9697,
      "任何地方": 9698,
      "觉得自己": 9699,
      "自然界": 9700,
      "乡村": 9701,
      "了他": 9702,
      "众人": 9703,
      "体制": 9704,
      "入了": 9705,
      "国内": 9706,
      "指令": 9707,
      "欲望": 9708,
      "理查": 9709,
      "竞选": 9710,
      "给我们的": 9711,
      "被迫": 9712,
      "这可": 9713,
      "链接": 9714,
      "黑色": 9715,
      "这些小": 9716,
      "的一天": 9717,
      "对于我们": 9718,
      "对我而言": 9719,
      "明显的": 9720,
      "ill": 9721,
      "全身": 9722,
      "可行的": 9723,
      "和谐": 9724,
      "外界": 9725,
      "害的": 9726,
      "政客": 9727,
      "有意义": 9728,
      "正式": 9729,
      "比我们": 9730,
      "波士": 9731,
      "百科": 9732,
      "皮层": 9733,
      "给自己": 9734,
      "诗人": 9735,
      "详细": 9736,
      "走路": 9737,
      "遍布": 9738,
      "因为她": 9739,
      "影响力": 9740,
      "选择了": 9741,
      "第二次": 9742,
      "不断的": 9743,
      "会是": 9744,
      "做到了": 9745,
      "圣诞": 9746,
      "对自己": 9747,
      "幽默": 9748,
      "引力": 9749,
      "强奸": 9750,
      "是通过": 9751,
      "权威": 9752,
      "殖民": 9753,
      "法则": 9754,
      "海水": 9755,
      "进化的": 9756,
      "造成了": 9757,
      "能够在": 9758,
      "体重": 9759,
      "决心": 9760,
      "匹配": 9761,
      "可爱": 9762,
      "实话": 9763,
      "巧克": 9764,
      "的关键": 9765,
      "监视": 9766,
      "祖父": 9767,
      "这听起来": 9768,
      "我们为": 9769,
      "这是我们的": 9770,
      "现在我": 9771,
      "我在这里": 9772,
      "最后一": 9773,
      "主要的": 9774,
      "减少了": 9775,
      "物理学": 9776,
      "周围的": 9777,
      "波士顿": 9778,
      "严格": 9779,
      "变为": 9780,
      "史蒂": 9781,
      "损伤": 9782,
      "演出": 9783,
      "的方向": 9784,
      "立即": 9785,
      "紧急": 9786,
      "这并不": 9787,
      "这两种": 9788,
      "）：": 9789,
      "这就是我": 9790,
      "em": 9791,
      "ion": 9792,
      "不然": 9793,
      "但实际上": 9794,
      "协作": 9795,
      "否认": 9796,
      "外部": 9797,
      "完善": 9798,
      "审视": 9799,
      "我与": 9800,
      "我总是": 9801,
      "玉米": 9802,
      "生日": 9803,
      "福利": 9804,
      "英文": 9805,
      "解剖": 9806,
      "让她": 9807,
      "重力": 9808,
      "长时间": 9809,
      "我们再": 9810,
      "他们还": 9811,
      "但是你": 9812,
      "改变世界": 9813,
      "系统中": 9814,
      "是什么样的": 9815,
      "实现的": 9816,
      "中心的": 9817,
      "对我们来说": 9818,
      "好奇心": 9819,
      "候选": 9820,
      "做些": 9821,
      "公布": 9822,
      "双手": 9823,
      "大小的": 9824,
      "带领": 9825,
      "庞大的": 9826,
      "想一想": 9827,
      "教练": 9828,
      "是要": 9829,
      "来解决": 9830,
      "每一次": 9831,
      "游行": 9832,
      "的活动": 9833,
      "真理": 9834,
      "眼前": 9835,
      "神话": 9836,
      "终结": 9837,
      "谋杀": 9838,
      "遗憾": 9839,
      "我的父亲": 9840,
      "的人来说": 9841,
      "一种新的": 9842,
      "一起工作": 9843,
      "你可以在": 9844,
      "谢谢你们": 9845,
      "全球变暖": 9846,
      "根本上": 9847,
      "合适的": 9848,
      "所需的": 9849,
      "会导致": 9850,
      "作业": 9851,
      "受益": 9852,
      "暴露": 9853,
      "比喻": 9854,
      "激活": 9855,
      "牙齿": 9856,
      "用这些": 9857,
      "短暂": 9858,
      "碎片": 9859,
      "窗户": 9860,
      "篇文章": 9861,
      "起作用": 9862,
      "镜子": 9863,
      "阶级": 9864,
      "降落": 9865,
      "：”": 9866,
      "因为这个": 9867,
      "那些在": 9868,
      "并不知道": 9869,
      "展示的": 9870,
      "神奇的": 9871,
      "屏幕上": 9872,
      "27": 9873,
      "不存在": 9874,
      "主导": 9875,
      "传输": 9876,
      "但同时": 9877,
      "助于": 9878,
      "印刷": 9879,
      "基地": 9880,
      "天堂": 9881,
      "妹妹": 9882,
      "放入": 9883,
      "教导": 9884,
      "标题": 9885,
      "热带": 9886,
      "猜测": 9887,
      "相连": 9888,
      "长久": 9889,
      "我们和": 9890,
      "我们不会": 9891,
      "伴随着": 9892,
      "官员": 9893,
      "就没有": 9894,
      "常规": 9895,
      "最为": 9896,
      "最早": 9897,
      "看似": 9898,
      "给她": 9899,
      "血压": 9900,
      "说什么": 9901,
      "运营": 9902,
      "集团": 9903,
      "如果有": 9904,
      "但是它": 9905,
      "改变的": 9906,
      "我们可以看到": 9907,
      "准备好了": 9908,
      "面临着": 9909,
      "相似的": 9910,
      "女士们": 9911,
      "HI": 9912,
      "不被": 9913,
      "了许多": 9914,
      "了下来": 9915,
      "他也": 9916,
      "令我": 9917,
      "午餐": 9918,
      "反抗": 9919,
      "哈拉": 9920,
      "回复": 9921,
      "意图": 9922,
      "所说": 9923,
      "更深": 9924,
      "竟然": 9925,
      "童年": 9926,
      "精英": 9927,
      "聚焦": 9928,
      "街区": 9929,
      "设立": 9930,
      "诚实": 9931,
      "读者": 9932,
      "我们决定": 9933,
      "他们想要": 9934,
      "我的父母": 9935,
      "然后在": 9936,
      "生命中": 9937,
      "地球上的": 9938,
      "参与到": 9939,
      "心理学": 9940,
      "上传": 9941,
      "人造": 9942,
      "加拉": 9943,
      "可行": 9944,
      "就越": 9945,
      "幻觉": 9946,
      "情景": 9947,
      "抑制": 9948,
      "抱怨": 9949,
      "清理": 9950,
      "的说": 9951,
      "的组织": 9952,
      "的产品": 9953,
      "糖尿": 9954,
      "绘制": 9955,
      "这件": 9956,
      "这让我": 9957,
      "选项": 9958,
      "都不是": 9959,
      "我们自己的": 9960,
      "然后他们": 9961,
      "的事件": 9962,
      "以及其他": 9963,
      "类似于": 9964,
      "世界各地的": 9965,
      "免疫系统": 9966,
      "In": 9967,
      "一套": 9968,
      "不行": 9969,
      "代替": 9970,
      "共有": 9971,
      "又是": 9972,
      "听到了": 9973,
      "哪怕": 9974,
      "埃博拉": 9975,
      "墙上": 9976,
      "尊严": 9977,
      "尸体": 9978,
      "放射": 9979,
      "来临": 9980,
      "椅子": 9981,
      "活力": 9982,
      "生病": 9983,
      "绘画": 9984,
      "维护": 9985,
      "营销": 9986,
      "蓝色的": 9987,
      "透过": 9988,
      "我们来": 9989,
      "我们怎么": 9990,
      "现在已经": 9991,
      "医疗保健": 9992,
      "结束了": 9993,
      "TED演讲": 9994,
      "实验室里": 9995,
      "的重要性": 9996,
      "偶然": 9997,
      "夜晚": 9998,
      "安慰": 9999,
      "很显然": 10000,
      "想出": 10001,
      "把他": 10002,
      "操纵": 10003,
      "收益": 10004,
      "显得": 10005,
      "点的": 10006,
      "电路": 10007,
      "的基因": 10008,
      "的主要": 10009,
      "经典": 10010,
      "脑袋": 10011,
      "规范": 10012,
      "我们与": 10013,
      "这个小": 10014,
      "但是如果": 10015,
      "生活方式": 10016,
      "美元的": 10017,
      "每天都": 10018,
      "150": 10019,
      "无论如何": 10020,
      "主持": 10021,
      "但这些": 10022,
      "创新的": 10023,
      "和社会": 10024,
      "外线": 10025,
      "大胆": 10026,
      "学科": 10027,
      "广播": 10028,
      "康复": 10029,
      "我自己的": 10030,
      "抛弃": 10031,
      "指标": 10032,
      "的开": 10033,
      "的意思": 10034,
      "的地区": 10035,
      "线索": 10036,
      "聚会": 10037,
      "良好的": 10038,
      "西洋": 10039,
      "计的": 10040,
      "财务": 10041,
      "身为": 10042,
      "鲸鱼": 10043,
      "也许是": 10044,
      "提供的": 10045,
      "经历的": 10046,
      "找到一个": 10047,
      "几个小时": 10048,
      "你能看到": 10049,
      "成年人": 10050,
      "一颗": 10051,
      "主流": 10052,
      "从这个": 10053,
      "使其": 10054,
      "呼吁": 10055,
      "大声": 10056,
      "大大": 10057,
      "岗位": 10058,
      "市长": 10059,
      "幻想": 10060,
      "捕食": 10061,
      "早晨": 10062,
      "每一天": 10063,
      "界限": 10064,
      "网页": 10065,
      "警告": 10066,
      "设定": 10067,
      "达到了": 10068,
      "道的": 10069,
      "雨林": 10070,
      "骄傲": 10071,
      "现在是": 10072,
      "我们的工作": 10073,
      "最后的": 10074,
      "文化的": 10075,
      "大约有": 10076,
      "最近的": 10077,
      "形式的": 10078,
      "ick": 10079,
      "Chris": 10080,
      "40年": 10081,
      "与众": 10082,
      "个孩子": 10083,
      "也可能": 10084,
      "但她": 10085,
      "六个月": 10086,
      "含量": 10087,
      "在做": 10088,
      "在水": 10089,
      "就业": 10090,
      "底部": 10091,
      "手中": 10092,
      "机场": 10093,
      "歌曲": 10094,
      "毫不": 10095,
      "独裁": 10096,
      "著名": 10097,
      "讲故事": 10098,
      "跟你们": 10099,
      "跳舞": 10100,
      "鼻子": 10101,
      "你们可以看到": 10102,
      "那些人": 10103,
      "选择的": 10104,
      "全球化": 10105,
      "聪明的": 10106,
      "职业生涯": 10107,
      "很长时间": 10108,
      "巧克力": 10109,
      "一万": 10110,
      "大了": 10111,
      "小型": 10112,
      "拜访": 10113,
      "揭示": 10114,
      "搭建": 10115,
      "收到了": 10116,
      "的长": 10117,
      "要做": 10118,
      "酒店": 10119,
      "所以当": 10120,
      "你们能": 10121,
      "的时间里": 10122,
      "社区的": 10123,
      "精神病": 10124,
      "探测器": 10125,
      "加利福": 10126,
      "上来": 10127,
      "包装": 10128,
      "坦白": 10129,
      "她会": 10130,
      "我真": 10131,
      "按钮": 10132,
      "有一次": 10133,
      "界面": 10134,
      "种种": 10135,
      "轨迹": 10136,
      "边境": 10137,
      "验证": 10138,
      "研究了": 10139,
      "每个人的": 10140,
      "不管是": 10141,
      "ell": 10142,
      "摄像机": 10143,
      "代人": 10144,
      "优先": 10145,
      "共鸣": 10146,
      "农村": 10147,
      "对这些": 10148,
      "年纪": 10149,
      "引用": 10150,
      "我再": 10151,
      "潜在的": 10152,
      "爱好": 10153,
      "纯粹": 10154,
      "生活在一个": 10155,
      "当然了": 10156,
      "是什么呢": 10157,
      "做到这一点": 10158,
      "摄影师": 10159,
      "PS": 10160,
      "ip": 10161,
      "一根": 10162,
      "也不能": 10163,
      "产物": 10164,
      "加强": 10165,
      "囚犯": 10166,
      "大麻": 10167,
      "太平": 10168,
      "家公司": 10169,
      "把你的": 10170,
      "捕鱼": 10171,
      "撞击": 10172,
      "未知": 10173,
      "浪漫": 10174,
      "激烈": 10175,
      "用这个": 10176,
      "的大脑": 10177,
      "的病人": 10178,
      "统一": 10179,
      "解读": 10180,
      "误解": 10181,
      "跟我说": 10182,
      "车的": 10183,
      "顺序": 10184,
      "我们不是": 10185,
      "他们已经": 10186,
      "目标是": 10187,
      "不错的": 10188,
      "依赖于": 10189,
      "强烈的": 10190,
      "ey": 10191,
      "到一起": 10192,
      "好吗": 10193,
      "帮忙": 10194,
      "当它": 10195,
      "忍受": 10196,
      "想到的": 10197,
      "振奋": 10198,
      "时常": 10199,
      "武装": 10200,
      "没能": 10201,
      "的经济": 10202,
      "的音乐": 10203,
      "让我们的": 10204,
      "调节": 10205,
      "迈克": 10206,
      "通讯": 10207,
      "青春": 10208,
      "你们会": 10209,
      "完全不同的": 10210,
      "合理的": 10211,
      "了这": 10212,
      "他被": 10213,
      "依据": 10214,
      "协助": 10215,
      "圣经": 10216,
      "太多的": 10217,
      "它不是": 10218,
      "截然": 10219,
      "无所": 10220,
      "的意义": 10221,
      "的区域": 10222,
      "走上": 10223,
      "邪恶": 10224,
      "所以你": 10225,
      "大家分享": 10226,
      "大部分人": 10227,
      "ber": 10228,
      "不到的": 10229,
      "也要": 10230,
      "喜爱": 10231,
      "字体": 10232,
      "总会": 10233,
      "我一": 10234,
      "新生": 10235,
      "本能": 10236,
      "案件": 10237,
      "派对": 10238,
      "疫情": 10239,
      "癌细胞": 10240,
      "的状态": 10241,
      "的态度": 10242,
      "确切": 10243,
      "魅力": 10244,
      "我们真的": 10245,
      "他们被": 10246,
      "他们要": 10247,
      "这些事": 10248,
      "如果你能": 10249,
      "丰富的": 10250,
      "hone": 10251,
      "上百": 10252,
      "下载": 10253,
      "了它": 10254,
      "女权": 10255,
      "就知道": 10256,
      "平常": 10257,
      "很酷": 10258,
      "成人": 10259,
      "数码": 10260,
      "注入": 10261,
      "的唯一": 10262,
      "结尾": 10263,
      "雌性": 10264,
      "面部": 10265,
      "所以他": 10266,
      "的人群": 10267,
      "成为一名": 10268,
      "成功了": 10269,
      "制作的": 10270,
      "围绕着": 10271,
      "65": 10272,
      "你从": 10273,
      "使它": 10274,
      "参观": 10275,
      "土耳": 10276,
      "在那些": 10277,
      "就已经": 10278,
      "床上": 10279,
      "很不": 10280,
      "成一个": 10281,
      "批评": 10282,
      "时尚": 10283,
      "晚餐": 10284,
      "清单": 10285,
      "的钱": 10286,
      "我们说": 10287,
      "他们正在": 10288,
      "非常简单": 10289,
      "那个时候": 10290,
      "解决了": 10291,
      "了一场": 10292,
      "当你在": 10293,
      "很有意思": 10294,
      "这就意味着": 10295,
      "先生们": 10296,
      "土耳其": 10297,
      "也被": 10298,
      "亲爱的": 10299,
      "但我认为": 10300,
      "借助": 10301,
      "减轻": 10302,
      "口袋": 10303,
      "向你": 10304,
      "在上": 10305,
      "实体": 10306,
      "添加": 10307,
      "监禁": 10308,
      "真菌": 10309,
      "随便": 10310,
      "马里": 10311,
      "一个是": 10312,
      "正在发生": 10313,
      "过去了": 10314,
      "进入了": 10315,
      "的大小": 10316,
      "12年": 10317,
      "事物的": 10318,
      ".\"": 10319,
      "iv": 10320,
      "。。": 10321,
      "一百万": 10322,
      "他把": 10323,
      "但它们": 10324,
      "例外": 10325,
      "做个": 10326,
      "全力": 10327,
      "分成": 10328,
      "唱片": 10329,
      "在某些": 10330,
      "我刚": 10331,
      "灯光": 10332,
      "热的": 10333,
      "红色的": 10334,
      "绝大多数": 10335,
      "脸书": 10336,
      "读书": 10337,
      "可以是": 10338,
      "还有其他": 10339,
      "全球的": 10340,
      "变成一个": 10341,
      "有人说": 10342,
      "无人机": 10343,
      "转化为": 10344,
      "Tube": 10345,
      "了他们": 10346,
      "交配": 10347,
      "几何": 10348,
      "副作用": 10349,
      "厌恶": 10350,
      "同步": 10351,
      "坏了": 10352,
      "奶奶": 10353,
      "子和": 10354,
      "尽量": 10355,
      "所带来的": 10356,
      "提议": 10357,
      "特质": 10358,
      "环绕": 10359,
      "碰到": 10360,
      "轮椅": 10361,
      "我们先": 10362,
      "我们该": 10363,
      "一个月": 10364,
      "很多人都": 10365,
      "我是一名": 10366,
      "科技的": 10367,
      "尝试着": 10368,
      "Sh": 10369,
      "下一步": 10370,
      "了什么": 10371,
      "亚当": 10372,
      "单纯": 10373,
      "天花": 10374,
      "奥斯": 10375,
      "富裕": 10376,
      "当代": 10377,
      "放松": 10378,
      "教徒": 10379,
      "更新": 10380,
      "生殖": 10381,
      "用到": 10382,
      "美分": 10383,
      "羞耻": 10384,
      "而你": 10385,
      "蔓延": 10386,
      "除此": 10387,
      "额外": 10388,
      "可以从": 10389,
      "科学研究": 10390,
      "环境的": 10391,
      "我们有了": 10392,
      "共同的": 10393,
      "恐怖主义": 10394,
      "理查德": 10395,
      "仍在": 10396,
      "内在": 10397,
      "受欢迎": 10398,
      "和那些": 10399,
      "就好": 10400,
      "智力": 10401,
      "消化": 10402,
      "的细胞": 10403,
      "看的": 10404,
      "色情": 10405,
      "这还": 10406,
      "甚至在": 10407,
      "解决方法": 10408,
      "资本主义": 10409,
      "加利福尼亚": 10410,
      "Br": 10411,
      "man": 10412,
      "一组": 10413,
      "今晚": 10414,
      "做点": 10415,
      "分数": 10416,
      "发作": 10417,
      "外交": 10418,
      "意愿": 10419,
      "法院": 10420,
      "温暖": 10421,
      "的车": 10422,
      "的核心": 10423,
      "短期": 10424,
      "股票": 10425,
      "花在": 10426,
      "萨斯": 10427,
      "议员": 10428,
      "这块": 10429,
      "我们的身体": 10430,
      "出来了": 10431,
      "政治家": 10432,
      "几乎是": 10433,
      "解释一下": 10434,
      "大概是": 10435,
      "来到这里": 10436,
      "包含了": 10437,
      "银河系": 10438,
      "一把": 10439,
      "一整": 10440,
      "不及": 10441,
      "不如": 10442,
      "与你": 10443,
      "之类": 10444,
      "人种": 10445,
      "任意": 10446,
      "优雅": 10447,
      "做了一个": 10448,
      "发出的": 10449,
      "地震": 10450,
      "家园": 10451,
      "尚未": 10452,
      "开玩笑": 10453,
      "我并不是": 10454,
      "我去了": 10455,
      "拍照": 10456,
      "方块": 10457,
      "的结构": 10458,
      "行了": 10459,
      "我的生活": 10460,
      "并且在": 10461,
      "只是在": 10462,
      "数据库": 10463,
      "让我们看看": 10464,
      "大概有": 10465,
      "不那么": 10466,
      "两周": 10467,
      "六个": 10468,
      "内心的": 10469,
      "几十": 10470,
      "及其": 10471,
      "在这一": 10472,
      "完了": 10473,
      "月份": 10474,
      "有力的": 10475,
      "演化": 10476,
      "的好": 10477,
      "经理": 10478,
      "脊髓": 10479,
      "词语": 10480,
      "黄色": 10481,
      "他们从": 10482,
      "任何事情": 10483,
      "之后的": 10484,
      "ent": 10485,
      "这张图": 10486,
      "相互作用": 10487,
      "大气层": 10488,
      "一层": 10489,
      "一方面": 10490,
      "不上": 10491,
      "丧失": 10492,
      "二的": 10493,
      "冲击": 10494,
      "包围": 10495,
      "去过": 10496,
      "四年": 10497,
      "在海": 10498,
      "大战": 10499,
      "字典": 10500,
      "它看起来": 10501,
      "当前": 10502,
      "成百": 10503,
      "我以为": 10504,
      "更高的": 10505,
      "术语": 10506,
      "潜在": 10507,
      "痴呆": 10508,
      "的帮助": 10509,
      "突变": 10510,
      "绿色的": 10511,
      "许可": 10512,
      "身上的": 10513,
      "这事": 10514,
      "那一刻": 10515,
      "但是他": 10516,
      "神经系统": 10517,
      "一定是": 10518,
      "取得了": 10519,
      "的主题": 10520,
      "太平洋": 10521,
      "26": 10522,
      "ec": 10523,
      "会产生": 10524,
      "惊喜": 10525,
      "把你": 10526,
      "极限": 10527,
      "火山": 10528,
      "的实验": 10529,
      "的理解": 10530,
      "的价值": 10531,
      "诺贝尔": 10532,
      "集合": 10533,
      "首诗": 10534,
      "一个例子": 10535,
      "非常重要的": 10536,
      "我想到": 10537,
      "生活中的": 10538,
      "网络上": 10539,
      "怎样才能": 10540,
      "CEO": 10541,
      "3000": 10542,
      "5000": 10543,
      "为例": 10544,
      "之地": 10545,
      "原型": 10546,
      "哥哥": 10547,
      "察觉": 10548,
      "弄清楚": 10549,
      "得起": 10550,
      "感应": 10551,
      "扭曲": 10552,
      "星星": 10553,
      "的建筑": 10554,
      "盯着": 10555,
      "良好": 10556,
      "让这些": 10557,
      "音符": 10558,
      "高达": 10559,
      "我们都是": 10560,
      "对于那些": 10561,
      "面对的": 10562,
      "一幅": 10563,
      "举例": 10564,
      "会对": 10565,
      "假装": 10566,
      "出售": 10567,
      "制药": 10568,
      "劳动力": 10569,
      "变异": 10570,
      "听见": 10571,
      "客观": 10572,
      "岁了": 10573,
      "当一个": 10574,
      "旧的": 10575,
      "昂贵": 10576,
      "更像": 10577,
      "桌子": 10578,
      "消防": 10579,
      "灯泡": 10580,
      "的使用": 10581,
      "维基": 10582,
      "蔬菜": 10583,
      "要在": 10584,
      "质量的": 10585,
      "都需要": 10586,
      "重大的": 10587,
      "颠覆": 10588,
      "马丁": 10589,
      "麻省": 10590,
      "一个叫": 10591,
      "他们开始": 10592,
      "这个地方": 10593,
      "这些故事": 10594,
      "因为这是": 10595,
      "我们不得不": 10596,
      "投资者": 10597,
      "表现出": 10598,
      "加入了": 10599,
      "很有可能": 10600,
      "运作的": 10601,
      "免费的": 10602,
      "糖尿病": 10603,
      "上述": 10604,
      "业务": 10605,
      "于此": 10606,
      "全是": 10607,
      "共振": 10608,
      "准则": 10609,
      "卢旺": 10610,
      "和一些": 10611,
      "坐着": 10612,
      "家中": 10613,
      "尼斯": 10614,
      "帕特": 10615,
      "我告诉": 10616,
      "战胜": 10617,
      "操控": 10618,
      "的答案": 10619,
      "算是": 10620,
      "管道": 10621,
      "群岛": 10622,
      "翅膀": 10623,
      "而被": 10624,
      "脑部": 10625,
      "英里的": 10626,
      "说是": 10627,
      "诸如": 10628,
      "部队": 10629,
      "不会有": 10630,
      "恐怖分子": 10631,
      "贫民窟": 10632,
      "der": 10633,
      "他还": 10634,
      "十五": 10635,
      "声明": 10636,
      "手里": 10637,
      "抵达": 10638,
      "档案": 10639,
      "用途": 10640,
      "聚在一起": 10641,
      "肤色": 10642,
      "被人": 10643,
      "议会": 10644,
      "说说": 10645,
      "谎言": 10646,
      "通信": 10647,
      "革新": 10648,
      "可以把": 10649,
      "的人数": 10650,
      "为什么呢": 10651,
      "决定了": 10652,
      "不同的方式": 10653,
      "教育的": 10654,
      "不可避免": 10655,
      "突然间": 10656,
      "不可思议的": 10657,
      "看不见": 10658,
      "不停地": 10659,
      "YouTube": 10660,
      "前所未有的": 10661,
      "卢旺达": 10662,
      "\"。": 10663,
      "90年代": 10664,
      "上网": 10665,
      "到我": 10666,
      "和你的": 10667,
      "场合": 10668,
      "多次": 10669,
      "大会": 10670,
      "奥巴马": 10671,
      "媒介": 10672,
      "对着": 10673,
      "导师": 10674,
      "小部分": 10675,
      "市民": 10676,
      "数目": 10677,
      "早期的": 10678,
      "最低": 10679,
      "极大的": 10680,
      "检验": 10681,
      "瑞士": 10682,
      "的土地": 10683,
      "的看法": 10684,
      "积累": 10685,
      "荣幸": 10686,
      "视野": 10687,
      "解答": 10688,
      "触摸": 10689,
      "但是如果你": 10690,
      "就像一个": 10691,
      "更多的人": 10692,
      "经济学": 10693,
      "音乐家": 10694,
      "纽约时报": 10695,
      "看着我": 10696,
      "难以置信的": 10697,
      "涉及到": 10698,
      "西班牙语": 10699,
      "无处不在": 10700,
      "宇航员": 10701,
      "HIV": 10702,
      "com": 10703,
      "一路": 10704,
      "他想": 10705,
      "你如何": 10706,
      "你自己的": 10707,
      "公交": 10708,
      "再来": 10709,
      "发言": 10710,
      "孤立": 10711,
      "尼克": 10712,
      "干什么": 10713,
      "手的": 10714,
      "折叠": 10715,
      "理所": 10716,
      "用一种": 10717,
      "韩国": 10718,
      "高级": 10719,
      "我们有一个": 10720,
      "什么东西": 10721,
      "一些事情": 10722,
      "研究者": 10723,
      "艺术品": 10724,
      "确实是": 10725,
      "?\"": 10726,
      "但那": 10727,
      "修正": 10728,
      "写道": 10729,
      "几次": 10730,
      "在乎": 10731,
      "天赋": 10732,
      "头上": 10733,
      "尔德": 10734,
      "尔特": 10735,
      "就如": 10736,
      "性格": 10737,
      "我做了": 10738,
      "拿起": 10739,
      "摩擦": 10740,
      "整理": 10741,
      "斯蒂": 10742,
      "无知": 10743,
      "深海": 10744,
      "物的": 10745,
      "的电": 10746,
      "的图片": 10747,
      "着陆": 10748,
      "给出": 10749,
      "账户": 10750,
      "跟你": 10751,
      "遵守": 10752,
      "高尔夫": 10753,
      "这个概念": 10754,
      "也是如此": 10755,
      "学校的": 10756,
      "做出了": 10757,
      "通常是": 10758,
      "ry": 10759,
      "一对": 10760,
      "一看": 10761,
      "不良": 10762,
      "但也": 10763,
      "公式": 10764,
      "医师": 10765,
      "发掘": 10766,
      "受过": 10767,
      "史上": 10768,
      "在网上": 10769,
      "夸张": 10770,
      "帮我们": 10771,
      "废弃": 10772,
      "延续": 10773,
      "性质": 10774,
      "恶心": 10775,
      "提出了": 10776,
      "教训": 10777,
      "暗示": 10778,
      "比特": 10779,
      "的改变": 10780,
      "的机器": 10781,
      "而来的": 10782,
      "螺旋": 10783,
      "财政": 10784,
      "钥匙": 10785,
      "一个很": 10786,
      "如果你的": 10787,
      "没有被": 10788,
      "所以这": 10789,
      "接受的": 10790,
      "另一边": 10791,
      "代表了": 10792,
      "Tw": 10793,
      "hn": 10794,
      "从我": 10795,
      "会让": 10796,
      "伦理": 10797,
      "你也许": 10798,
      "写了一": 10799,
      "向大家": 10800,
      "和她的": 10801,
      "啤酒": 10802,
      "失业": 10803,
      "奋斗": 10804,
      "我完全": 10805,
      "我母亲": 10806,
      "挑选": 10807,
      "推测": 10808,
      "有超过": 10809,
      "核武器": 10810,
      "永恒": 10811,
      "消极": 10812,
      "特律": 10813,
      "男女": 10814,
      "目光": 10815,
      "耐心": 10816,
      "我们才": 10817,
      "他们知道": 10818,
      "自己是": 10819,
      "你们都": 10820,
      "相信我": 10821,
      "整个世界": 10822,
      "语言的": 10823,
      "这是一张": 10824,
      "脑海中": 10825,
      "无线电": 10826,
      "iPhone": 10827,
      "ud": 10828,
      "但我想": 10829,
      "典型": 10830,
      "医药": 10831,
      "去了解": 10832,
      "发声": 10833,
      "在中国": 10834,
      "大问题": 10835,
      "射线": 10836,
      "德拉": 10837,
      "我妈妈": 10838,
      "收缩": 10839,
      "景观": 10840,
      "更少": 10841,
      "的疾病": 10842,
      "表格": 10843,
      "视力": 10844,
      "避孕": 10845,
      "所以现在": 10846,
      "需要一个": 10847,
      "然后是": 10848,
      "研究所": 10849,
      "的一件事": 10850,
      "第一步": 10851,
      "小时的": 10852,
      "自由的": 10853,
      "的小孩": 10854,
      "共同点": 10855,
      "org": 10856,
      "对于我来说": 10857,
      "ro": 10858,
      "一会儿": 10859,
      "了他们的": 10860,
      "亲眼": 10861,
      "分歧": 10862,
      "刚果": 10863,
      "十二": 10864,
      "可再生": 10865,
      "在英国": 10866,
      "外科医生": 10867,
      "对我的": 10868,
      "山脉": 10869,
      "开来": 10870,
      "引入": 10871,
      "微型": 10872,
      "心中": 10873,
      "我叫": 10874,
      "斯科": 10875,
      "是一样的": 10876,
      "的决定": 10877,
      "的中心": 10878,
      "着我们": 10879,
      "竞赛": 10880,
      "超市": 10881,
      "这边": 10882,
      "遥远": 10883,
      "额外的": 10884,
      "这个方法": 10885,
      "可以帮助": 10886,
      "你的身体": 10887,
      "研究表明": 10888,
      "如果你是": 10889,
      "年前的": 10890,
      "为之": 10891,
      "协会": 10892,
      "去找": 10893,
      "品质": 10894,
      "失明": 10895,
      "好莱坞": 10896,
      "尔兰": 10897,
      "帮你": 10898,
      "当做": 10899,
      "很高兴": 10900,
      "汤姆": 10901,
      "目的是": 10902,
      "肢体": 10903,
      "那是在": 10904,
      "非裔": 10905,
      "如果我们可以": 10906,
      "的人民": 10907,
      "影响到": 10908,
      "完全是": 10909,
      "非洲人": 10910,
      "每个人都有": 10911,
      "你知道的": 10912,
      "三个月": 10913,
      "印度的": 10914,
      "独立的": 10915,
      "摄像头": 10916,
      "至关重要": 10917,
      "外星人": 10918,
      "这样一来": 10919,
      "光的": 10920,
      "到现在": 10921,
      "可归": 10922,
      "向上": 10923,
      "地表": 10924,
      "实质": 10925,
      "将是": 10926,
      "居住在": 10927,
      "岁的孩子": 10928,
      "弯曲": 10929,
      "排除": 10930,
      "方程": 10931,
      "无需": 10932,
      "有益": 10933,
      "牛奶": 10934,
      "的头": 10935,
      "蛋糕": 10936,
      "那一": 10937,
      "阴影": 10938,
      "频繁": 10939,
      "我们相信": 10940,
      "人们可以": 10941,
      "的一半": 10942,
      "了一项": 10943,
      "超过了": 10944,
      "观众笑声": 10945,
      "到底是什么": 10946,
      "拍摄的": 10947,
      "疯狂的": 10948,
      "CR": 10949,
      "ff": 10950,
      "与其他": 10951,
      "了他的": 10952,
      "出色的": 10953,
      "姿势": 10954,
      "密切": 10955,
      "尼尔": 10956,
      "德里": 10957,
      "指示": 10958,
      "无家": 10959,
      "晶体": 10960,
      "比我": 10961,
      "漂浮": 10962,
      "立法": 10963,
      "给它": 10964,
      "路线": 10965,
      "迹象": 10966,
      "逮捕": 10967,
      "酒吧": 10968,
      "这是什么": 10969,
      "历史的": 10970,
      "令人惊讶": 10971,
      "兄弟姐妹": 10972,
      "21世纪": 10973,
      "栖息地": 10974,
      "3个": 10975,
      "上百万": 10976,
      "两天": 10977,
      "亚历": 10978,
      "从根本上": 10979,
      "使他们": 10980,
      "侵犯": 10981,
      "冠军": 10982,
      "卡路": 10983,
      "去理解": 10984,
      "古代": 10985,
      "听上去": 10986,
      "和水": 10987,
      "垂直": 10988,
      "姐姐": 10989,
      "室内": 10990,
      "带上": 10991,
      "我可": 10992,
      "挽救": 10993,
      "数十亿": 10994,
      "是人类": 10995,
      "暂停": 10996,
      "树林": 10997,
      "步行": 10998,
      "玩意": 10999,
      "皮质": 11000,
      "监测": 11001,
      "西亚": 11002,
      "论者": 11003,
      "这太": 11004,
      "随意": 11005,
      "我们只": 11006,
      "不是在": 11007,
      "所有东西": 11008,
      "社会中": 11009,
      "机器人的": 11010,
      "拥有了": 11011,
      "建立在": 11012,
      "获得的": 11013,
      "温室气体": 11014,
      "PR": 11015,
      "qu": 11016,
      "一所": 11017,
      "以上的": 11018,
      "体积": 11019,
      "全面": 11020,
      "同理": 11021,
      "哈顿": 11022,
      "廉价": 11023,
      "强度": 11024,
      "患上": 11025,
      "愉快": 11026,
      "把我的": 11027,
      "有色": 11028,
      "杀害": 11029,
      "极为": 11030,
      "清醒": 11031,
      "硬件": 11032,
      "缺失": 11033,
      "我们发现了": 11034,
      "事实证明": 11035,
      "了一点": 11036,
      "变化的": 11037,
      "成功地": 11038,
      "文化中": 11039,
      "它是一种": 11040,
      "我很高兴": 11041,
      "很棒的": 11042,
      "幸存者": 11043,
      "80年代": 11044,
      "二战": 11045,
      "人生的": 11046,
      "仇恨": 11047,
      "会不会": 11048,
      "偶尔": 11049,
      "充斥": 11050,
      "势力": 11051,
      "卡罗": 11052,
      "叙述": 11053,
      "史以来": 11054,
      "塞尔": 11055,
      "底特律": 11056,
      "我刚刚": 11057,
      "损害": 11058,
      "提问": 11059,
      "有毒": 11060,
      "根源": 11061,
      "正是我们": 11062,
      "爱尔兰": 11063,
      "病例": 11064,
      "硅谷": 11065,
      "我们使用": 11066,
      "他们就会": 11067,
      "联系在一起": 11068,
      "价值的": 11069,
      "采取行动": 11070,
      "实在是": 11071,
      "比方说": 11072,
      "无家可归": 11073,
      "70年代": 11074,
      "不必": 11075,
      "交给": 11076,
      "参考": 11077,
      "和我们的": 11078,
      "大海": 11079,
      "它为": 11080,
      "带给": 11081,
      "我刚才": 11082,
      "战士": 11083,
      "打交": 11084,
      "撒哈拉": 11085,
      "明智": 11086,
      "暴力的": 11087,
      "曼哈顿": 11088,
      "橄榄": 11089,
      "没办法": 11090,
      "潜能": 11091,
      "特权": 11092,
      "的语言": 11093,
      "被称作": 11094,
      "要想": 11095,
      "跑步": 11096,
      "车辆": 11097,
      "这正是": 11098,
      "这些孩子": 11099,
      "这些照片": 11100,
      "已经开始": 11101,
      "令人兴奋": 11102,
      "制造出": 11103,
      "ine": 11104,
      "主要是": 11105,
      "ep": 11106,
      "也无法": 11107,
      "书中": 11108,
      "了起来": 11109,
      "了一下": 11110,
      "促使": 11111,
      "出生的": 11112,
      "加快": 11113,
      "周末": 11114,
      "培育": 11115,
      "大西洋": 11116,
      "天体": 11117,
      "对应": 11118,
      "对那些": 11119,
      "愿景": 11120,
      "新型": 11121,
      "方形": 11122,
      "旅游": 11123,
      "沉浸": 11124,
      "的就是": 11125,
      "的科学": 11126,
      "能不能": 11127,
      "要素": 11128,
      "见面": 11129,
      "轻易": 11130,
      "这三个": 11131,
      "通往": 11132,
      "重塑": 11133,
      "防御": 11134,
      "非政府": 11135,
      "音频": 11136,
      "顶端": 11137,
      "但是现在": 11138,
      "都是在": 11139,
      "任何时候": 11140,
      "完全不同": 11141,
      "真正地": 11142,
      "看起来很": 11143,
      "电子游戏": 11144,
      "人口的": 11145,
      "“。": 11146,
      "不通": 11147,
      "之旅": 11148,
      "交叉": 11149,
      "他从": 11150,
      "修改": 11151,
      "像个": 11152,
      "加密": 11153,
      "去到": 11154,
      "听着": 11155,
      "好玩": 11156,
      "并未": 11157,
      "底下": 11158,
      "引领": 11159,
      "性行为": 11160,
      "慢性": 11161,
      "我经常": 11162,
      "推荐": 11163,
      "无穷": 11164,
      "洗手": 11165,
      "滥用": 11166,
      "热量": 11167,
      "群人": 11168,
      "遭到": 11169,
      "部长": 11170,
      "飓风": 11171,
      "那么我们": 11172,
      "有一位": 11173,
      "195": 11174,
      "学习的": 11175,
      "我会说": 11176,
      "智能手机": 11177,
      "哥伦比亚": 11178,
      "CO": 11179,
      "ma": 11180,
      "两个人": 11181,
      "乐意": 11182,
      "也同样": 11183,
      "伤口": 11184,
      "克拉": 11185,
      "几百万": 11186,
      "即兴": 11187,
      "名单": 11188,
      "吸烟": 11189,
      "善于": 11190,
      "在意": 11191,
      "在世界": 11192,
      "在整个": 11193,
      "季节": 11194,
      "它就会": 11195,
      "将他们": 11196,
      "居然": 11197,
      "强制": 11198,
      "总之": 11199,
      "手工": 11200,
      "提出的": 11201,
[...]
