{
  "version": "1.0",
  "truncation": null,
  "padding": null,
  "added_tokens": [
    {
      "id": 0,
      "content": "<PAD>",
      "single_word": false,
      "lstrip": false,
      "rstrip": false,
      "normalized": false,
      "special": true
    },
    {
      "id": 1,
      "content": "<UNK>",
      "single_word": false,
      "lstrip": false,
      "rstrip": false,
      "normalized": false,
      "special": true
    },
    {
      "id": 2,
      "content": "<BOS>",
      "single_word": false,
      "lstrip": false,
      "rstrip": false,
      "normalized": false,
      "special": true
    },
    {
      "id": 3,
      "content": "<EOS>",
      "single_word": false,
      "lstrip": false,
      "rstrip": false,
      "normalized": false,
      "special": true
    }
  ],
  "normalizer": null,
  "pre_tokenizer": {
    "type": "Whitespace"
  },
  "post_processor": null,
  "decoder": null,
  "model": {
    "type": "BPE",
    "dropout": null,
    "unk_token": "<UNK>",
    "continuing_subword_prefix": null,
    "end_of_word_suffix": null,
    "fuse_unk": false,
    "byte_fallback": false,
    "ignore_merges": false,
    "vocab": {
      "<PAD>": 0,
      "<UNK>": 1,
      "<BOS>": 2,
      "<EOS>": 3,
      "!": 4,
      "\"": 5,
      "#": 6,
      "$": 7,
      "%": 8,
      "&": 9,
      "'": 10,
      "(": 11,
      ")": 12,
      "*": 13,
      "+": 14,
      ",": 15,
      "-": 16,
      ".": 17,
      "/": 18,
      "0": 19,
      "1": 20,
      "2": 21,
      "3": 22,
      "4": 23,
      "5": 24,
      "6": 25,
      "7": 26,
      "8": 27,
      "9": 28,
      ":": 29,
      ";": 30,
      "<": 31,
      "=": 32,
      ">": 33,
      "?": 34,
      "@": 35,
      "A": 36,
      "B": 37,
      "C": 38,
      "D": 39,
      "E": 40,
      "F": 41,
      "G": 42,
      "H": 43,
      "I": 44,
      "J": 45,
      "K": 46,
      "L": 47,
      "M": 48,
      "N": 49,
      "O": 50,
      "P": 51,
      "Q": 52,
      "R": 53,
      "S": 54,
      "T": 55,
      "U": 56,
      "V": 57,
      "W": 58,
      "X": 59,
      "Y": 60,
      "Z": 61,
      "[": 62,
      "\\": 63,
      "]": 64,
      "^": 65,
      "_": 66,
      "a": 67,
      "b": 68,
      "c": 69,
      "d": 70,
      "e": 71,
      "f": 72,
      "g": 73,
      "h": 74,
      "i": 75,
      "j": 76,
      "k": 77,
      "l": 78,
      "m": 79,
      "n": 80,
      "o": 81,
      "p": 82,
      "q": 83,
      "r": 84,
      "s": 85,
      "t": 86,
      "u": 87,
      "v": 88,
      "w": 89,
      "x": 90,
      "y": 91,
      "z": 92,
      "": 93,
      "": 94,
      "": 95,
      "¡": 96,
      "¢": 97,
      "£": 98,
      "²": 99,
      "¹": 100,
      "º": 101,
      "¿": 102,
      "À": 103,
      "Á": 104,
      "Å": 105,
      "Ç": 106,
      "È": 107,
      "É": 108,
      "Ö": 109,
      "Ü": 110,
      "à": 111,
      "á": 112,
      "â": 113,
      "ã": 114,
      "ä": 115,
      "æ": 116,
      "ç": 117,
      "è": 118,
      "é": 119,
      "ê": 120,
      "ë": 121,
      "ì": 122,
      "í": 123,
      "î": 124,
      "ï": 125,
      "ð": 126,
      "ñ": 127,
      "ò": 128,
      "ó": 129,
      "ô": 130,
      "ö": 131,
      "ø": 132,
      "ù": 133,
      "ú": 134,
      "û": 135,
      "ü": 136,
      "ā": 137,
      "Ă": 138,
      "ć": 139,
      "Č": 140,
      "ē": 141,
      "ě": 142,
      "ğ": 143,
      "ī": 144,
      "ı": 145,
      "Ō": 146,
      "ō": 147,
      "š": 148,
      "Ť": 149,
      "ū": 150,
      "ǐ": 151,
      "ǒ": 152,
      "ǔ": 153,
      "ʾ": 154,
      "˚": 155,
      "̀": 156,
      "π": 157,
      "τ": 158,
      "В": 159,
      "ы": 160,
      "ة": 161,
      "د": 162,
      "س": 163,
      "ص": 164,
      "ط": 165,
      "ع": 166,
      "ك": 167,
      "ل": 168,
      "م": 169,
      "ن": 170,
      "ه": 171,
      "و": 172,
      "ي": 173,
      "प": 174,
      "म": 175,
      "र": 176,
      "े": 177,
      "्": 178,
      "ย": 179,
      "ร": 180,
      "อ": 181,
      "่": 182,
      "ḥ": 183,
      "ẹ": 184,
      "ọ": 185,
      "‎": 186,
      "–": 187,
      "—": 188,
      "‘": 189,
      "’": 190,
      "“": 191,
      "”": 192,
      "•": 193,
      "…": 194,
      "⁰": 195,
      "€": 196,
      "⅔": 197,
      "∇": 198,
      "♪": 199,
      "♫": 200,
      "中": 201,
      "会": 202,
      "你": 203,
      "吗": 204,
      "好": 205,
      "文": 206,
      "葱": 207,
      "说": 208,
      "送": 209,
      "？": 210,
      "th": 211,
      "in": 212,
      "the": 213,
      "an": 214,
      "re": 215,
      "at": 216,
      "ou": 217,
      "on": 218,
      "er": 219,
      "to": 220,
      "is": 221,
      "en": 222,
      "al": 223,
      "ing": 224,
      "es": 225,
      "or": 226,
      "it": 227,
      "and": 228,
      "of": 229,
      "ed": 230,
      "ar": 231,
      "as": 232,
      "le": 233,
      "se": 234,
      "st": 235,
      "that": 236,
      "om": 237,
      "ic": 238,
      "he": 239,
      "we": 240,
      "ve": 241,
      "you": 242,
      "be": 243,
      "ow": 244,
      "ly": 245,
      "ac": 246,
      "ion": 247,
      "nd": 248,
      "wh": 249,
      "ha": 250,
      "ent": 251,
      "ll": 252,
      "me": 253,
      "ut": 254,
      "ld": 255,
      "li": 256,
      "ver": 257,
      "gh": 258,
      "ot": 259,
      "ay": 260,
      "ch": 261,
      "id": 262,
      "for": 263,
      "ab": 264,
      "ro": 265,
      "And": 266,
      "are": 267,
      "ke": 268,
      "wi": 269,
      "this": 270,
      "ge": 271,
      "out": 272,
      "lo": 273,
      "ter": 274,
      "pe": 275,
      "au": 276,
      "ir": 277,
      "all": 278,
      "ne": 279,
      "mo": 280,
      "was": 281,
      "ad": 282,
      "so": 283,
      "ri": 284,
      "ce": 285,
      "do": 286,
      "ome": 287,
      "us": 288,
      "fe": 289,
      "im": 290,
      "go": 291,
      "with": 292,
      "op": 293,
      "our": 294,
      "one": 295,
      "ally": 296,
      "ct": 297,
      "have": 298,
      "can": 299,
      "they": 300,
      "de": 301,
      "ation": 302,
      "if": 303,
      "am": 304,
      "wor": 305,
      "con": 306,
      "su": 307,
      "te": 308,
      "The": 309,
      "ght": 310,
      "pl": 311,
      "ther": 312,
      "tr": 313,
      "thing": 314,
      "ould": 315,
      "ant": 316,
      "com": 317,
      "what": 318,
      "fr": 319,
      "per": 320,
      "un": 321,
      "So": 322,
      "ex": 323,
      "now": 324,
      "very": 325,
      "not": 326,
      "--": 327,
      "Th": 328,
      "act": 329,
      "pro": 330,
      "about": 331,
      "ul": 332,
      "my": 333,
      "ur": 334,
      "art": 335,
      "ust": 336,
      "ol": 337,
      "od": 338,
      "il": 339,
      "some": 340,
      "ause": 341,
      "ma": 342,
      "ess": 343,
      "here": 344,
      "like": 345,
      "ate": 346,
      "ity": 347,
      "ople": 348,
      "ig": 349,
      "We": 350,
      "sh": 351,
      "ind": 352,
      "people": 353,
      "ain": 354,
      "there": 355,
      "est": 356,
      "from": 357,
      "res": 358,
      "but": 359,
      "ive": 360,
      "um": 361,
      "It": 362,
      "qu": 363,
      "po": 364,
      "ag": 365,
      "king": 366,
      "way": 367,
      "up": 368,
      "ap": 369,
      "no": 370,
      "ci": 371,
      "ear": 372,
      "just": 373,
      "sa": 374,
      "ers": 375,
      "But": 376,
      "any": 377,
      "bec": 378,
      "know": 379,
      "ist": 380,
      "them": 381,
      "gr": 382,
      "ti": 383,
      "ide": 384,
      "ill": 385,
      "get": 386,
      "by": 387,
      "ok": 388,
      "who": 389,
      "red": 390,
      "more": 391,
      "et": 392,
      "ound": 393,
      "see": 394,
      "thin": 395,
      "these": 396,
      "your": 397,
      "nt": 398,
      "ment": 399,
      "co": 400,
      "end": 401,
      "when": 402,
      "other": 403,
      "their": 404,
      "had": 405,
      "ure": 406,
      "year": 407,
      "ine": 408,
      "ort": 409,
      "sp": 410,
      "were": 411,
      "because": 412,
      "ies": 413,
      "would": 414,
      "ich": 415,
      "Wh": 416,
      "ack": 417,
      "how": 418,
      "fo": 419,
      "going": 420,
      "ev": 421,
      "ans": 422,
      "ous": 423,
      "think": 424,
      "tor": 425,
      "em": 426,
      "pp": 427,
      "augh": 428,
      "ard": 429,
      "time": 430,
      "ach": 431,
      "work": 432,
      "ble": 433,
      "ast": 434,
      "want": 435,
      "own": 436,
      "aughter": 437,
      "ta": 438,
      "day": 439,
      "which": 440,
      "00": 441,
      "ace": 442,
      ".\"": 443,
      "ions": 444,
      "pr": 445,
      "iz": 446,
      "age": 447,
      "ple": 448,
      "really": 449,
      "iv": 450,
      "br": 451,
      "ough": 452,
      "reat": 453,
      "el": 454,
      "has": 455,
      "able": 456,
      "world": 457,
      "ually": 458,
      "Laughter": 459,
      "where": 460,
      "every": 461,
      "ong": 462,
      "und": 463,
      "could": 464,
      "ight": 465,
      "don": 466,
      "into": 467,
      "will": 468,
      "ence": 469,
      "This": 470,
      "You": 471,
      "then": 472,
      "cent": 473,
      "ose": 474,
      "In": 475,
      "ical": 476,
      "ild": 477,
      "did": 478,
      "ph": 479,
      "bo": 480,
      "say": 481,
      "years": 482,
      "sel": 483,
      "than": 484,
      "dis": 485,
      "need": 486,
      "new": 487,
      "right": 488,
      "look": 489,
      "ice": 490,
      "most": 491,
      "part": 492,
      "ite": 493,
      "chan": 494,
      "actually": 495,
      "his": 496,
      "been": 497,
      "wo": 498,
      "dif": 499,
      "things": 500,
      "make": 501,
      "over": 502,
      "itt": 503,
      "bu": 504,
      "form": 505,
      "ie": 506,
      "They": 507,
      "Now": 508,
      "log": 509,
      "ree": 510,
      "bl": 511,
      "irst": 512,
      "str": 513,
      "sy": 514,
      "start": 515,
      "cl": 516,
      "mu": 517,
      "fere": 518,
      "happ": 519,
      "put": 520,
      "her": 521,
      "ves": 522,
      "ame": 523,
      "cou": 524,
      "try": 525,
      "ass": 526,
      "back": 527,
      "those": 528,
      "call": 529,
      "ud": 530,
      "int": 531,
      "tal": 532,
      "she": 533,
      "af": 534,
      "ep": 535,
      "also": 536,
      "spe": 537,
      "cr": 538,
      "ign": 539,
      "ens": 540,
      "first": 541,
      "ho": 542,
      "two": 543,
      "something": 544,
      "ber": 545,
      "even": 546,
      "pre": 547,
      "ater": 548,
      "ss": 549,
      "ving": 550,
      "differe": 551,
      "ia": 552,
      "imp": 553,
      "bet": 554,
      "much": 555,
      "life": 556,
      "He": 557,
      "bod": 558,
      "gu": 559,
      "said": 560,
      "ty": 561,
      "got": 562,
      "ated": 563,
      "des": 564,
      "only": 565,
      "cre": 566,
      "ck": 567,
      "hum": 568,
      "many": 569,
      "gen": 570,
      "That": 571,
      "thr": 572,
      "its": 573,
      "cho": 574,
      "ob": 575,
      "ish": 576,
      "comm": 577,
      "lot": 578,
      "ful": 579,
      "under": 580,
      "tell": 581,
      "kind": 582,
      "lear": 583,
      "real": 584,
      "ittle": 585,
      "What": 586,
      "little": 587,
      "ade": 588,
      "body": 589,
      "di": 590,
      "self": 591,
      "fore": 592,
      "Ap": 593,
      "cont": 594,
      "take": 595,
      "use": 596,
      "cess": 597,
      "plause": 598,
      "ect": 599,
      "Applause": 600,
      "stand": 601,
      "through": 602,
      "man": 603,
      "read": 604,
      "uct": 605,
      "ations": 606,
      "different": 607,
      "come": 608,
      "pres": 609,
      "ase": 610,
      "pt": 611,
      "ms": 612,
      "ict": 613,
      "does": 614,
      "ue": 615,
      "tory": 616,
      "hi": 617,
      "ents": 618,
      "down": 619,
      "ick": 620,
      "being": 621,
      "good": 622,
      "around": 623,
      "off": 624,
      "ank": 625,
      "son": 626,
      "ning": 627,
      "let": 628,
      "tur": 629,
      "ting": 630,
      "ord": 631,
      "als": 632,
      "aw": 633,
      "vi": 634,
      "ance": 635,
      "car": 636,
      "stem": 637,
      "side": 638,
      "sur": 639,
      "med": 640,
      "ak": 641,
      "ces": 642,
      "ought": 643,
      "There": 644,
      "ip": 645,
      "wr": 646,
      "hel": 647,
      "rest": 648,
      "may": 649,
      "same": 650,
      "sto": 651,
      "ary": 652,
      "human": 653,
      "lect": 654,
      "ef": 655,
      "tim": 656,
      "system": 657,
      "ower": 658,
      "long": 659,
      "sci": 660,
      "proble": 661,
      "ways": 662,
      "show": 663,
      "If": 664,
      "ser": 665,
      "ask": 666,
      "tech": 667,
      "fa": 668,
      "fl": 669,
      "happen": 670,
      "mar": 671,
      "vers": 672,
      "comp": 673,
      "inter": 674,
      "less": 675,
      "exper": 676,
      "ible": 677,
      "ys": 678,
      "ved": 679,
      "sol": 680,
      "dr": 681,
      "min": 682,
      "fect": 683,
      "col": 684,
      "child": 685,
      "big": 686,
      "mer": 687,
      "soci": 688,
      "ries": 689,
      "find": 690,
      "ave": 691,
      "cer": 692,
      "quest": 693,
      "ities": 694,
      "stud": 695,
      "ject": 696,
      "cond": 697,
      "wom": 698,
      "called": 699,
      "ile": 700,
      "ren": 701,
      "feel": 702,
      "help": 703,
      "inv": 704,
      "ts": 705,
      "build": 706,
      "ons": 707,
      "fact": 708,
      "well": 709,
      "fin": 710,
      "three": 711,
      "Well": 712,
      "talk": 713,
      "great": 714,
      "ition": 715,
      "sing": 716,
      "percent": 717,
      "uc": 718,
      "xt": 719,
      "doing": 720,
      "ics": 721,
      "made": 722,
      "ically": 723,
      "ating": 724,
      "again": 725,
      "sc": 726,
      "logy": 727,
      "ial": 728,
      "change": 729,
      "mon": 730,
      "sm": 731,
      "cour": 732,
      "dec": 733,
      "light": 734,
      "ars": 735,
      "person": 736,
      "ual": 737,
      "ates": 738,
      "bit": 739,
      "alth": 740,
      "after": 741,
      "should": 742,
      "turn": 743,
      "ath": 744,
      "import": 745,
      "ever": 746,
      "why": 747,
      "ger": 748,
      "arch": 749,
      "old": 750,
      "illion": 751,
      "didn": 752,
      "ra": 753,
      "play": 754,
      "ily": 755,
      "prod": 756,
      "inte": 757,
      "power": 758,
      "high": 759,
      "plan": 760,
      "used": 761,
      "gan": 762,
      "sha": 763,
      "times": 764,
      "mem": 765,
      "bas": 766,
      "ists": 767,
      "might": 768,
      "today": 769,
      "creat": 770,
      "brain": 771,
      "him": 772,
      "Be": 773,
      "commun": 774,
      "techno": 775,
      "fam": 776,
      "ire": 777,
      "Thank": 778,
      "mean": 779,
      "ven": 780,
      "20": 781,
      "Ch": 782,
      "pos": 783,
      "ise": 784,
      "understand": 785,
      "important": 786,
      "ize": 787,
      "mat": 788,
      "ond": 789,
      "before": 790,
      "point": 791,
      "ps": 792,
      "ility": 793,
      "place": 794,
      "thought": 795,
      "exam": 796,
      "still": 797,
      "icul": 798,
      "pu": 799,
      "better": 800,
      "?\"": 801,
      "cul": 802,
      "eng": 803,
      "each": 804,
      "beli": 805,
      "When": 806,
      "started": 807,
      "never": 808,
      "pol": 809,
      "cur": 810,
      "bi": 811,
      "gether": 812,
      "too": 813,
      "water": 814,
      "idea": 815,
      "hand": 816,
      "att": 817,
      "last": 818,
      "chool": 819,
      "ry": 820,
      "ors": 821,
      "inst": 822,
      "land": 823,
      "together": 824,
      "found": 825,
      "num": 826,
      "design": 827,
      "kes": 828,
      "care": 829,
      "les": 830,
      "give": 831,
      "ica": 832,
      "ness": 833,
      "story": 834,
      "bab": 835,
      "imag": 836,
      "few": 837,
      "000": 838,
      "vir": 839,
      "ese": 840,
      "learn": 841,
      "problem": 842,
      "ution": 843,
      "another": 844,
      "went": 845,
      "pat": 846,
      "cell": 847,
      "sim": 848,
      "count": 849,
      "poss": 850,
      "coun": 851,
      "school": 852,
      "vis": 853,
      ",\"": 854,
      "ween": 855,
      "ress": 856,
      "ited": 857,
      "cy": 858,
      "tri": 859,
      "..": 860,
      "interest": 861,
      "cause": 862,
      "rel": 863,
      "velo": 864,
      "dat": 865,
      "women": 866,
      "ward": 867,
      "az": 868,
      "between": 869,
      "gy": 870,
      "kid": 871,
      "av": 872,
      "word": 873,
      "next": 874,
      "ago": 875,
      "che": 876,
      "comple": 877,
      "came": 878,
      "ks": 879,
      "clo": 880,
      "health": 881,
      "19": 882,
      "nat": 883,
      "love": 884,
      "question": 885,
      "10": 886,
      "ense": 887,
      "ian": 888,
      "ix": 889,
      "trans": 890,
      "ized": 891,
      "course": 892,
      "ng": 893,
      "ug": 894,
      "Amer": 895,
      "data": 896,
      "experi": 897,
      "ters": 898,
      "lim": 899,
      "par": 900,
      "develo": 901,
      "comes": 902,
      "ff": 903,
      "mal": 904,
      "ures": 905,
      "live": 906,
      "far": 907,
      "ner": 908,
      "ship": 909,
      "led": 910,
      "small": 911,
      "grow": 912,
      "mom": 913,
      "ib": 914,
      "gener": 915,
      "mind": 916,
      "room": 917,
      "move": 918,
      "hard": 919,
      "ten": 920,
      "net": 921,
      "set": 922,
      "port": 923,
      "bal": 924,
      "chang": 925,
      "example": 926,
      "ings": 927,
      "oking": 928,
      "cor": 929,
      "fri": 930,
      "children": 931,
      "St": 932,
      "home": 933,
      "technology": 934,
      "head": 935,
      "develop": 936,
      "bre": 937,
      "ments": 938,
      "mis": 939,
      "air": 940,
      "ls": 941,
      "selves": 942,
      "book": 943,
      "How": 944,
      "ross": 945,
      "formation": 946,
      "doesn": 947,
      "ious": 948,
      "sk": 949,
      "lt": 950,
      "ific": 951,
      "always": 952,
      "sure": 953,
      "using": 954,
      "cap": 955,
      "ins": 956,
      "lar": 957,
      "search": 958,
      "friend": 959,
      "away": 960,
      "face": 961,
      "pri": 962,
      "second": 963,
      "ative": 964,
      "reas": 965,
      "wanted": 966,
      "uni": 967,
      "eve": 968,
      "giv": 969,
      "cept": 970,
      "ft": 971,
      "four": 972,
      "ident": 973,
      "As": 974,
      "working": 975,
      "ational": 976,
      "ism": 977,
      "lead": 978,
      "bot": 979,
      "vie": 980,
      "add": 981,
      "line": 982,
      "aut": 983,
      "looking": 984,
      "eas": 985,
      "comput": 986,
      "iness": 987,
      "Un": 988,
      "ote": 989,
      "reg": 990,
      "atch": 991,
      "sort": 992,
      "low": 993,
      "exp": 994,
      "ener": 995,
      "men": 996,
      "means": 997,
      "pect": 998,
      "Because": 999,
      "done": 1000,
      "believe": 1001,
      "conom": 1002,
      "For": 1003,
      "organ": 1004,
      "resp": 1005,
      "oney": 1006,
      "fu": 1007,
      "ones": 1008,
      "fut": 1009,
      "run": 1010,
      "bus": 1011,
      "ris": 1012,
      "country": 1013,
      "aph": 1014,
      "trying": 1015,
      "ction": 1016,
      "million": 1017,
      "Afr": 1018,
      "My": 1019,
      "process": 1020,
      "aces": 1021,
      "information": 1022,
      "econom": 1023,
      "ready": 1024,
      "cal": 1025,
      "making": 1026,
      "ird": 1027,
      "create": 1028,
      "tain": 1029,
      "mus": 1030,
      "sub": 1031,
      "No": 1032,
      "wal": 1033,
      "cri": 1034,
      "val": 1035,
      "conne": 1036,
      "war": 1037,
      "publ": 1038,
      "ital": 1039,
      "space": 1040,
      "become": 1041,
      "whole": 1042,
      "number": 1043,
      "ah": 1044,
      "enough": 1045,
      "future": 1046,
      "tors": 1047,
      "thinking": 1048,
      "coming": 1049,
      "ang": 1050,
      "while": 1051,
      "os": 1052,
      "bor": 1053,
      "food": 1054,
      "job": 1055,
      "ines": 1056,
      "open": 1057,
      "ory": 1058,
      "best": 1059,
      "dri": 1060,
      "everything": 1061,
      "She": 1062,
      "speci": 1063,
      "cle": 1064,
      "ute": 1065,
      "pret": 1066,
      "grou": 1067,
      "maybe": 1068,
      "possible": 1069,
      "gover": 1070,
      "struct": 1071,
      "five": 1072,
      "social": 1073,
      "money": 1074,
      "ices": 1075,
      "product": 1076,
      "elect": 1077,
      "top": 1078,
      "These": 1079,
      "ced": 1080,
      "govern": 1081,
      "ican": 1082,
      "tre": 1083,
      "cus": 1084,
      "took": 1085,
      "sign": 1086,
      "without": 1087,
      "fun": 1088,
      "hal": 1089,
      "pare": 1090,
      "One": 1091,
      "kids": 1092,
      "left": 1093,
      "leg": 1094,
      "glo": 1095,
      "allow": 1096,
      "keep": 1097,
      "lives": 1098,
      "lan": 1099,
      "Ne": 1100,
      "anim": 1101,
      "pa": 1102,
      "blo": 1103,
      "nce": 1104,
      "getting": 1105,
      "ey": 1106,
      "month": 1107,
      "energy": 1108,
      "member": 1109,
      "50": 1110,
      "beg": 1111,
      "gest": 1112,
      "family": 1113,
      "teach": 1114,
      "ately": 1115,
      "doll": 1116,
      "ouse": 1117,
      "scient": 1118,
      "ket": 1119,
      "iting": 1120,
      "llow": 1121,
      "ead": 1122,
      "ants": 1123,
      "gre": 1124,
      "planet": 1125,
      "pict": 1126,
      "contro": 1127,
      "phys": 1128,
      "tern": 1129,
      "ability": 1130,
      "view": 1131,
      "research": 1132,
      "sound": 1133,
      "ount": 1134,
      "probab": 1135,
      "sion": 1136,
      "supp": 1137,
      "stu": 1138,
      "whe": 1139,
      "wa": 1140,
      "such": 1141,
      "wee": 1142,
      "pop": 1143,
      "graph": 1144,
      "told": 1145,
      "answ": 1146,
      "oc": 1147,
      "moment": 1148,
      "pass": 1149,
      "across": 1150,
      "ying": 1151,
      "science": 1152,
      "ith": 1153,
      "vide": 1154,
      "Let": 1155,
      "ince": 1156,
      "project": 1157,
      "ash": 1158,
      "sense": 1159,
      "gn": 1160,
      "gram": 1161,
      "issu": 1162,
      "unt": 1163,
      "cu": 1164,
      "experience": 1165,
      "half": 1166,
      "talking": 1167,
      "jo": 1168,
      "uring": 1169,
      "ering": 1170,
      "mother": 1171,
      "prof": 1172,
      "often": 1173,
      "makes": 1174,
      "building": 1175,
      "ety": 1176,
      "ention": 1177,
      "pain": 1178,
      "fort": 1179,
      "present": 1180,
      "fac": 1181,
      "hour": 1182,
      "mor": 1183,
      "effect": 1184,
      "young": 1185,
      "probably": 1186,
      "list": 1187,
      "happened": 1188,
      "polit": 1189,
      "order": 1190,
      "else": 1191,
      "connect": 1192,
      "city": 1193,
      "ural": 1194,
      "fig": 1195,
      "ili": 1196,
      "ran": 1197,
      "asked": 1198,
      "countries": 1199,
      "pretty": 1200,
      "mode": 1201,
      "vel": 1202,
      "someone": 1203,
      "case": 1204,
      "tru": 1205,
      "having": 1206,
      "reason": 1207,
      "mach": 1208,
      "saw": 1209,
      "beaut": 1210,
      "community": 1211,
      "ided": 1212,
      "ink": 1213,
      "pie": 1214,
      "viron": 1215,
      "nor": 1216,
      "single": 1217,
      "anything": 1218,
      "tra": 1219,
      "hope": 1220,
      "equ": 1221,
      "living": 1222,
      "sit": 1223,
      "ality": 1224,
      "seen": 1225,
      "quite": 1226,
      "Some": 1227,
      "inc": 1228,
      "char": 1229,
      "business": 1230,
      "treat": 1231,
      "educ": 1232,
      "sum": 1233,
      "ient": 1234,
      "ont": 1235,
      "bad": 1236,
      "Why": 1237,
      "days": 1238,
      "gir": 1239,
      "ark": 1240,
      "environ": 1241,
      "iter": 1242,
      "bro": 1243,
      "later": 1244,
      "parent": 1245,
      "public": 1246,
      "Ind": 1247,
      "interesting": 1248,
      "Here": 1249,
      "certain": 1250,
      "Is": 1251,
      "den": 1252,
      "contin": 1253,
      "heart": 1254,
      "ture": 1255,
      "bring": 1256,
      "cam": 1257,
      "ousand": 1258,
      "both": 1259,
      "io": 1260,
      "cells": 1261,
      "suc": 1262,
      "ages": 1263,
      "global": 1264,
      "verse": 1265,
      "ream": 1266,
      "Ear": 1267,
      "ken": 1268,
      "already": 1269,
      "langu": 1270,
      "cord": 1271,
      "tem": 1272,
      "complete": 1273,
      "serv": 1274,
      "chall": 1275,
      "night": 1276,
      "test": 1277,
      "cha": 1278,
      "mic": 1279,
      "dollars": 1280,
      "works": 1281,
      "New": 1282,
      "All": 1283,
      "simple": 1284,
      "thousand": 1285,
      "popul": 1286,
      "sed": 1287,
      "dist": 1288,
      "class": 1289,
      "words": 1290,
      "hear": 1291,
      "ied": 1292,
      "30": 1293,
      "ivid": 1294,
      "happens": 1295,
      "plic": 1296,
      "gl": 1297,
      "watch": 1298,
      "app": 1299,
      "Mo": 1300,
      "almost": 1301,
      "prot": 1302,
      "remember": 1303,
      "ale": 1304,
      "mag": 1305,
      "pho": 1306,
      "myself": 1307,
      "doc": 1308,
      "vol": 1309,
      "uro": 1310,
      "met": 1311,
      "dire": 1312,
      "hold": 1313,
      "Earth": 1314,
      "history": 1315,
      "inside": 1316,
      "once": 1317,
      "icular": 1318,
      "stuff": 1319,
      "itive": 1320,
      "program": 1321,
      "begin": 1322,
      "says": 1323,
      "200": 1324,
      "matter": 1325,
      "disco": 1326,
      "Chin": 1327,
      "problems": 1328,
      "exact": 1329,
      "nam": 1330,
      "acy": 1331,
      "action": 1332,
      "adv": 1333,
      "bed": 1334,
      "yet": 1335,
      "wond": 1336,
      "wrong": 1337,
      "whether": 1338,
      "nothing": 1339,
      "igh": 1340,
      "state": 1341,
      "goes": 1342,
      "house": 1343,
      "incre": 1344,
      "evol": 1345,
      "particular": 1346,
      "Africa": 1347,
      "bers": 1348,
      "An": 1349,
      "ury": 1350,
      "answer": 1351,
      "...": 1352,
      "law": 1353,
      "environment": 1354,
      "ilt": 1355,
      "imagine": 1356,
      "though": 1357,
      "Or": 1358,
      "walk": 1359,
      "vo": 1360,
      "ush": 1361,
      "amaz": 1362,
      "computer": 1363,
      "stories": 1364,
      "resu": 1365,
      "billion": 1366,
      "group": 1367,
      "uce": 1368,
      "dep": 1369,
      "entire": 1370,
      "six": 1371,
      "within": 1372,
      "appro": 1373,
      "ground": 1374,
      "wasn": 1375,
      "undred": 1376,
      "photo": 1377,
      "team": 1378,
      "music": 1379,
      "black": 1380,
      "OK": 1381,
      "free": 1382,
      "looked": 1383,
      "true": 1384,
      "saying": 1385,
      "Al": 1386,
      "fund": 1387,
      "pay": 1388,
      "until": 1389,
      "cost": 1390,
      "Go": 1391,
      "months": 1392,
      "hundred": 1393,
      "iful": 1394,
      "knew": 1395,
      "To": 1396,
      "government": 1397,
      "must": 1398,
      "ously": 1399,
      "At": 1400,
      "pris": 1401,
      "individ": 1402,
      "sex": 1403,
      "robot": 1404,
      "Ar": 1405,
      "fre": 1406,
      "bio": 1407,
      "ues": 1408,
      "electr": 1409,
      "ake": 1410,
      "mil": 1411,
      "train": 1412,
      "100": 1413,
      "kill": 1414,
      "emp": 1415,
      "share": 1416,
      "ield": 1417,
      "Do": 1418,
      "isn": 1419,
      "gets": 1420,
      "United": 1421,
      "ideas": 1422,
      "hu": 1423,
      "hy": 1424,
      "learned": 1425,
      "became": 1426,
      "large": 1427,
      "clim": 1428,
      "incl": 1429,
      "amazing": 1430,
      "ail": 1431,
      "mid": 1432,
      "others": 1433,
      "aster": 1434,
      "name": 1435,
      "ivity": 1436,
      "front": 1437,
      "against": 1438,
      "heard": 1439,
      "meet": 1440,
      "study": 1441,
      "que": 1442,
      "control": 1443,
      "picture": 1444,
      "cut": 1445,
      "cau": 1446,
      "language": 1447,
      "tool": 1448,
      "tom": 1449,
      "friends": 1450,
      "mater": 1451,
      "woman": 1452,
      "beautiful": 1453,
      "past": 1454,
      "ming": 1455,
      "success": 1456,
      "rad": 1457,
      "diff": 1458,
      "lab": 1459,
      "reco": 1460,
      "incred": 1461,
      "ted": 1462,
      "ization": 1463,
      "dle": 1464,
      "fish": 1465,
      "ences": 1466,
      "built": 1467,
      "dev": 1468,
      "known": 1469,
      "follow": 1470,
      "everyone": 1471,
      "acter": 1472,
      "deep": 1473,
      "fil": 1474,
      "arr": 1475,
      "questions": 1476,
      "company": 1477,
      "oper": 1478,
      "expl": 1479,
      "themselves": 1480,
      "object": 1481,
      "since": 1482,
      "cancer": 1483,
      "stop": 1484,
      "sometimes": 1485,
      "outh": 1486,
      "pot": 1487,
      "collect": 1488,
      "ier": 1489,
      "taking": 1490,
      "step": 1491,
      "ling": 1492,
      "places": 1493,
      "looks": 1494,
      "fully": 1495,
      "support": 1496,
      "Pe": 1497,
      "logical": 1498,
      "decided": 1499,
      "quick": 1500,
      "mill": 1501,
      "por": 1502,
      "clear": 1503,
      "ator": 1504,
      "engine": 1505,
      "der": 1506,
      "exactly": 1507,
      "15": 1508,
      "students": 1509,
      "society": 1510,
      "States": 1511,
      "protect": 1512,
      "won": 1513,
      "key": 1514,
      "meas": 1515,
      "instead": 1516,
      "fic": 1517,
      "level": 1518,
      "drug": 1519,
      "eah": 1520,
      "ional": 1521,
      "ease": 1522,
      "wonder": 1523,
      "Every": 1524,
      "relation": 1525,
      "speak": 1526,
      "mass": 1527,
      "exc": 1528,
      "based": 1529,
      "ED": 1530,
      "phone": 1531,
      "species": 1532,
      "har": 1533,
      "ases": 1534,
      "exist": 1535,
      "appe": 1536,
      "systems": 1537,
      "break": 1538,
      "stre": 1539,
      "along": 1540,
      "ourselves": 1541,
      "sho": 1542,
      "NA": 1543,
      "spend": 1544,
      "tin": 1545,
      "dig": 1546,
      "opport": 1547,
      "completely": 1548,
      "invest": 1549,
      "reli": 1550,
      "indust": 1551,
      "opportun": 1552,
      "beha": 1553,
      "pred": 1554,
      "experim": 1555,
      "difficul": 1556,
      "cons": 1557,
      "father": 1558,
      "fer": 1559,
      "hours": 1560,
      "compan": 1561,
      "guy": 1562,
      "uck": 1563,
      "American": 1564,
      "Se": 1565,
      "ton": 1566,
      "wards": 1567,
      "piece": 1568,
      "parents": 1569,
      "close": 1570,
      "education": 1571,
      "oce": 1572,
      "America": 1573,
      "disease": 1574,
      "colle": 1575,
      "ples": 1576,
      "posed": 1577,
      "learning": 1578,
      "dro": 1579,
      "jour": 1580,
      "ential": 1581,
      "reach": 1582,
      "Mus": 1583,
      "worked": 1584,
      "mess": 1585,
      "viol": 1586,
      "itself": 1587,
      "versity": 1588,
      "couple": 1589,
      "ses": 1590,
      "tw": 1591,
      "bur": 1592,
      "super": 1593,
      "flu": 1594,
      "aring": 1595,
      "basically": 1596,
      "huge": 1597,
      "couldn": 1598,
      "Can": 1599,
      "happening": 1600,
      "ives": 1601,
      "complex": 1602,
      "fail": 1603,
      "deal": 1604,
      "ork": 1605,
      "itting": 1606,
      "third": 1607,
      "behavi": 1608,
      "partic": 1609,
      "turns": 1610,
      "typ": 1611,
      "everybody": 1612,
      "created": 1613,
      "utes": 1614,
      "early": 1615,
      "emot": 1616,
      "var": 1617,
      "death": 1618,
      "expect": 1619,
      "access": 1620,
      "blood": 1621,
      "field": 1622,
      "decis": 1623,
      "safe": 1624,
      "felt": 1625,
      "hor": 1626,
      "ither": 1627,
      "listen": 1628,
      "cir": 1629,
      "thousands": 1630,
      "news": 1631,
      "ished": 1632,
      "aged": 1633,
      "ste": 1634,
      "video": 1635,
      "relationship": 1636,
      "animals": 1637,
      "ele": 1638,
      "liter": 1639,
      "depend": 1640,
      "ians": 1641,
      "ients": 1642,
      "century": 1643,
      "pur": 1644,
      "spect": 1645,
      "needs": 1646,
      "figure": 1647,
      "fall": 1648,
      "qui": 1649,
      "universe": 1650,
      "least": 1651,
      "nature": 1652,
      "somebody": 1653,
      "hind": 1654,
      "inno": 1655,
      "turned": 1656,
      "national": 1657,
      "On": 1658,
      "Then": 1659,
      "model": 1660,
      "ats": 1661,
      "amount": 1662,
      "istic": 1663,
      "full": 1664,
      "dom": 1665,
      "perfect": 1666,
      "sens": 1667,
      "vered": 1668,
      "coll": 1669,
      "reality": 1670,
      "dream": 1671,
      "common": 1672,
      "wind": 1673,
      "itch": 1674,
      "main": 1675,
      "micro": 1676,
      "perform": 1677,
      "anger": 1678,
      "short": 1679,
      "pract": 1680,
      "companies": 1681,
      "simp": 1682,
      "ared": 1683,
      "rather": 1684,
      "Af": 1685,
      "sent": 1686,
      "CA": 1687,
      "fly": 1688,
      "la": 1689,
      "pped": 1690,
      "recent": 1691,
      "oud": 1692,
      "record": 1693,
      "text": 1694,
      "scale": 1695,
      "famili": 1696,
      "during": 1697,
      "mp": 1698,
      "acc": 1699,
      "trad": 1700,
      "yourself": 1701,
      "natural": 1702,
      "rent": 1703,
      "ially": 1704,
      "ribut": 1705,
      "impact": 1706,
      "haps": 1707,
      "given": 1708,
      "ances": 1709,
      "needed": 1710,
      "ster": 1711,
      "difficult": 1712,
      "game": 1713,
      "humans": 1714,
      "began": 1715,
      "TED": 1716,
      "week": 1717,
      "easy": 1718,
      "oh": 1719,
      "takes": 1720,
      "ben": 1721,
      "ibly": 1722,
      "kinds": 1723,
      "risk": 1724,
      "Li": 1725,
      "mul": 1726,
      "ots": 1727,
      "minutes": 1728,
      "flo": 1729,
      "communic": 1730,
      "bs": 1731,
      "stay": 1732,
      "behind": 1733,
      "eyes": 1734,
      "Our": 1735,
      "surv": 1736,
      "changed": 1737,
      "outside": 1738,
      "cial": 1739,
      "40": 1740,
      "Euro": 1741,
      "gave": 1742,
      "moving": 1743,
      "ump": 1744,
      "Br": 1745,
      "Oh": 1746,
      "cities": 1747,
      "explo": 1748,
      "strong": 1749,
      "tend": 1750,
      "ze": 1751,
      "sis": 1752,
      "powerful": 1753,
      "paper": 1754,
      "longer": 1755,
      "market": 1756,
      "sug": 1757,
      "fight": 1758,
      "leave": 1759,
      "white": 1760,
      "ured": 1761,
      "impro": 1762,
      "convers": 1763,
      "hood": 1764,
      "climate": 1765,
      "sequ": 1766,
      "maj": 1767,
      "York": 1768,
      "utions": 1769,
      "near": 1770,
      "prom": 1771,
      "born": 1772,
      "itions": 1773,
      "18": 1774,
      "demo": 1775,
      "Fr": 1776,
      "og": 1777,
      "audi": 1778,
      "male": 1779,
      "ax": 1780,
      "ider": 1781,
      "idence": 1782,
      "defin": 1783,
      "local": 1784,
      "non": 1785,
      "vision": 1786,
      "grand": 1787,
      "cks": 1788,
      "ban": 1789,
      "ides": 1790,
      "pet": 1791,
      "ordin": 1792,
      "scre": 1793,
      "seeing": 1794,
      "issue": 1795,
      "Inter": 1796,
      "machine": 1797,
      "plant": 1798,
      "knowled": 1799,
      "culture": 1800,
      "political": 1801,
      "middle": 1802,
      "size": 1803,
      "draw": 1804,
      "scientists": 1805,
      "force": 1806,
      "conf": 1807,
      "China": 1808,
      "happy": 1809,
      "ilar": 1810,
      "taken": 1811,
      "personal": 1812,
      "vent": 1813,
      "difference": 1814,
      "explain": 1815,
      "street": 1816,
      "simply": 1817,
      "God": 1818,
      "win": 1819,
      "term": 1820,
      "event": 1821,
      "fast": 1822,
      "major": 1823,
      "realized": 1824,
      "Europe": 1825,
      "ox": 1826,
      "tail": 1827,
      "box": 1828,
      "De": 1829,
      "recogn": 1830,
      "psy": 1831,
      "population": 1832,
      "extre": 1833,
      "innov": 1834,
      "image": 1835,
      "ral": 1836,
      "tract": 1837,
      "hands": 1838,
      "ned": 1839,
      "likely": 1840,
      "ney": 1841,
      "finally": 1842,
      "ball": 1843,
      "aren": 1844,
      "grad": 1845,
      "ru": 1846,
      "spir": 1847,
      "Just": 1848,
      "cannot": 1849,
      "12": 1850,
      "seven": 1851,
      "approach": 1852,
      "bon": 1853,
      "parts": 1854,
      "ament": 1855,
      "lling": 1856,
      "attention": 1857,
      "respons": 1858,
      "Re": 1859,
      "includ": 1860,
      "behavior": 1861,
      "loy": 1862,
      "media": 1863,
      "ature": 1864,
      "patients": 1865,
      "sle": 1866,
      "ined": 1867,
      "trave": 1868,
      "ried": 1869,
      "Eng": 1870,
      "invol": 1871,
      "wall": 1872,
      "atic": 1873,
      "feeling": 1874,
      "Lo": 1875,
      "changes": 1876,
      "Nor": 1877,
      "lost": 1878,
      "send": 1879,
      "area": 1880,
      "medic": 1881,
      "pattern": 1882,
      "aking": 1883,
      "bar": 1884,
      "ror": 1885,
      "verage": 1886,
      "astic": 1887,
      "lots": 1888,
      "60": 1889,
      "India": 1890,
      "ocean": 1891,
      "mot": 1892,
      "pose": 1893,
      "People": 1894,
      "row": 1895,
      "neur": 1896,
      "knowledge": 1897,
      "dark": 1898,
      "solute": 1899,
      "gress": 1900,
      "situ": 1901,
      "guys": 1902,
      "direct": 1903,
      "economic": 1904,
      "resour": 1905,
      "ively": 1906,
      "ibility": 1907,
      "feed": 1908,
      "pick": 1909,
      "sour": 1910,
      "unch": 1911,
      "poor": 1912,
      "spec": 1913,
      "fill": 1914,
      "fear": 1915,
      "road": 1916,
      "quickly": 1917,
      "green": 1918,
      "type": 1919,
      "beginning": 1920,
      "ude": 1921,
      "neigh": 1922,
      "either": 1923,
      "tellig": 1924,
      "value": 1925,
      "sun": 1926,
      "DNA": 1927,
      "predict": 1928,
      "May": 1929,
      "lay": 1930,
      "medi": 1931,
      "special": 1932,
      "def": 1933,
      "comb": 1934,
      "telling": 1935,
      "rate": 1936,
      "yes": 1937,
      "forward": 1938,
      "ended": 1939,
      "descri": 1940,
      "perhaps": 1941,
      "ument": 1942,
      "spent": 1943,
      "era": 1944,
      "write": 1945,
      "rele": 1946,
      "extra": 1947,
      "ties": 1948,
      "opportunity": 1949,
      "sof": 1950,
      "bes": 1951,
      "lish": 1952,
      "path": 1953,
      "lies": 1954,
      "alone": 1955,
      "trust": 1956,
      "solve": 1957,
      "color": 1958,
      "terms": 1959,
      "Not": 1960,
      "solution": 1961,
      "numbers": 1962,
      "conv": 1963,
      "ref": 1964,
      "understanding": 1965,
      "tried": 1966,
      "tow": 1967,
      "evolution": 1968,
      "experiment": 1969,
      "sw": 1970,
      "intellig": 1971,
      "enge": 1972,
      "sil": 1973,
      "surface": 1974,
      "girl": 1975,
      "ators": 1976,
      "Internet": 1977,
      "slow": 1978,
      "ather": 1979,
      "meaning": 1980,
      "ange": 1981,
      "foot": 1982,
      "gs": 1983,
      "cially": 1984,
      "fur": 1985,
      "profess": 1986,
      "Yeah": 1987,
      "mark": 1988,
      "pan": 1989,
      "itect": 1990,
      "growing": 1991,
      "gor": 1992,
      "terri": 1993,
      "Yes": 1994,
      "truth": 1995,
      "nal": 1996,
      "rece": 1997,
      "weeks": 1998,
      "eight": 1999,
      "hosp": 2000,
      "current": 2001,
      "une": 2002,
      "izing": 2003,
      "challenge": 2004,
      "millions": 2005,
      "affect": 2006,
      "ging": 2007,
      "ination": 2008,
      "board": 2009,
      "Ok": 2010,
      "buy": 2011,
      "similar": 2012,
      "eat": 2013,
      "ni": 2014,
      "physical": 2015,
      "obvi": 2016,
      "cing": 2017,
      "quality": 2018,
      "vor": 2019,
      "fair": 2020,
      "orig": 2021,
      "absolute": 2022,
      "gone": 2023,
      "medical": 2024,
      "girls": 2025,
      "ene": 2026,
      "ames": 2027,
      "issues": 2028,
      "ouch": 2029,
      "individual": 2030,
      "dam": 2031,
      "stage": 2032,
      "challeng": 2033,
      "ged": 2034,
      "growth": 2035,
      "ased": 2036,
      "Right": 2037,
      "soon": 2038,
      "ular": 2039,
      "mole": 2040,
      "hundreds": 2041,
      "blue": 2042,
      "extreme": 2043,
      "shows": 2044,
      "giving": 2045,
      "ape": 2046,
      "anal": 2047,
      "rich": 2048,
      "ler": 2049,
      "ades": 2050,
      "changing": 2051,
      "print": 2052,
      "worth": 2053,
      "architect": 2054,
      "communities": 2055,
      "wouldn": 2056,
      "opt": 2057,
      "sport": 2058,
      "relig": 2059,
      "80": 2060,
      "cool": 2061,
      "cop": 2062,
      "ali": 2063,
      "whatever": 2064,
      "uses": 2065,
      "focus": 2066,
      "fire": 2067,
      "dead": 2068,
      "forest": 2069,
      "post": 2070,
      "result": 2071,
      "moder": 2072,
      "peri": 2073,
      "asking": 2074,
      "ency": 2075,
      "tools": 2076,
      "Ho": 2077,
      "favor": 2078,
      "Wor": 2079,
      "With": 2080,
      "aging": 2081,
      "seems": 2082,
      "benef": 2083,
      "aid": 2084,
      "die": 2085,
      "morning": 2086,
      "democr": 2087,
      "produce": 2088,
      "Music": 2089,
      "represent": 2090,
      "emer": 2091,
      "normal": 2092,
      "sitting": 2093,
      "hon": 2094,
      "sl": 2095,
      "realize": 2096,
      "skill": 2097,
      "sleep": 2098,
      "entially": 2099,
      "brought": 2100,
      "books": 2101,
      "enter": 2102,
      "spread": 2103,
      "rup": 2104,
      "rul": 2105,
      "interact": 2106,
      "push": 2107,
      "activ": 2108,
      "voice": 2109,
      "average": 2110,
      "polic": 2111,
      "material": 2112,
      "online": 2113,
      "logies": 2114,
      "press": 2115,
      "ring": 2116,
      "lled": 2117,
      "stain": 2118,
      "tiny": 2119,
      "areas": 2120,
      "center": 2121,
      "crit": 2122,
      "carbon": 2123,
      "images": 2124,
      "developed": 2125,
      "uced": 2126,
      "bri": 2127,
      "economy": 2128,
      "By": 2129,
      "multi": 2130,
      "position": 2131,
      "interested": 2132,
      "stat": 2133,
      "consci": 2134,
      "chem": 2135,
      "wrote": 2136,
      "literally": 2137,
      "US": 2138,
      "zer": 2139,
      "wonderful": 2140,
      "astr": 2141,
      "anyone": 2142,
      "movement": 2143,
      "11": 2144,
      "sea": 2145,
      "measure": 2146,
      "card": 2147,
      "dy": 2148,
      "serious": 2149,
      "joy": 2150,
      "ilities": 2151,
      "flow": 2152,
      "development": 2153,
      "ane": 2154,
      "report": 2155,
      "creating": 2156,
      "structure": 2157,
      "industry": 2158,
      "round": 2159,
      "asing": 2160,
      "ony": 2161,
      "loc": 2162,
      "poll": 2163,
      "fundament": 2164,
      "dden": 2165,
      "espe": 2166,
      "necess": 2167,
      "especially": 2168,
      "arm": 2169,
      "bey": 2170,
      "moved": 2171,
      "touch": 2172,
      "sudden": 2173,
      "ains": 2174,
      "ches": 2175,
      "seem": 2176,
      "concept": 2177,
      "lines": 2178,
      "discovered": 2179,
      "div": 2180,
      "oil": 2181,
      "Okay": 2182,
      "modern": 2183,
      "respond": 2184,
      "prov": 2185,
      "starting": 2186,
      "After": 2187,
      "ford": 2188,
      "generation": 2189,
      "itiz": 2190,
      "incredible": 2191,
      "eye": 2192,
      "ped": 2193,
      "tran": 2194,
      "chance": 2195,
      "playing": 2196,
      "photograph": 2197,
      "hot": 2198,
      "mission": 2199,
      "smart": 2200,
      "eth": 2201,
      "forms": 2202,
      "dest": 2203,
      "sever": 2204,
      "sup": 2205,
      "squ": 2206,
      "function": 2207,
      "ials": 2208,
      "iant": 2209,
      "lts": 2210,
      "sal": 2211,
      "violence": 2212,
      "suff": 2213,
      "din": 2214,
      "pen": 2215,
      "revol": 2216,
      "strate": 2217,
      "speed": 2218,
      "choice": 2219,
      "patient": 2220,
      "ired": 2221,
      "towards": 2222,
      "instit": 2223,
      "designed": 2224,
      "South": 2225,
      "feet": 2226,
      "suggest": 2227,
      "running": 2228,
      "const": 2229,
      "ny": 2230,
      "baby": 2231,
      "tic": 2232,
      "World": 2233,
      "priv": 2234,
      "beyond": 2235,
      "sustain": 2236,
      "ensive": 2237,
      "fortun": 2238,
      "First": 2239,
      "late": 2240,
      "icans": 2241,
      "potential": 2242,
      "Don": 2243,
      "proper": 2244,
      "period": 2245,
      "attack": 2246,
      "bottom": 2247,
      "bacter": 2248,
      "oid": 2249,
      "70": 2250,
      "threat": 2251,
      "animal": 2252,
      "invent": 2253,
      "inal": 2254,
      "account": 2255,
      "Inst": 2256,
      "ordinary": 2257,
      "dou": 2258,
      "rid": 2259,
      "save": 2260,
      "genet": 2261,
      "connected": 2262,
      "among": 2263,
      "sphere": 2264,
      "iction": 2265,
      "uals": 2266,
      "technologies": 2267,
      "tradition": 2268,
      "aim": 2269,
      "band": 2270,
      "recently": 2271,
      "deli": 2272,
      "Bo": 2273,
      "guess": 2274,
      "English": 2275,
      "resources": 2276,
      "danger": 2277,
      "earth": 2278,
      "groups": 2279,
      "nice": 2280,
      "door": 2281,
      "gives": 2282,
      "digital": 2283,
      "table": 2284,
      "25": 2285,
      "sat": 2286,
      "comfort": 2287,
      "conversation": 2288,
      "evidence": 2289,
      "citiz": 2290,
      "concer": 2291,
      "sounds": 2292,
      "cars": 2293,
      "audience": 2294,
      "African": 2295,
      "cris": 2296,
      "including": 2297,
      "ched": 2298,
      "thank": 2299,
      "90": 2300,
      "electric": 2301,
      "bir": 2302,
      "mand": 2303,
      "imm": 2304,
      "progress": 2305,
      "ore": 2306,
      "bodies": 2307,
      "Con": 2308,
      "becomes": 2309,
      "shape": 2310,
      "iss": 2311,
      "usion": 2312,
      "igr": 2313,
      "showed": 2314,
      "gal": 2315,
      "network": 2316,
      "Who": 2317,
      "bigger": 2318,
      "situation": 2319,
      "ctor": 2320,
      "several": 2321,
      "lack": 2322,
      "surpris": 2323,
      "Maybe": 2324,
      "clean": 2325,
      "lau": 2326,
      "kept": 2327,
      "town": 2328,
      "solar": 2329,
      "neighbor": 2330,
      "abo": 2331,
      "believ": 2332,
      "anti": 2333,
      "vill": 2334,
      "theory": 2335,
      "role": 2336,
      "wever": 2337,
      "curity": 2338,
      "lived": 2339,
      "skin": 2340,
      "conscious": 2341,
      "inci": 2342,
      "secre": 2343,
      "rod": 2344,
      "construct": 2345,
      "accept": 2346,
      "avail": 2347,
      "mental": 2348,
      "healthy": 2349,
      "lea": 2350,
      "Com": 2351,
      "wit": 2352,
      "ived": 2353,
      "tar": 2354,
      "agree": 2355,
      "miles": 2356,
      "ery": 2357,
      "abor": 2358,
      "ift": 2359,
      "journey": 2360,
      "gent": 2361,
      "infect": 2362,
      "adul": 2363,
      "film": 2364,
      "absolutely": 2365,
      "onse": 2366,
      "gain": 2367,
      "mathem": 2368,
      "syn": 2369,
      "Even": 2370,
      "Where": 2371,
      "transform": 2372,
      "gas": 2373,
      "ilo": 2374,
      "sli": 2375,
      "wish": 2376,
      "ption": 2377,
      "screen": 2378,
      "antly": 2379,
      "talked": 2380,
      "basic": 2381,
      "pression": 2382,
      "chemical": 2383,
      "ify": 2384,
      "rain": 2385,
      "stress": 2386,
      "ival": 2387,
      "rights": 2388,
      "wide": 2389,
      "rial": 2390,
      "writing": 2391,
      "response": 2392,
      "rules": 2393,
      "choose": 2394,
      "soph": 2395,
      "drugs": 2396,
      "omen": 2397,
      "higher": 2398,
      "jobs": 2399,
      "bird": 2400,
      "Tod": 2401,
      "map": 2402,
      "ann": 2403,
      "code": 2404,
      "standing": 2405,
      "tle": 2406,
      "leader": 2407,
      "birth": 2408,
      "Le": 2409,
      "ably": 2410,
      "diag": 2411,
      "reasons": 2412,
      "particip": 2413,
      "thor": 2414,
      "aware": 2415,
      "onto": 2416,
      "families": 2417,
      "Of": 2418,
      "lin": 2419,
      "developing": 2420,
      "improve": 2421,
      "mechan": 2422,
      "boy": 2423,
      "AI": 2424,
      "ites": 2425,
      "ges": 2426,
      "liz": 2427,
      "fix": 2428,
      "died": 2429,
      "subject": 2430,
      "sym": 2431,
      "aur": 2432,
      "plants": 2433,
      "capital": 2434,
      "kets": 2435,
      "smo": 2436,
      "flict": 2437,
      "fuel": 2438,
      "vert": 2439,
      "lose": 2440,
      "sold": 2441,
      "rop": 2442,
      "pping": 2443,
      "continue": 2444,
      "results": 2445,
      "prison": 2446,
      "effic": 2447,
      "incredibly": 2448,
      "daughter": 2449,
      "hit": 2450,
      "tele": 2451,
      "computers": 2452,
      "drive": 2453,
      "ender": 2454,
      "available": 2455,
      "loved": 2456,
      "nuc": 2457,
      "haven": 2458,
      "strug": 2459,
      "atom": 2460,
      "revolution": 2461,
      "biggest": 2462,
      "visual": 2463,
      "dim": 2464,
      "mail": 2465,
      "rais": 2466,
      "range": 2467,
      "Man": 2468,
      "cli": 2469,
      "aught": 2470,
      "source": 2471,
      "dete": 2472,
      "psycho": 2473,
      "Today": 2474,
      "bill": 2475,
      "amp": 2476,
      "knows": 2477,
      "further": 2478,
      "security": 2479,
      "16": 2480,
      "star": 2481,
      "cru": 2482,
      "azy": 2483,
      "character": 2484,
      "14": 2485,
      "allowed": 2486,
      "Ro": 2487,
      "ai": 2488,
      "mob": 2489,
      "mount": 2490,
      "pair": 2491,
      "putting": 2492,
      "rap": 2493,
      "song": 2494,
      "pover": 2495,
      "itten": 2496,
      "positive": 2497,
      "involved": 2498,
      "molecul": 2499,
      "memory": 2500,
      "17": 2501,
      "Mar": 2502,
      "colleag": 2503,
      "cases": 2504,
      "rand": 2505,
      "cross": 2506,
      "rect": 2507,
      "schools": 2508,
      "farm": 2509,
      "asc": 2510,
      "starts": 2511,
      "named": 2512,
      "wood": 2513,
      "office": 2514,
      "hospital": 2515,
      "eventually": 2516,
      "apart": 2517,
      "ends": 2518,
      "favorite": 2519,
      "lex": 2520,
      "intelligence": 2521,
      "mit": 2522,
      "sco": 2523,
      "narr": 2524,
      "goal": 2525,
      "tural": 2526,
      "consider": 2527,
      "rupt": 2528,
      "separ": 2529,
      "occur": 2530,
      "doctor": 2531,
      "specific": 2532,
      "ub": 2533,
      "princi": 2534,
      "clin": 2535,
      "sky": 2536,
      "load": 2537,
      "Are": 2538,
      "consu": 2539,
      "crisis": 2540,
      "vari": 2541,
      "message": 2542,
      "Pro": 2543,
      "leaders": 2544,
      "worse": 2545,
      "Like": 2546,
      "da": 2547,
      "mine": 2548,
      "nine": 2549,
      "except": 2550,
      "brid": 2551,
      "decisions": 2552,
      "Joh": 2553,
      "luck": 2554,
      "edom": 2555,
      "college": 2556,
      "brains": 2557,
      "police": 2558,
      "grew": 2559,
      "poverty": 2560,
      "ric": 2561,
      "complic": 2562,
      "cient": 2563,
      "cise": 2564,
      "jud": 2565,
      "sor": 2566,
      "decision": 2567,
      "race": 2568,
      "track": 2569,
      "pers": 2570,
      "device": 2571,
      "respect": 2572,
      "task": 2573,
      "legal": 2574,
      "scientific": 2575,
      "Goog": 2576,
      "faster": 2577,
      "ideo": 2578,
      "walking": 2579,
      "treatment": 2580,
      "mir": 2581,
      "perspect": 2582,
      "conflict": 2583,
      "ext": 2584,
      "waste": 2585,
      "taught": 2586,
      "zz": 2587,
      "crimin": 2588,
      "shop": 2589,
      "finan": 2590,
      "Those": 2591,
      "cat": 2592,
      "machines": 2593,
      "cked": 2594,
      "carry": 2595,
      "general": 2596,
      "training": 2597,
      "employ": 2598,
      "influ": 2599,
      "prote": 2600,
      "supposed": 2601,
      "deb": 2602,
      "ley": 2603,
      "neg": 2604,
      "plac": 2605,
      "North": 2606,
      "compass": 2607,
      "particularly": 2608,
      "innovation": 2609,
      "crazy": 2610,
      "standard": 2611,
      "mist": 2612,
      "genes": 2613,
      "stri": 2614,
      "watching": 2615,
      "types": 2616,
      "Dr": 2617,
      "arri": 2618,
      "ified": 2619,
      "examples": 2620,
      "pictures": 2621,
      "ech": 2622,
      "wild": 2623,
      "immedi": 2624,
      "showing": 2625,
      "hero": 2626,
      "bacteria": 2627,
      "lif": 2628,
      "usually": 2629,
      "detail": 2630,
      "antic": 2631,
      "manage": 2632,
      "Chinese": 2633,
      "medicine": 2634,
      "conditions": 2635,
      "Po": 2636,
      "fold": 2637,
      "signific": 2638,
      "ana": 2639,
      "justice": 2640,
      "largest": 2641,
      "Most": 2642,
      "tware": 2643,
      "fing": 2644,
      "ium": 2645,
      "insp": 2646,
      "introd": 2647,
      "objects": 2648,
      "above": 2649,
      "tot": 2650,
      "itary": 2651,
      "akes": 2652,
      "finding": 2653,
      "increase": 2654,
      "Google": 2655,
      "everywhere": 2656,
      "offic": 2657,
      "creative": 2658,
      "robots": 2659,
      "hun": 2660,
      "vels": 2661,
      "ama": 2662,
      "fit": 2663,
      "cover": 2664,
      "foc": 2665,
      "reading": 2666,
      "student": 2667,
      "products": 2668,
      "Co": 2669,
      "income": 2670,
      "offe": 2671,
      "lying": 2672,
      "peace": 2673,
      "quant": 2674,
      "civ": 2675,
      "individuals": 2676,
      "successful": 2677,
      "bul": 2678,
      "stick": 2679,
      "labor": 2680,
      "fant": 2681,
      "ows": 2682,
      "ference": 2683,
      "solutions": 2684,
      "minute": 2685,
      "Ph": 2686,
      "software": 2687,
      "zero": 2688,
      "fortunately": 2689,
      "John": 2690,
      "provide": 2691,
      "decades": 2692,
      "gorith": 2693,
      "!\"": 2694,
      "totally": 2695,
      "hom": 2696,
      "meant": 2697,
      "written": 2698,
      "humanity": 2699,
      "wait": 2700,
      "arily": 2701,
      "virt": 2702,
      "allows": 2703,
      "truly": 2704,
      "certainly": 2705,
      "weight": 2706,
      "bank": 2707,
      "minds": 2708,
      "collabor": 2709,
      "Ger": 2710,
      "bing": 2711,
      "sem": 2712,
      "hair": 2713,
      "wife": 2714,
      "activity": 2715,
      "13": 2716,
      "pressure": 2717,
      "War": 2718,
      "wise": 2719,
      "requi": 2720,
      "onic": 2721,
      "earli": 2722,
      "eco": 2723,
      "discover": 2724,
      "ded": 2725,
      "wants": 2726,
      "materials": 2727,
      "sou": 2728,
      "spo": 2729,
      "continu": 2730,
      "algorith": 2731,
      "fundamental": 2732,
      "unique": 2733,
      "Look": 2734,
      "doctors": 2735,
      "female": 2736,
      "impossible": 2737,
      "appear": 2738,
      "Brit": 2739,
      "Sh": 2740,
      "bol": 2741,
      "courage": 2742,
      "massive": 2743,
      "passion": 2744,
      "nation": 2745,
      "sell": 2746,
      "tells": 2747,
      "laun": 2748,
      "camera": 2749,
      "ners": 2750,
      "deser": 2751,
      "Imag": 2752,
      "compet": 2753,
      "roll": 2754,
      "teachers": 2755,
      "na": 2756,
      "notice": 2757,
      "skills": 2758,
      "hur": 2759,
      "tree": 2760,
      "shown": 2761,
      "nobody": 2762,
      "Ex": 2763,
      "discus": 2764,
      "content": 2765,
      "shared": 2766,
      "gender": 2767,
      "nces": 2768,
      "organiz": 2769,
      "brother": 2770,
      "freedom": 2771,
      "West": 2772,
      "enced": 2773,
      "demand": 2774,
      "prevent": 2775,
      "iversity": 2776,
      "ns": 2777,
      "movie": 2778,
      "ending": 2779,
      "500": 2780,
      "lower": 2781,
      "atory": 2782,
      "reflect": 2783,
      "challenges": 2784,
      "inde": 2785,
      "Car": 2786,
      "games": 2787,
      "organization": 2788,
      "exciting": 2789,
      "base": 2790,
      "studies": 2791,
      "trees": 2792,
      "genetic": 2793,
      "increasing": 2794,
      "ye": 2795,
      "tered": 2796,
      "ered": 2797,
      "mous": 2798,
      "shot": 2799,
      "excited": 2800,
      "extremely": 2801,
      "iced": 2802,
      "Americans": 2803,
      "temper": 2804,
      "pack": 2805,
      "address": 2806,
      "recognize": 2807,
      "travel": 2808,
      "rough": 2809,
      "swe": 2810,
      "larger": 2811,
      "habit": 2812,
      "chr": 2813,
      "phen": 2814,
      "gue": 2815,
      "practice": 2816,
      "sect": 2817,
      "Your": 2818,
      "nut": 2819,
      "author": 2820,
      "Ge": 2821,
      "achie": 2822,
      "cles": 2823,
      "experiences": 2824,
      "perspective": 2825,
      "urban": 2826,
      "diseas": 2827,
      "models": 2828,
      "univers": 2829,
      "pieces": 2830,
      "dimens": 2831,
      "agr": 2832,
      "older": 2833,
      "vul": 2834,
      "claim": 2835,
      "engage": 2836,
      "logist": 2837,
      "counter": 2838,
      "effects": 2839,
      "democracy": 2840,
      "mathemat": 2841,
      "pite": 2842,
      "rist": 2843,
      "swi": 2844,
      "ories": 2845,
      "ultim": 2846,
      "virus": 2847,
      "nuclear": 2848,
      "meth": 2849,
      "context": 2850,
      "service": 2851,
      "consequ": 2852,
      "somewhere": 2853,
      "ounds": 2854,
      "logists": 2855,
      "afford": 2856,
      "secret": 2857,
      "stars": 2858,
      "loss": 2859,
      "workers": 2860,
      "complicated": 2861,
      "achieve": 2862,
      "consum": 2863,
      "production": 2864,
      "Imagine": 2865,
      "cloud": 2866,
      "adap": 2867,
      "anybody": 2868,
      "cold": 2869,
      "rise": 2870,
      "upon": 2871,
      "points": 2872,
      "policy": 2873,
      "levels": 2874,
      "career": 2875,
      "diseases": 2876,
      "unders": 2877,
      "dangerous": 2878,
      "remain": 2879,
      "ently": 2880,
      "ung": 2881,
      "helped": 2882,
      "cry": 2883,
      "contribut": 2884,
      "worry": 2885,
      "stra": 2886,
      "effective": 2887,
      "compassion": 2888,
      "diagno": 2889,
      "Pr": 2890,
      "wealth": 2891,
      "itted": 2892,
      "Tr": 2893,
      "pull": 2894,
      "teen": 2895,
      "fasc": 2896,
      "onom": 2897,
      "beings": 2898,
      "fine": 2899,
      "ables": 2900,
      "weren": 2901,
      "throughout": 2902,
      "extraordinary": 2903,
      "suddenly": 2904,
      "ping": 2905,
      "atmo": 2906,
      "aries": 2907,
      "apan": 2908,
      "willing": 2909,
      "critical": 2910,
      "nia": 2911,
      "teacher": 2912,
      "Japan": 2913,
      "hous": 2914,
      "associ": 2915,
      "check": 2916,
      "icle": 2917,
      "waiting": 2918,
      "oxy": 2919,
      "version": 2920,
      "buildings": 2921,
      "store": 2922,
      "members": 2923,
      "fuge": 2924,
      "journal": 2925,
      "Many": 2926,
      "resist": 2927,
      "His": 2928,
      "Ste": 2929,
      "TV": 2930,
      "neuro": 2931,
      "values": 2932,
      "cure": 2933,
      "terror": 2934,
      "series": 2935,
      "ucing": 2936,
      "galax": 2937,
      "neighborhood": 2938,
      "straight": 2939,
      "Mars": 2940,
      "faces": 2941,
      "atter": 2942,
      "alter": 2943,
      "blind": 2944,
      "condition": 2945,
      "distribut": 2946,
      "familiar": 2947,
      "bel": 2948,
      "trick": 2949,
      "essentially": 2950,
      "Any": 2951,
      "driving": 2952,
      "IV": 2953,
      "ina": 2954,
      "isms": 2955,
      "math": 2956,
      "anymore": 2957,
      "listening": 2958,
      "traditional": 2959,
      "catch": 2960,
      "projects": 2961,
      "tempt": 2962,
      "becoming": 2963,
      "plastic": 2964,
      "Instead": 2965,
      "sus": 2966,
      "scar": 2967,
      "performance": 2968,
      "obviously": 2969,
      "bunch": 2970,
      "wel": 2971,
      "famous": 2972,
      "rac": 2973,
      "expensive": 2974,
      "biology": 2975,
      "patterns": 2976,
      "smaller": 2977,
      "killed": 2978,
      "termin": 2979,
      "preci": 2980,
      "gradu": 2981,
      "himself": 2982,
      "physics": 2983,
      "oun": 2984,
      "alive": 2985,
      "lebr": 2986,
      "glass": 2987,
      "hop": 2988,
      "iding": 2989,
      "gotten": 2990,
      "emotional": 2991,
      "citizens": 2992,
      "celebr": 2993,
      "honest": 2994,
      "hol": 2995,
      "tit": 2996,
      "istan": 2997,
      "feels": 2998,
      "greatest": 2999,
      "Har": 3000,
      "bits": 3001,
      "mas": 3002,
      "cis": 3003,
      "uments": 3004,
      "connection": 3005,
      "refuge": 3006,
      "Chris": 3007,
      "meeting": 3008,
      "mention": 3009,
      "nearly": 3010,
      "financial": 3011,
      "ime": 3012,
      "somehow": 3013,
      "whose": 3014,
      "square": 3015,
      "web": 3016,
      "strange": 3017,
      "strugg": 3018,
      "site": 3019,
      "military": 3020,
      "Col": 3021,
      "infr": 3022,
      "tex": 3023,
      "mobile": 3024,
      "cas": 3025,
      "tood": 3026,
      "arg": 3027,
      "international": 3028,
      "relationships": 3029,
      "destro": 3030,
      "Me": 3031,
      "active": 3032,
      "phones": 3033,
      "understood": 3034,
      "email": 3035,
      "sick": 3036,
      "actions": 3037,
      "craf": 3038,
      "related": 3039,
      "sexual": 3040,
      "uction": 3041,
      "explore": 3042,
      "athe": 3043,
      "ience": 3044,
      "jump": 3045,
      "init": 3046,
      "speaking": 3047,
      "curi": 3048,
      "comfortable": 3049,
      "remark": 3050,
      "actual": 3051,
      "happiness": 3052,
      "lights": 3053,
      "electricity": 3054,
      "village": 3055,
      "sme": 3056,
      "els": 3057,
      "partner": 3058,
      "governments": 3059,
      "moral": 3060,
      "broken": 3061,
      "cup": 3062,
      "ds": 3063,
      "tu": 3064,
      "compe": 3065,
      "final": 3066,
      "random": 3067,
      "vacc": 3068,
      "manu": 3069,
      "integr": 3070,
      "simul": 3071,
      "trou": 3072,
      "knowing": 3073,
      "services": 3074,
      "lands": 3075,
      "fir": 3076,
      "avoid": 3077,
      "identity": 3078,
      "earlier": 3079,
      "sn": 3080,
      "auto": 3081,
      "mak": 3082,
      "directly": 3083,
      "private": 3084,
      "cast": 3085,
      "dog": 3086,
      "plane": 3087,
      "From": 3088,
      "estern": 3089,
      "thern": 3090,
      "institutions": 3091,
      "indeed": 3092,
      "Face": 3093,
      "sand": 3094,
      "quar": 3095,
      "Which": 3096,
      "popular": 3097,
      "colleagues": 3098,
      "mix": 3099,
      "total": 3100,
      "edge": 3101,
      "acking": 3102,
      "trade": 3103,
      "ustr": 3104,
      "greater": 3105,
      "direction": 3106,
      "ik": 3107,
      "uss": 3108,
      "plat": 3109,
      "motiv": 3110,
      "bom": 3111,
      "ret": 3112,
      "throw": 3113,
      "attle": 3114,
      "sorts": 3115,
      "Video": 3116,
      "ceed": 3117,
      "decide": 3118,
      "expand": 3119,
      "causes": 3120,
      "pes": 3121,
      "sess": 3122,
      "cycle": 3123,
      "purpose": 3124,
      "architecture": 3125,
      "However": 3126,
      "Her": 3127,
      "je": 3128,
      "embr": 3129,
      "please": 3130,
      "choices": 3131,
      "walked": 3132,
      "organizations": 3133,
      "seas": 3134,
      "optim": 3135,
      "correct": 3136,
      "paid": 3137,
      "floor": 3138,
      "repe": 3139,
      "artist": 3140,
      "surve": 3141,
      "laws": 3142,
      "method": 3143,
      "remind": 3144,
      "civi": 3145,
      "surround": 3146,
      "page": 3147,
      "itation": 3148,
      "calcul": 3149,
      "ashing": 3150,
      "politics": 3151,
      "target": 3152,
      "enor": 3153,
      "states": 3154,
      "join": 3155,
      "camp": 3156,
      "Over": 3157,
      "costs": 3158,
      "Ano": 3159,
      "HIV": 3160,
      "transport": 3161,
      "mes": 3162,
      "nur": 3163,
      "icians": 3164,
      "sharing": 3165,
      "decade": 3166,
      "atmosphere": 3167,
      "Another": 3168,
      "Act": 3169,
      "thetic": 3170,
      "ancy": 3171,
      "acity": 3172,
      "reduce": 3173,
      "brand": 3174,
      "painting": 3175,
      "chair": 3176,
      "detect": 3177,
      "Sy": 3178,
      "dad": 3179,
      "oting": 3180,
      "frame": 3181,
      "199": 3182,
      "beauty": 3183,
      "biological": 3184,
      "stream": 3185,
      "Christ": 3186,
      "regul": 3187,
      "survive": 3188,
      "laugh": 3189,
      "ancient": 3190,
      "belief": 3191,
      "City": 3192,
      "sam": 3193,
      "easier": 3194,
      "region": 3195,
      "serve": 3196,
      "forget": 3197,
      "University": 3198,
      "spaces": 3199,
      "philo": 3200,
      "scientist": 3201,
      "manufact": 3202,
      "engineering": 3203,
      "Two": 3204,
      "surger": 3205,
      "Aud": 3206,
      "mut": 3207,
      "weap": 3208,
      "hole": 3209,
      "relative": 3210,
      "neurons": 3211,
      "immediately": 3212,
      "philosoph": 3213,
      "aling": 3214,
      "stren": 3215,
      "held": 3216,
      "worst": 3217,
      "seconds": 3218,
      "sen": 3219,
      "ictim": 3220,
      "matters": 3221,
      "corpor": 3222,
      "ahead": 3223,
      "Ken": 3224,
      "vast": 3225,
      "beat": 3226,
      "prim": 3227,
      "ga": 3228,
      "sad": 3229,
      "ids": 3230,
      "Think": 3231,
      "orders": 3232,
      "cultural": 3233,
      "instance": 3234,
      "terrible": 3235,
      "none": 3236,
      "mostly": 3237,
      "useful": 3238,
      "posite": 3239,
      "block": 3240,
      "Per": 3241,
      "hus": 3242,
      "spot": 3243,
      "advant": 3244,
      "bridge": 3245,
      "Facebook": 3246,
      "streng": 3247,
      "link": 3248,
      "ray": 3249,
      "scan": 3250,
      "victim": 3251,
      "requ": 3252,
      "tax": 3253,
      "phenomen": 3254,
      "East": 3255,
      "gun": 3256,
      "rare": 3257,
      "compl": 3258,
      "clearly": 3259,
      "istics": 3260,
      "price": 3261,
      "fascin": 3262,
      "21": 3263,
      "wave": 3264,
      "forth": 3265,
      "SA": 3266,
      "rout": 3267,
      "anywhere": 3268,
      "addition": 3269,
      "afr": 3270,
      "slight": 3271,
      "ths": 3272,
      "anced": 3273,
      "party": 3274,
      "contain": 3275,
      "paign": 3276,
      "answers": 3277,
      "broad": 3278,
      "molecules": 3279,
      "fat": 3280,
      "lad": 3281,
      "ets": 3282,
      "gene": 3283,
      "following": 3284,
      "techni": 3285,
      "played": 3286,
      "leading": 3287,
      "spirit": 3288,
      "aris": 3289,
      "babies": 3290,
      "cording": 3291,
      "obvious": 3292,
      "Aust": 3293,
      "lic": 3294,
      "atives": 3295,
      "enjoy": 3296,
      "easily": 3297,
      "cket": 3298,
      "repre": 3299,
      "heat": 3300,
      "despite": 3301,
      "landsc": 3302,
      "environmental": 3303,
      "vulner": 3304,
      "oxygen": 3305,
      "bound": 3306,
      "conserv": 3307,
      "turning": 3308,
      "CO": 3309,
      "mouth": 3310,
      "tens": 3311,
      "saving": 3312,
      "interview": 3313,
      "afraid": 3314,
      "magic": 3315,
      "deliver": 3316,
      "swim": 3317,
      "lam": 3318,
      "ened": 3319,
      "forces": 3320,
      "select": 3321,
      "liber": 3322,
      "iling": 3323,
      "radio": 3324,
      "particles": 3325,
      "efficient": 3326,
      "stopped": 3327,
      "closer": 3328,
      "programs": 3329,
      "streets": 3330,
      "differently": 3331,
      "drop": 3332,
      "yeah": 3333,
      "reve": 3334,
      "return": 3335,
      "wered": 3336,
      "exer": 3337,
      "gry": 3338,
      "raise": 3339,
      "emotions": 3340,
      "instr": 3341,
      "match": 3342,
      "rapid": 3343,
      "original": 3344,
      "Mic": 3345,
      "24": 3346,
      "wed": 3347,
      "imate": 3348,
      "ishing": 3349,
      "responsibility": 3350,
      "dance": 3351,
      "passed": 3352,
      "Tal": 3353,
      "cred": 3354,
      "host": 3355,
      "negative": 3356,
      "contr": 3357,
      "noticed": 3358,
      "boys": 3359,
      "communication": 3360,
      "surprising": 3361,
      "therap": 3362,
      "prise": 3363,
      "central": 3364,
      "helps": 3365,
      "helping": 3366,
      "multiple": 3367,
      "aper": 3368,
      "ior": 3369,
      "thes": 3370,
      "demon": 3371,
      "devices": 3372,
      "switch": 3373,
      "dynam": 3374,
      "placed": 3375,
      "cand": 3376,
      "ju": 3377,
      "yle": 3378,
      "entrepre": 3379,
      "highly": 3380,
      "husband": 3381,
      "commer": 3382,
      "studying": 3383,
      "rooms": 3384,
      "gap": 3385,
      "tough": 3386,
      "ham": 3387,
      "summer": 3388,
      "communicate": 3389,
      "astruct": 3390,
      "ening": 3391,
      "formed": 3392,
      "offer": 3393,
      "dram": 3394,
      "regular": 3395,
      "Second": 3396,
      "inspired": 3397,
      "itor": 3398,
      "opposite": 3399,
      "produced": 3400,
      "planets": 3401,
      "campaign": 3402,
      "religion": 3403,
      "creativity": 3404,
      "necessary": 3405,
      "300": 3406,
      "wear": 3407,
      "gold": 3408,
      "shift": 3409,
      "hearing": 3410,
      "invented": 3411,
      "date": 3412,
      "eg": 3413,
      "org": 3414,
      "rock": 3415,
      "diversity": 3416,
      "published": 3417,
      "Lon": 3418,
      "bag": 3419,
      "ding": 3420,
      "determin": 3421,
      "okay": 3422,
      "frequ": 3423,
      "lap": 3424,
      "belong": 3425,
      "concl": 3426,
      "teaching": 3427,
      "cuit": 3428,
      "focused": 3429,
      "Will": 3430,
      "various": 3431,
      "sustainable": 3432,
      "significant": 3433,
      "agricul": 3434,
      "iers": 3435,
      "crow": 3436,
      "offee": 3437,
      "infrastruct": 3438,
      "fol": 3439,
      "minis": 3440,
      "Cali": 3441,
      "weak": 3442,
      "proto": 3443,
      "ards": 3444,
      "researchers": 3445,
      "Califor": 3446,
      "giant": 3447,
      "ico": 3448,
      "analy": 3449,
      "applic": 3450,
      "seemed": 3451,
      "prepare": 3452,
      "letter": 3453,
      "experiments": 3454,
      "flying": 3455,
      "iger": 3456,
      "enormous": 3457,
      "umb": 3458,
      "ager": 3459,
      "creates": 3460,
      "coffee": 3461,
      "hate": 3462,
      "ino": 3463,
      "Sometimes": 3464,
      "Arab": 3465,
      "London": 3466,
      "inspir": 3467,
      "rely": 3468,
      "traf": 3469,
      "myster": 3470,
      "core": 3471,
      "speech": 3472,
      "gree": 3473,
      "depression": 3474,
      "grav": 3475,
      "athy": 3476,
      "graphy": 3477,
      "Je": 3478,
      "possibly": 3479,
      "capacity": 3480,
      "radi": 3481,
      ".,": 3482,
      "mend": 3483,
      "atures": 3484,
      "cies": 3485,
      "missing": 3486,
      "legs": 3487,
      "profit": 3488,
      "bringing": 3489,
      "Great": 3490,
      "stor": 3491,
      "lied": 3492,
      "suit": 3493,
      "rench": 3494,
      "supply": 3495,
      "temperature": 3496,
      "Western": 3497,
      "gar": 3498,
      "aspect": 3499,
      "veh": 3500,
      "iles": 3501,
      "profound": 3502,
      "webs": 3503,
      "California": 3504,
      "aly": 3505,
      "commit": 3506,
      "contact": 3507,
      "tum": 3508,
      "symp": 3509,
      "raz": 3510,
      "Take": 3511,
      "rem": 3512,
      "below": 3513,
      "although": 3514,
      "filled": 3515,
      "remarkable": 3516,
      "smell": 3517,
      "hall": 3518,
      "therefore": 3519,
      "moments": 3520,
      "industrial": 3521,
      "birds": 3522,
      "surgery": 3523,
      "atell": 3524,
      "pressed": 3525,
      "document": 3526,
      "accur": 3527,
      "lie": 3528,
      "unk": 3529,
      "native": 3530,
      "harm": 3531,
      "benefits": 3532,
      "pace": 3533,
      "ram": 3534,
      "isol": 3535,
      "Hey": 3536,
      "structures": 3537,
      "gri": 3538,
      "percept": 3539,
      "artific": 3540,
      "pleas": 3541,
      "fighting": 3542,
      "eper": 3543,
      "icles": 3544,
      "forced": 3545,
      "background": 3546,
      "importantly": 3547,
      "valu": 3548,
      "dollar": 3549,
      "opportunities": 3550,
      "lucky": 3551,
      "civil": 3552,
      "president": 3553,
      "distance": 3554,
      "evolved": 3555,
      "dependent": 3556,
      "rule": 3557,
      "infrastructure": 3558,
      "Did": 3559,
      "Mon": 3560,
      "pal": 3561,
      "thri": 3562,
      "dered": 3563,
      "steps": 3564,
      "suffering": 3565,
      "believed": 3566,
      "zo": 3567,
      "sets": 3568,
      "failure": 3569,
      "walls": 3570,
      "CE": 3571,
      "networks": 3572,
      "twice": 3573,
      "strategy": 3574,
      "tures": 3575,
      "weird": 3576,
      "river": 3577,
      "effort": 3578,
      "Med": 3579,
      "eating": 3580,
      "eties": 3581,
      "mam": 3582,
      "mune": 3583,
      "matic": 3584,
      "Russ": 3585,
      "fi": 3586,
      "attract": 3587,
      "transl": 3588,
      "grees": 3589,
      "soil": 3590,
      "degrees": 3591,
      "lets": 3592,
      "invis": 3593,
      "apply": 3594,
      "deeply": 3595,
      "responsible": 3596,
      "adults": 3597,
      "decl": 3598,
      "itely": 3599,
      "societies": 3600,
      "fantastic": 3601,
      "kil": 3602,
      "corner": 3603,
      "raised": 3604,
      "cum": 3605,
      "satell": 3606,
      "tons": 3607,
      "degree": 3608,
      "destroy": 3609,
      "craft": 3610,
      "dying": 3611,
      "scr": 3612,
      "inct": 3613,
      "otic": 3614,
      "elements": 3615,
      "homes": 3616,
      "require": 3617,
      "Gu": 3618,
      "Jo": 3619,
      "arian": 3620,
      "wash": 3621,
      "events": 3622,
      "limited": 3623,
      "miss": 3624,
      "ultimately": 3625,
      "website": 3626,
      "nic": 3627,
      "histor": 3628,
      "faith": 3629,
      "quantum": 3630,
      "due": 3631,
      "mos": 3632,
      "basis": 3633,
      "religious": 3634,
      "billions": 3635,
      "Once": 3636,
      "tun": 3637,
      "dreams": 3638,
      "leadership": 3639,
      "compon": 3640,
      "apped": 3641,
      "television": 3642,
      "Ab": 3643,
      "Ber": 3644,
      "fed": 3645,
      "gard": 3646,
      "attempt": 3647,
      "ales": 3648,
      "itude": 3649,
      "bling": 3650,
      "capable": 3651,
      "crime": 3652,
      "safety": 3653,
      "entrepreneur": 3654,
      "Each": 3655,
      "Mid": 3656,
      "abilities": 3657,
      "artists": 3658,
      "balance": 3659,
      "stuck": 3660,
      "graphic": 3661,
      "San": 3662,
      "insect": 3663,
      "bled": 3664,
      "ysis": 3665,
      "definition": 3666,
      "necessarily": 3667,
      "trouble": 3668,
      "National": 3669,
      "hid": 3670,
      "vit": 3671,
      "immune": 3672,
      "everyday": 3673,
      "holding": 3674,
      "emotion": 3675,
      "farmers": 3676,
      "civiliz": 3677,
      "urch": 3678,
      "maint": 3679,
      "cogn": 3680,
      "majority": 3681,
      "cot": 3682,
      "anx": 3683,
      "parad": 3684,
      "prior": 3685,
      "See": 3686,
      "leaving": 3687,
      "hang": 3688,
      "rot": 3689,
      "assum": 3690,
      "geo": 3691,
      "possibility": 3692,
      "waves": 3693,
      "explor": 3694,
      "ca": 3695,
      "master": 3696,
      "Afgh": 3697,
      "promise": 3698,
      "motion": 3699,
      "describe": 3700,
      "consciousness": 3701,
      "slightly": 3702,
      "traffic": 3703,
      "Res": 3704,
      "note": 3705,
      "exe": 3706,
      "express": 3707,
      "While": 3708,
      "letters": 3709,
      "benefit": 3710,
      "lat": 3711,
      "wis": 3712,
      "differences": 3713,
      "visit": 3714,
      "ashion": 3715,
      "window": 3716,
      "consequences": 3717,
      "rum": 3718,
      "libr": 3719,
      "doz": 3720,
      "bud": 3721,
      "breath": 3722,
      "entirely": 3723,
      "artificial": 3724,
      "anyway": 3725,
      "sac": 3726,
      "sch": 3727,
      "moves": 3728,
      "grown": 3729,
      "scen": 3730,
      "scri": 3731,
      "generations": 3732,
      "fli": 3733,
      "tissue": 3734,
      "meters": 3735,
      "investig": 3736,
      "daily": 3737,
      "shouldn": 3738,
      "park": 3739,
      "harder": 3740,
      "signals": 3741,
      "fresh": 3742,
      "currently": 3743,
      "Tur": 3744,
      "French": 3745,
      "IS": 3746,
      "Tim": 3747,
      "fle": 3748,
      "van": 3749,
      "opin": 3750,
      "brings": 3751,
      "constantly": 3752,
      "anda": 3753,
      "feelings": 3754,
      "tremend": 3755,
      "equal": 3756,
      "sister": 3757,
      "Afghan": 3758,
      "esc": 3759,
      "moon": 3760,
      "grade": 3761,
      "calls": 3762,
      "subst": 3763,
      "collective": 3764,
      "mountain": 3765,
      "nan": 3766,
      "toms": 3767,
      "aste": 3768,
      "pregn": 3769,
      "funny": 3770,
      "physic": 3771,
      "Te": 3772,
      "bone": 3773,
      "bright": 3774,
      "bought": 3775,
      "sper": 3776,
      "lock": 3777,
      "resident": 3778,
      "forever": 3779,
      "sidered": 3780,
      "Thanks": 3781,
      "Che": 3782,
      "Fin": 3783,
      "assu": 3784,
      "considered": 3785,
      "soft": 3786,
      "origin": 3787,
      "seed": 3788,
      "unte": 3789,
      "experienced": 3790,
      "immigr": 3791,
      "eli": 3792,
      "fab": 3793,
      "qual": 3794,
      "bub": 3795,
      "trill": 3796,
      "charge": 3797,
      "influence": 3798,
      "lid": 3799,
      "ada": 3800,
      "concent": 3801,
      "techn": 3802,
      "trained": 3803,
      "engineers": 3804,
      "damage": 3805,
      "landscape": 3806,
      "indic": 3807,
      "married": 3808,
      "markets": 3809,
      "More": 3810,
      "ya": 3811,
      "eral": 3812,
      "intu": 3813,
      "previ": 3814,
      "finger": 3815,
      "adapt": 3816,
      "setting": 3817,
      "wheel": 3818,
      "names": 3819,
      "caused": 3820,
      "Su": 3821,
      "fashion": 3822,
      "xim": 3823,
      "zed": 3824,
      "arms": 3825,
      "shel": 3826,
      "identify": 3827,
      "Ob": 3828,
      "irt": 3829,
      "celer": 3830,
      "proud": 3831,
      "internet": 3832,
      "signal": 3833,
      "figured": 3834,
      "Twit": 3835,
      "wearing": 3836,
      "expert": 3837,
      "puzz": 3838,
      "tempor": 3839,
      "chain": 3840,
      "investment": 3841,
      "option": 3842,
      "requires": 3843,
      "Other": 3844,
      "mov": 3845,
      "Good": 3846,
      "aria": 3847,
      "nel": 3848,
      "estab": 3849,
      "bles": 3850,
      "muse": 3851,
      "court": 3852,
      "languages": 3853,
      "conversations": 3854,
      "Austral": 3855,
      "Dan": 3856,
      "assem": 3857,
      "ifically": 3858,
      "fro": 3859,
      "rew": 3860,
      "encing": 3861,
      "izes": 3862,
      "avy": 3863,
      "avid": 3864,
      "zon": 3865,
      "noise": 3866,
      "Char": 3867,
      "generate": 3868,
      "spending": 3869,
      "European": 3870,
      "received": 3871,
      "cod": 3872,
      "rit": 3873,
      "trau": 3874,
      "productive": 3875,
      "keeping": 3876,
      "brill": 3877,
      "employe": 3878,
      "invisible": 3879,
      "flight": 3880,
      "horri": 3881,
      "symbol": 3882,
      "leng": 3883,
      "usual": 3884,
      "boat": 3885,
      "studied": 3886,
      "imagination": 3887,
      "Twitter": 3888,
      "400": 3889,
      "Mex": 3890,
      "cro": 3891,
      "heads": 3892,
      "caught": 3893,
      "accident": 3894,
      "professional": 3895,
      "leaves": 3896,
      "Ju": 3897,
      "Mr": 3898,
      "illness": 3899,
      "custom": 3900,
      "begins": 3901,
      "watched": 3902,
      "dinner": 3903,
      "gentle": 3904,
      "lu": 3905,
      "vest": 3906,
      "slowly": 3907,
      "kilome": 3908,
      "Am": 3909,
      "pun": 3910,
      "ulate": 3911,
      "cycl": 3912,
      "ibilities": 3913,
      "risks": 3914,
      "failed": 3915,
      "deeper": 3916,
      "struggle": 3917,
      "advantage": 3918,
      "folks": 3919,
      "Hum": 3920,
      "shar": 3921,
      "calling": 3922,
      "associated": 3923,
      "rom": 3924,
      "rates": 3925,
      "appreci": 3926,
      "perfectly": 3927,
      "Braz": 3928,
      "ky": 3929,
      "ining": 3930,
      "tox": 3931,
      "precise": 3932,
      "organisms": 3933,
      "muscle": 3934,
      "warm": 3935,
      "norm": 3936,
      "continent": 3937,
      "promis": 3938,
      "copy": 3939,
      "slide": 3940,
      "Audience": 3941,
      "extend": 3942,
      "colors": 3943,
      "opened": 3944,
      "trend": 3945,
      "businesses": 3946,
      "Cam": 3947,
      "Ed": 3948,
      "Their": 3949,
      "cope": 3950,
      "genome": 3951,
      "conduct": 3952,
      "museum": 3953,
      "vote": 3954,
      "zone": 3955,
      "cook": 3956,
      "foss": 3957,
      "epide": 3958,
      "compared": 3959,
      "childhood": 3960,
      "insight": 3961,
      "British": 3962,
      "mort": 3963,
      "asp": 3964,
      "icking": 3965,
      "acceler": 3966,
      "ques": 3967,
      "novel": 3968,
      "impress": 3969,
      "gency": 3970,
      "closed": 3971,
      "competition": 3972,
      "fal": 3973,
      "tes": 3974,
      "enn": 3975,
      "oted": 3976,
      "aul": 3977,
      "surprise": 3978,
      "limit": 3979,
      "consist": 3980,
      "Ac": 3981,
      "Sun": 3982,
      "hell": 3983,
      "blow": 3984,
      "leads": 3985,
      "osaur": 3986,
      "mothers": 3987,
      "facing": 3988,
      "volunte": 3989,
      "voices": 3990,
      "domin": 3991,
      "gment": 3992,
      "sight": 3993,
      "ils": 3994,
      "sites": 3995,
      "inner": 3996,
      "succeed": 3997,
      "metaph": 3998,
      "hypo": 3999,
      "typical": 4000,
      "Niger": 4001,
      "inking": 4002,
      "losing": 4003,
      "mod": 4004,
      "erson": 4005,
      "creatures": 4006,
      "double": 4007,
      "platform": 4008,
      "ked": 4009,
      "reaction": 4010,
      "coast": 4011,
      "marri": 4012,
      "hydro": 4013,
      "collap": 4014,
      "psych": 4015,
      "bis": 4016,
      "agers": 4017,
      "finished": 4018,
      "males": 4019,
      "university": 4020,
      "Actually": 4021,
      "Ad": 4022,
      "Ha": 4023,
      "Mc": 4024,
      "Since": 4025,
      "Washing": 4026,
      "emic": 4027,
      "managed": 4028,
      "transp": 4029,
      "ruption": 4030,
      "protein": 4031,
      "David": 4032,
      "Would": 4033,
      "hea": 4034,
      "liqu": 4035,
      "fell": 4036,
      "worried": 4037,
      "coal": 4038,
      "operation": 4039,
      "separate": 4040,
      "yellow": 4041,
      "Ira": 4042,
      "gather": 4043,
      "estic": 4044,
      "covered": 4045,
      "foreign": 4046,
      "ull": 4047,
      "igno": 4048,
      "otherwise": 4049,
      "lesson": 4050,
      "designers": 4051,
      "Washington": 4052,
      "Des": 4053,
      "cate": 4054,
      "uary": 4055,
      "section": 4056,
      "angle": 4057,
      "factors": 4058,
      "treated": 4059,
      "Ama": 4060,
      "iev": 4061,
      "tories": 4062,
      "aran": 4063,
      "idents": 4064,
      "desire": 4065,
      "discovery": 4066,
      "jail": 4067,
      "replace": 4068,
      "carto": 4069,
      "warming": 4070,
      "survival": 4071,
      "gin": 4072,
      "roof": 4073,
      "acts": 4074,
      "Indian": 4075,
      "described": 4076,
      "mur": 4077,
      "pill": 4078,
      "vous": 4079,
      "wire": 4080,
      "arts": 4081,
      "hip": 4082,
      "highest": 4083,
      "expected": 4084,
      "relev": 4085,
      "witness": 4086,
      "Iraq": 4087,
      "Have": 4088,
      "ubl": 4089,
      "restaur": 4090,
      "complexity": 4091,
      "doub": 4092,
      "algorithms": 4093,
      "Fran": 4094,
      "zing": 4095,
      "bees": 4096,
      "rian": 4097,
      "oceans": 4098,
      "define": 4099,
      "pollution": 4100,
      "hidden": 4101,
      "Again": 4102,
      "ays": 4103,
      "creation": 4104,
      "dial": 4105,
      "osity": 4106,
      "narrative": 4107,
      "virtual": 4108,
      "movies": 4109,
      "Black": 4110,
      "IT": 4111,
      "vere": 4112,
      "agon": 4113,
      "198": 4114,
      "privi": 4115,
      "weapons": 4116,
      "phenomenon": 4117,
      "King": 4118,
      "shut": 4119,
      "partment": 4120,
      "ships": 4121,
      "tremendous": 4122,
      "En": 4123,
      "llect": 4124,
      "pig": 4125,
      "unless": 4126,
      "unfortunately": 4127,
      "scene": 4128,
      "cheap": 4129,
      "Egy": 4130,
      "batter": 4131,
      "mber": 4132,
      "tour": 4133,
      "fellow": 4134,
      "grab": 4135,
      "destr": 4136,
      "obsess": 4137,
      "trip": 4138,
      "malaria": 4139,
      "strength": 4140,
      "vulnerable": 4141,
      "anth": 4142,
      "ston": 4143,
      "essential": 4144,
      "planning": 4145,
      "processes": 4146,
      "violent": 4147,
      "si": 4148,
      "orbit": 4149,
      "acle": 4150,
      "acters": 4151,
      "Does": 4152,
      "commercial": 4153,
      "brilliant": 4154,
      "gi": 4155,
      "argue": 4156,
      "exists": 4157,
      "newsp": 4158,
      "crack": 4159,
      "experts": 4160,
      "invited": 4161,
      "intellect": 4162,
      "trial": 4163,
      "connections": 4164,
      "debate": 4165,
      "cognitive": 4166,
      "Gre": 4167,
      "Gree": 4168,
      "bly": 4169,
      "uit": 4170,
      "bear": 4171,
      "solved": 4172,
      "factory": 4173,
      "characters": 4174,
      "circle": 4175,
      "sorry": 4176,
      "exercise": 4177,
      "symptoms": 4178,
      "remote": 4179,
      "Afghanistan": 4180,
      "45": 4181,
      "reward": 4182,
      "sector": 4183,
      "stim": 4184,
      "conference": 4185,
      "iving": 4186,
      "trig": 4187,
      "engineer": 4188,
      "location": 4189,
      "flies": 4190,
      "nervous": 4191,
      "Asia": 4192,
      "followed": 4193,
      "fields": 4194,
      "circum": 4195,
      "trillion": 4196,
      "Kore": 4197,
      "battle": 4198,
      "icon": 4199,
      "metal": 4200,
      "driven": 4201,
      "paint": 4202,
      "existence": 4203,
      "microbes": 4204,
      "argument": 4205,
      "bow": 4206,
      "dress": 4207,
      "poem": 4208,
      "bran": 4209,
      "wake": 4210,
      "eleph": 4211,
      "quiet": 4212,
      "layer": 4213,
      "strateg": 4214,
      "surprised": 4215,
      "Yet": 4216,
      "migr": 4217,
      "rural": 4218,
      "incent": 4219,
      "shif": 4220,
      "bert": 4221,
      "presents": 4222,
      "surge": 4223,
      "versus": 4224,
      "facts": 4225,
      "producing": 4226,
      "Middle": 4227,
      "apo": 4228,
      "blog": 4229,
      "ault": 4230,
      "strain": 4231,
      "hurt": 4232,
      "maintain": 4233,
      "II": 4234,
      "loud": 4235,
      "sides": 4236,
      "infin": 4237,
      "seat": 4238,
      "according": 4239,
      "aff": 4240,
      "thoughts": 4241,
      "election": 4242,
      "Islam": 4243,
      "classroom": 4244,
      "increased": 4245,
      "release": 4246,
      "analysis": 4247,
      "concerned": 4248,
      "pil": 4249,
      "uries": 4250,
      "ander": 4251,
      "peak": 4252,
      "aming": 4253,
      "olly": 4254,
      "scul": 4255,
      "paying": 4256,
      "DP": 4257,
      "DS": 4258,
      "Val": 4259,
      "rational": 4260,
      "itals": 4261,
      "oman": 4262,
      "acad": 4263,
      "stood": 4264,
      "mentioned": 4265,
      "bors": 4266,
      "ware": 4267,
      "stone": 4268,
      "umber": 4269,
      "colon": 4270,
      "regard": 4271,
      "magaz": 4272,
      "CO2": 4273,
      "vac": 4274,
      "ancing": 4275,
      "atically": 4276,
      "frag": 4277,
      "perce": 4278,
      "urally": 4279,
      "breast": 4280,
      "ification": 4281,
      "launch": 4282,
      "pi": 4283,
      "inj": 4284,
      "encourage": 4285,
      "prop": 4286,
      "observ": 4287,
      "sentence": 4288,
      "mathematics": 4289,
      "75": 4290,
      "zy": 4291,
      "spring": 4292,
      "served": 4293,
      "construction": 4294,
      "spoke": 4295,
      "fascinating": 4296,
      "nit": 4297,
      "tap": 4298,
      "thesis": 4299,
      "whom": 4300,
      "attach": 4301,
      "gling": 4302,
      "issions": 4303,
      "principle": 4304,
      "Bu": 4305,
      "spl": 4306,
      "tall": 4307,
      "island": 4308,
      "aud": 4309,
      "prove": 4310,
      "click": 4311,
      "dinosaur": 4312,
      "graduate": 4313,
      "abuse": 4314,
      "implic": 4315,
      "plus": 4316,
      "notion": 4317,
      "puts": 4318,
      "preser": 4319,
      "minim": 4320,
      "organized": 4321,
      "grandmother": 4322,
      "intelligent": 4323,
      "houses": 4324,
      "liquid": 4325,
      "Could": 4326,
      "chick": 4327,
      "videos": 4328,
      "testing": 4329,
      "seriously": 4330,
      "reveal": 4331,
      "clock": 4332,
      "sugar": 4333,
      "criminal": 4334,
      "Mexico": 4335,
      "eld": 4336,
      "solid": 4337,
      "ensity": 4338,
      "install": 4339,
      "President": 4340,
      "pure": 4341,
      "radical": 4342,
      "Germany": 4343,
      "crowd": 4344,
      "Big": 4345,
      "lege": 4346,
      "imple": 4347,
      "operating": 4348,
      "shoes": 4349,
      "adult": 4350,
      "increasingly": 4351,
      "heavy": 4352,
      "goals": 4353,
      "frustr": 4354,
      "extin": 4355,
      "capture": 4356,
      "dealing": 4357,
      "quito": 4358,
      "neighbors": 4359,
      "principles": 4360,
      "refugees": 4361,
      "makers": 4362,
      "usive": 4363,
      "users": 4364,
      "acting": 4365,
      "emissions": 4366,
      "plays": 4367,
      "proteins": 4368,
      "universal": 4369,
      "cking": 4370,
      "tag": 4371,
      "teles": 4372,
      "tric": 4373,
      "fake": 4374,
      "cultures": 4375,
      "blocks": 4376,
      "existing": 4377,
      "wisdom": 4378,
      "kilometers": 4379,
      "Dar": 4380,
      "Min": 4381,
      "Qu": 4382,
      "added": 4383,
      "definitely": 4384,
      "encies": 4385,
      "contract": 4386,
      "emb": 4387,
      "centuries": 4388,
      "compare": 4389,
      "interaction": 4390,
      "breaking": 4391,
      "entional": 4392,
      "drawing": 4393,
      "brief": 4394,
      "las": 4395,
      "nav": 4396,
      "chip": 4397,
      "advert": 4398,
      "crete": 4399,
      "mistry": 4400,
      "potentially": 4401,
      "antibi": 4402,
      "Lat": 4403,
      "achiev": 4404,
      "however": 4405,
      "angers": 4406,
      "Isra": 4407,
      "profession": 4408,
      "atoms": 4409,
      "clinical": 4410,
      "marriage": 4411,
      "3D": 4412,
      "shapes": 4413,
      "equival": 4414,
      "broke": 4415,
      "lawy": 4416,
      "electrical": 4417,
      "appeared": 4418,
      "released": 4419,
      "fairly": 4420,
      "options": 4421,
      "launched": 4422,
      "cil": 4423,
      "ctors": 4424,
      "pounds": 4425,
      "rend": 4426,
      "magn": 4427,
      "etc": 4428,
      "wondering": 4429,
      "activities": 4430,
      "statistics": 4431,
      "demonstr": 4432,
      "Rep": 4433,
      "bic": 4434,
      "gay": 4435,
      "drink": 4436,
      "galaxy": 4437,
      "curious": 4438,
      "concentr": 4439,
      "Em": 4440,
      "ius": 4441,
      "pow": 4442,
      "reject": 4443,
      "toward": 4444,
      "suic": 4445,
      "hadn": 4446,
      "flag": 4447,
      "views": 4448,
      "cule": 4449,
      "causing": 4450,
      "messages": 4451,
      "alternative": 4452,
      "bare": 4453,
      "bread": 4454,
      "instruct": 4455,
      "empathy": 4456,
      "include": 4457,
      "Life": 4458,
      "sequence": 4459,
      "institution": 4460,
      "citizen": 4461,
      "victims": 4462,
      "gravity": 4463,
      "mosquito": 4464,
      "150": 4465,
      "flex": 4466,
      "sla": 4467,
      "eness": 4468,
      "selling": 4469,
      "article": 4470,
      "till": 4471,
      "possibilities": 4472,
      "fishing": 4473,
      "professor": 4474,
      "arrived": 4475,
      "agriculture": 4476,
      "sculpt": 4477,
      "35": 4478,
      "saved": 4479,
      "assist": 4480,
      "picked": 4481,
      "forests": 4482,
      "satis": 4483,
      "false": 4484,
      "Ke": 4485,
      "cow": 4486,
      "hack": 4487,
      "esome": 4488,
      "asy": 4489,
      "ctions": 4490,
      "explan": 4491,
      "spin": 4492,
      "appropri": 4493,
      "operate": 4494,
      "confidence": 4495,
      "motor": 4496,
      "quote": 4497,
      "vessel": 4498,
      "shame": 4499,
      "designing": 4500,
      "signs": 4501,
      "status": 4502,
      "soldiers": 4503,
      "details": 4504,
      "civilization": 4505,
      "metaphor": 4506,
      "itute": 4507,
      "accompl": 4508,
      "20th": 4509,
      "chemistry": 4510,
      "fourth": 4511,
      "photos": 4512,
      "oxide": 4513,
      "situations": 4514,
      "chemicals": 4515,
      "Rich": 4516,
      "pitch": 4517,
      "orge": 4518,
      "Three": 4519,
      "variety": 4520,
      "desert": 4521,
      "rapidly": 4522,
      "gut": 4523,
      "estim": 4524,
      "strict": 4525,
      "rub": 4526,
      "barri": 4527,
      "length": 4528,
      "Francis": 4529,
      "Women": 4530,
      "kick": 4531,
      "kitch": 4532,
      "lunch": 4533,
      "vention": 4534,
      "alle": 4535,
      "upid": 4536,
      "importance": 4537,
      "cular": 4538,
      "reached": 4539,
      "management": 4540,
      "Brazil": 4541,
      "iat": 4542,
      "iency": 4543,
      "ron": 4544,
      "icing": 4545,
      "ests": 4546,
      "morrow": 4547,
      "funding": 4548,
      "defined": 4549,
      "feedback": 4550,
      "holes": 4551,
      "relevant": 4552,
      "Bang": 4553,
      "Pri": 4554,
      "fied": 4555,
      "ube": 4556,
      "whel": 4557,
      "rema": 4558,
      "rig": 4559,
      "internal": 4560,
      "finish": 4561,
      "valuable": 4562,
      "App": 4563,
      "Sha": 4564,
      "tomorrow": 4565,
      "weather": 4566,
      "80s": 4567,
      "honor": 4568,
      "soul": 4569,
      "galaxies": 4570,
      "hide": 4571,
      "mouse": 4572,
      "py": 4573,
      "shad": 4574,
      "uces": 4575,
      "eras": 4576,
      "owner": 4577,
      "dry": 4578,
      "breathe": 4579,
      "organic": 4580,
      "advice": 4581,
      "empty": 4582,
      "Everything": 4583,
      "flood": 4584,
      "combination": 4585,
      "Come": 4586,
      "fis": 4587,
      "pha": 4588,
      "angry": 4589,
      "station": 4590,
      "ears": 4591,
      "hasn": 4592,
      "lifetime": 4593,
      "manip": 4594,
      "solving": 4595,
      "player": 4596,
      "Before": 4597,
      "portion": 4598,
      "keeps": 4599,
      "affected": 4600,
      "property": 4601,
      "70s": 4602,
      "prepared": 4603,
      "Australia": 4604,
      "normally": 4605,
      "equivalent": 4606,
      "Ma": 4607,
      "Paul": 4608,
      "secure": 4609,
      "naturally": 4610,
      "faced": 4611,
      "equip": 4612,
      "hospitals": 4613,
      "Kenya": 4614,
      "iety": 4615,
      "rat": 4616,
      "ison": 4617,
      "stable": 4618,
      "perman": 4619,
      "former": 4620,
      "logic": 4621,
      "Health": 4622,
      "killing": 4623,
      "depends": 4624,
      "sources": 4625,
      "required": 4626,
      "algorithm": 4627,
      "Last": 4628,
      "bust": 4629,
      "rs": 4630,
      "irty": 4631,
      "fron": 4632,
      "agre": 4633,
      "bra": 4634,
      "transition": 4635,
      "politicians": 4636,
      "teams": 4637,
      "radiation": 4638,
      "99": 4639,
      "Mart": 4640,
      "athing": 4641,
      "lor": 4642,
      "vas": 4643,
      "omo": 4644,
      "ads": 4645,
      "grass": 4646,
      "collection": 4647,
      "Bar": 4648,
      "Cor": 4649,
      "mile": 4650,
      "actor": 4651,
      "keys": 4652,
      "grid": 4653,
      "memories": 4654,
      "movements": 4655,
      "driver": 4656,
      "advanced": 4657,
      "convin": 4658,
      "dynamic": 4659,
      "employees": 4660,
      "Bill": 4661,
      "Fe": 4662,
      "pti": 4663,
      "refer": 4664,
      "worlds": 4665,
      "phr": 4666,
      "overwhel": 4667,
      "opening": 4668,
      "element": 4669,
      "resource": 4670,
      "specifically": 4671,
      "Times": 4672,
      "navig": 4673,
      "Ple": 4674,
      "gift": 4675,
      "taste": 4676,
      "neath": 4677,
      "aked": 4678,
      "flat": 4679,
      "talks": 4680,
      "transformation": 4681,
      "stret": 4682,
      "behaviors": 4683,
      "challenging": 4684,
      "consumer": 4685,
      "roughly": 4686,
      "script": 4687,
      "Amazon": 4688,
      "bath": 4689,
      "pages": 4690,
      "wing": 4691,
      "reser": 4692,
      "powered": 4693,
      "interpret": 4694,
      "hopefully": 4695,
      "meaningful": 4696,
      "techniques": 4697,
      "escape": 4698,
      "doubt": 4699,
      "Iran": 4700,
      "ein": 4701,
      "ride": 4702,
      "abled": 4703,
      "ria": 4704,
      "unit": 4705,
      "exhi": 4706,
      "crash": 4707,
      "monitor": 4708,
      "Child": 4709,
      "viruses": 4710,
      "George": 4711,
      "manufacturing": 4712,
      "GDP": 4713,
      "mad": 4714,
      "inary": 4715,
      "sees": 4716,
      "meter": 4717,
      "pulled": 4718,
      "carefully": 4719,
      "north": 4720,
      "cutting": 4721,
      "sensitive": 4722,
      "ancestors": 4723,
      "attacks": 4724,
      "credit": 4725,
      "circumst": 4726,
      "remains": 4727,
      "Dis": 4728,
      "stupid": 4729,
      "height": 4730,
      "youth": 4731,
      "meat": 4732,
      "chimp": 4733,
      "user": 4734,
      "engaged": 4735,
      "environments": 4736,
      "Everybody": 4737,
      "typically": 4738,
      "organs": 4739,
      "perception": 4740,
      "anxiety": 4741,
      "execut": 4742,
      "convinced": 4743,
      "Park": 4744,
      "iest": 4745,
      "vation": 4746,
      "vard": 4747,
      "iters": 4748,
      "guide": 4749,
      "pointed": 4750,
      "designer": 4751,
      "coral": 4752,
      "Canada": 4753,
      "evolutionary": 4754,
      "relatively": 4755,
      "fossil": 4756,
      "biscuit": 4757,
      "pin": 4758,
      "tured": 4759,
      "abstr": 4760,
      "seek": 4761,
      "eval": 4762,
      "partners": 4763,
      "diet": 4764,
      "pected": 4765,
      "apping": 4766,
      "Atl": 4767,
      "sending": 4768,
      "unex": 4769,
      "dimensional": 4770,
      "consumption": 4771,
      "Cl": 4772,
      "ister": 4773,
      "itarian": 4774,
      "ari": 4775,
      "veget": 4776,
      "femin": 4777,
      "tired": 4778,
      "ideal": 4779,
      "visible": 4780,
      "cortex": 4781,
      "AIDS": 4782,
      "bomb": 4783,
      "Sil": 4784,
      "Vi": 4785,
      "hes": 4786,
      "ald": 4787,
      "ams": 4788,
      "plate": 4789,
      "evil": 4790,
      "empower": 4791,
      "pray": 4792,
      "vibr": 4793,
      "rising": 4794,
      "spectrum": 4795,
      "receive": 4796,
      "sports": 4797,
      "season": 4798,
      "epidemic": 4799,
      "kitchen": 4800,
      "Pat": 4801,
      "School": 4802,
      "insu": 4803,
      "theater": 4804,
      "reci": 4805,
      "ops": 4806,
      "notes": 4807,
      "effectively": 4808,
      "tumor": 4809,
      "equipment": 4810,
      "lens": 4811,
      "represents": 4812,
      "encour": 4813,
      "arrest": 4814,
      "myth": 4815,
      "milk": 4816,
      "constant": 4817,
      "mistake": 4818,
      "technical": 4819,
      "Einst": 4820,
      "san": 4821,
      "replic": 4822,
      "chose": 4823,
      "grant": 4824,
      "thinks": 4825,
      "marine": 4826,
      "players": 4827,
      "horiz": 4828,
      "suffer": 4829,
      "mistakes": 4830,
      "satellite": 4831,
      "Green": 4832,
      "Bro": 4833,
      "Very": 4834,
      "border": 4835,
      "fying": 4836,
      "nations": 4837,
      "aters": 4838,
      "absor": 4839,
      "expression": 4840,
      "desper": 4841,
      "regions": 4842,
      "allowing": 4843,
      "protected": 4844,
      "molecule": 4845,
      "cards": 4846,
      "primary": 4847,
      "Bl": 4848,
      "Cong": 4849,
      "Pal": 4850,
      "thick": 4851,
      "features": 4852,
      "worldwide": 4853,
      "clothes": 4854,
      "economics": 4855,
      "fundamentally": 4856,
      "survey": 4857,
      "21st": 4858,
      "candid": 4859,
      "staff": 4860,
      "Stre": 4861,
      "protection": 4862,
      "astronom": 4863,
      "introduce": 4864,
      "instrument": 4865,
      "insects": 4866,
      "Alex": 4867,
      "stro": 4868,
      "ums": 4869,
      "underneath": 4870,
      "occup": 4871,
      "tests": 4872,
      "falling": 4873,
      "introduced": 4874,
      "clouds": 4875,
      "elimin": 4876,
      "23": 4877,
      "dia": 4878,
      "iver": 4879,
      "doors": 4880,
      "teeth": 4881,
      "inequality": 4882,
      "assign": 4883,
      "England": 4884,
      "scope": 4885,
      "mirror": 4886,
      "scary": 4887,
      "Einstein": 4888,
      "Number": 4889,
      "Sing": 4890,
      "Tom": 4891,
      "insur": 4892,
      "odd": 4893,
      "inevit": 4894,
      "technological": 4895,
      "joined": 4896,
      "burning": 4897,
      "France": 4898,
      "roads": 4899,
      "therapy": 4900,
      "CEO": 4901,
      "magazine": 4902,
      "Cent": 4903,
      "independent": 4904,
      "weigh": 4905,
      "bee": 4906,
      "ented": 4907,
      "lift": 4908,
      "concrete": 4909,
      "resili": 4910,
      "reef": 4911,
      "awesome": 4912,
      "90s": 4913,
      "awareness": 4914,
      "distribution": 4915,
      "library": 4916,
      "previous": 4917,
      "Congress": 4918,
      "MIT": 4919,
      "bond": 4920,
      "fiction": 4921,
      "rhy": 4922,
      "south": 4923,
      "tack": 4924,
      "recycl": 4925,
      "exchange": 4926,
      "prescri": 4927,
      "ternal": 4928,
      "advent": 4929,
      "appears": 4930,
      "amounts": 4931,
      "stronger": 4932,
      "silence": 4933,
      "molecular": 4934,
      "Ben": 4935,
      "Red": 4936,
      "ision": 4937,
      "actors": 4938,
      "ulation": 4939,
      "intense": 4940,
      "stock": 4941,
      "scared": 4942,
      "shoot": 4943,
      "policies": 4944,
      "infected": 4945,
      "pleasure": 4946,
      "ker": 4947,
      "nger": 4948,
      "argu": 4949,
      "ctic": 4950,
      "excl": 4951,
      "formal": 4952,
      "fewer": 4953,
      "generally": 4954,
      "autism": 4955,
      "providing": 4956,
      "Harvard": 4957,
      "beach": 4958,
      "aret": 4959,
      "neut": 4960,
      "grap": 4961,
      "lessons": 4962,
      "entertain": 4963,
      "discuss": 4964,
      "fif": 4965,
      "cents": 4966,
      "thanks": 4967,
      "diverse": 4968,
      "writer": 4969,
      "bias": 4970,
      "processing": 4971,
      "advoc": 4972,
      "Only": 4973,
      "Japanese": 4974,
      "implement": 4975,
      "Tube": 4976,
      "ood": 4977,
      "winter": 4978,
      "omed": 4979,
      "ching": 4980,
      "sophistic": 4981,
      "resistance": 4982,
      "Span": 4983,
      "raw": 4984,
      "otics": 4985,
      "boo": 4986,
      "prefer": 4987,
      "netic": 4988,
      "autonom": 4989,
      "muscles": 4990,
      "controlled": 4991,
      "physically": 4992,
      "certainty": 4993,
      "cameras": 4994,
      "statement": 4995,
      "60s": 4996,
      "mathematical": 4997,
      "susp": 4998,
      "Pol": 4999,
      "greg": 5000,
      "pul": 5001,
      "younger": 5002,
      "quit": 5003,
      "shell": 5004,
      "committed": 5005,
      "holds": 5006,
      "Muslim": 5007,
      "properties": 5008,
      "sample": 5009,
      "temporary": 5010,
      "toxic": 5011,
      "restaurant": 5012,
      "22": 5013,
      "Ser": 5014,
      "remove": 5015,
      "church": 5016,
      "whenever": 5017,
      "marke": 5018,
      "memor": 5019,
      "burn": 5020,
      "Britain": 5021,
      "sweet": 5022,
      "eggs": 5023,
      "Four": 5024,
      "gro": 5025,
      "hill": 5026,
      "outcome": 5027,
      "thered": 5028,
      "pool": 5029,
      "overcome": 5030,
      "serving": 5031,
      "occas": 5032,
      "participate": 5033,
      "carrying": 5034,
      "dedic": 5035,
      "initi": 5036,
      "600": 5037,
      "Bas": 5038,
      "fruit": 5039,
      "shr": 5040,
      "button": 5041,
      "cipl": 5042,
      "ptions": 5043,
      "smile": 5044,
      "domestic": 5045,
      "tasks": 5046,
      "budget": 5047,
      "Par": 5048,
      "etry": 5049,
      "via": 5050,
      "inations": 5051,
      "liked": 5052,
      "conver": 5053,
      "unknown": 5054,
      "earch": 5055,
      "distr": 5056,
      "corruption": 5057,
      "explained": 5058,
      "privacy": 5059,
      "German": 5060,
      "vaccine": 5061,
      "intellectual": 5062,
      "Street": 5063,
      "ume": 5064,
      "bell": 5065,
      "terday": 5066,
      "combined": 5067,
      "MR": 5068,
      "nose": 5069,
      "centers": 5070,
      "disorder": 5071,
      "dioxide": 5072,
      "Unfortunately": 5073,
      "collected": 5074,
      "recorded": 5075,
      "boxes": 5076,
      "traveling": 5077,
      "Gal": 5078,
      "bition": 5079,
      "snow": 5080,
      "god": 5081,
      "ours": 5082,
      "YouTube": 5083,
      "handle": 5084,
      "Ange": 5085,
      "continued": 5086,
      "firm": 5087,
      "quarter": 5088,
      "Francisco": 5089,
      ".'": 5090,
      "Paris": 5091,
      "Sou": 5092,
      "lun": 5093,
      "toi": 5094,
      "enable": 5095,
      "army": 5096,
      "roots": 5097,
      "goods": 5098,
      "practices": 5099,
      "records": 5100,
      "mountains": 5101,
      "housing": 5102,
      "opinion": 5103,
      "kno": 5104,
      "lone": 5105,
      "stal": 5106,
      "determ": 5107,
      "amin": 5108,
      "garden": 5109,
      "Please": 5110,
      "determine": 5111,
      "2000": 5112,
      "Vo": 5113,
      "thus": 5114,
      "itution": 5115,
      "forts": 5116,
      "coordin": 5117,
      "scop": 5118,
      "experiencing": 5119,
      "globe": 5120,
      "equally": 5121,
      "tested": 5122,
      "Also": 5123,
      "hyper": 5124,
      "NASA": 5125,
      "sensors": 5126,
      "emerging": 5127,
      "pushing": 5128,
      "judge": 5129,
      "vehicle": 5130,
      "Spanish": 5131,
      "PR": 5132,
      "SD": 5133,
      "ske": 5134,
      "style": 5135,
      "abol": 5136,
      "proof": 5137,
      "buying": 5138,
      "generated": 5139,
      "runs": 5140,
      "topic": 5141,
      "equality": 5142,
      "psychological": 5143,
      "ecosystem": 5144,
      "Perhaps": 5145,
      "assume": 5146,
      "destruction": 5147,
      "Bank": 5148,
      "cute": 5149,
      "uri": 5150,
      "extract": 5151,
      "shaped": 5152,
      "factor": 5153,
      "applied": 5154,
      "electron": 5155,
      "grandfather": 5156,
      "innovative": 5157,
      "methods": 5158,
      "Talk": 5159,
      "entrepreneurs": 5160,
      "El": 5161,
      "GO": 5162,
      "PM": 5163,
      "vic": 5164,
      "renew": 5165,
      "repair": 5166,
      "ifying": 5167,
      "apparent": 5168,
      "Everyone": 5169,
      "Richard": 5170,
      "Center": 5171,
      "kne": 5172,
      "rab": 5173,
      "tee": 5174,
      "goti": 5175,
      "arrass": 5176,
      "practical": 5177,
      "swimming": 5178,
      "puzzle": 5179,
      "agreed": 5180,
      "Fort": 5181,
      "Wow": 5182,
      "dict": 5183,
      "vot": 5184,
      "posing": 5185,
      "functions": 5186,
      "Remember": 5187,
      "score": 5188,
      "embrace": 5189,
      "components": 5190,
      "Sm": 5191,
      "dign": 5192,
      "infl": 5193,
      "ingred": 5194,
      "severe": 5195,
      "iron": 5196,
      "negoti": 5197,
      "missed": 5198,
      "classes": 5199,
      "meetings": 5200,
      "convince": 5201,
      "During": 5202,
      "Sat": 5203,
      "Swed": 5204,
      "dots": 5205,
      "gall": 5206,
      "recomm": 5207,
      "omes": 5208,
      "outcomes": 5209,
      "decre": 5210,
      "foundation": 5211,
      "breathing": 5212,
      "largely": 5213,
      "films": 5214,
      "surrounded": 5215,
      "corporate": 5216,
      "pregnant": 5217,
      "embarrass": 5218,
      "mitted": 5219,
      "rush": 5220,
      "error": 5221,
      "stair": 5222,
      "desk": 5223,
      "presence": 5224,
      "interests": 5225,
      "advance": 5226,
      "participants": 5227,
      "raising": 5228,
      "passionate": 5229,
      "fabric": 5230,
      "appropriate": 5231,
      "circumstances": 5232,
      "dust": 5233,
      "va": 5234,
      "reven": 5235,
      "herself": 5236,
      "contains": 5237,
      "awful": 5238,
      "196": 5239,
      "deaths": 5240,
      "Frank": 5241,
      "mechanism": 5242,
      "inspiration": 5243,
      "aspects": 5244,
      "Mil": 5245,
      "Part": 5246,
      "ito": 5247,
      "ensure": 5248,
      "proced": 5249,
      "disaster": 5250,
      "asks": 5251,
      "trials": 5252,
      "devast": 5253,
      "feeding": 5254,
      "collaboration": 5255,
      "curiosity": 5256,
      "accurate": 5257,
      "27": 5258,
      "ike": 5259,
      "vital": 5260,
      "west": 5261,
      "leap": 5262,
      "acles": 5263,
      "oph": 5264,
      "discrimin": 5265,
      "discipl": 5266,
      "increases": 5267,
      "pursu": 5268,
      "conventional": 5269,
      "emergency": 5270,
      "conservation": 5271,
      "applications": 5272,
      "schol": 5273,
      "Nigeria": 5274,
      "Latin": 5275,
      "Ant": 5276,
      "Glo": 5277,
      "Rob": 5278,
      "cers": 5279,
      "recru": 5280,
      "liver": 5281,
      "root": 5282,
      "exposed": 5283,
      "phan": 5284,
      "healthcare": 5285,
      "painful": 5286,
      "efficiency": 5287,
      "discussion": 5288,
      "Israel": 5289,
      "rhyth": 5290,
      "Spe": 5291,
      "Scot": 5292,
      "Wi": 5293,
      "phas": 5294,
      "ounce": 5295,
      "toler": 5296,
      "poly": 5297,
      "berg": 5298,
      "dropped": 5299,
      "aneously": 5300,
      "contrast": 5301,
      "cartoon": 5302,
      "Darwin": 5303,
      "powers": 5304,
      "Get": 5305,
      "Mary": 5306,
      "fan": 5307,
      "gam": 5308,
      "ology": 5309,
      "lean": 5310,
      "constrain": 5311,
      "illegal": 5312,
      "Web": 5313,
      "umps": 5314,
      "Chica": 5315,
      "imagined": 5316,
      "economies": 5317,
      "volume": 5318,
      "lady": 5319,
      "Chicago": 5320,
      "DA": 5321,
      "Sim": 5322,
      "Wal": 5323,
      "bat": 5324,
      "mates": 5325,
      "andon": 5326,
      "icient": 5327,
      "admit": 5328,
      "confront": 5329,
      "efforts": 5330,
      "personally": 5331,
      "poses": 5332,
      "simpl": 5333,
      "walks": 5334,
      "printing": 5335,
      "represented": 5336,
      "divide": 5337,
      "transportation": 5338,
      "dramatic": 5339,
      "zoom": 5340,
      "Finally": 5341,
      "Valley": 5342,
      "James": 5343,
      "bones": 5344,
      "item": 5345,
      "ara": 5346,
      "heim": 5347,
      "arent": 5348,
      "poetry": 5349,
      "airplane": 5350,
      "harvest": 5351,
      "reaching": 5352,
      "confident": 5353,
      "reported": 5354,
      "clip": 5355,
      "dimensions": 5356,
      "ounced": 5357,
      "linked": 5358,
      "determined": 5359,
      "suicide": 5360,
      "EM": 5361,
      "Gener": 5362,
      "House": 5363,
      "resolution": 5364,
      "abs": 5365,
      "coach": 5366,
      "guaran": 5367,
      "engaging": 5368,
      "grows": 5369,
      "organism": 5370,
      "digit": 5371,
      "recognized": 5372,
      "offered": 5373,
      "Research": 5374,
      "privilege": 5375,
      "Lu": 5376,
      "rocket": 5377,
      "dogs": 5378,
      "astro": 5379,
      "carried": 5380,
      "computing": 5381,
      "musical": 5382,
      "boring": 5383,
      "closely": 5384,
      "stayed": 5385,
      "medium": 5386,
      "alien": 5387,
      "refugee": 5388,
      "About": 5389,
      "horizon": 5390,
      "sophisticated": 5391,
      "Sci": 5392,
      "dot": 5393,
      "rors": 5394,
      "anze": 5395,
      "plot": 5396,
      "pharm": 5397,
      "command": 5398,
      "2010": 5399,
      "busy": 5400,
      "Nobody": 5401,
      "populations": 5402,
      "falls": 5403,
      "brothers": 5404,
      "hoping": 5405,
      "framework": 5406,
      "Next": 5407,
      "mate": 5408,
      "ero": 5409,
      "noon": 5410,
      "ignor": 5411,
      "drag": 5412,
      "invention": 5413,
      "planes": 5414,
      "transfer": 5415,
      "champ": 5416,
      "breaks": 5417,
      "interactions": 5418,
      "technique": 5419,
      "Air": 5420,
      "ffe": 5421,
      "gers": 5422,
      "lem": 5423,
      "uncomfortable": 5424,
      "illustr": 5425,
      "struck": 5426,
      "pressing": 5427,
      "polar": 5428,
      "wondered": 5429,
      "infection": 5430,
      "dramatically": 5431,
      "PS": 5432,
      "borders": 5433,
      "thent": 5434,
      "llo": 5435,
      "modif": 5436,
      "interface": 5437,
      "measured": 5438,
      "provided": 5439,
      "photographs": 5440,
      "synthetic": 5441,
      "songs": 5442,
      "Project": 5443,
      "authority": 5444,
      "mystery": 5445,
      "barely": 5446,
      "unexpected": 5447,
      "ka": 5448,
      "uel": 5449,
      "yo": 5450,
      "loop": 5451,
      "maxim": 5452,
      "tight": 5453,
      "overall": 5454,
      "evening": 5455,
      "guard": 5456,
      "ballo": 5457,
      "evolve": 5458,
      "appreciate": 5459,
      "hydrogen": 5460,
      "Republ": 5461,
      "Ah": 5462,
      "CR": 5463,
      "Hi": 5464,
      "Los": 5465,
      "cig": 5466,
      "oth": 5467,
      "pas": 5468,
      "tro": 5469,
      "tank": 5470,
      "ato": 5471,
      "stic": 5472,
      "heal": 5473,
      "ami": 5474,
      "197": 5475,
      "limits": 5476,
      "parking": 5477,
      "bottle": 5478,
      "drives": 5479,
      "clever": 5480,
      "truck": 5481,
      "fluid": 5482,
      "performing": 5483,
      "customers": 5484,
      "Human": 5485,
      "newspaper": 5486,
      "cave": 5487,
      "ires": 5488,
      "tire": 5489,
      "joke": 5490,
      "educated": 5491,
      "2008": 5492,
      "deploy": 5493,
      "horse": 5494,
      "steel": 5495,
      "heroes": 5496,
      "ollywood": 5497,
      "lting": 5498,
      "wid": 5499,
      "Anderson": 5500,
      "authent": 5501,
      "adminis": 5502,
      "tration": 5503,
      "comed": 5504,
      "persu": 5505,
      "unlike": 5506,
      "unusual": 5507,
      "maps": 5508,
      "presented": 5509,
      "distinct": 5510,
      "Moon": 5511,
      "fixed": 5512,
      "struggling": 5513,
      "standards": 5514,
      "fingers": 5515,
      "iPh": 5516,
      "rition": 5517,
      "ission": 5518,
      "dol": 5519,
      "herent": 5520,
      "pher": 5521,
      "percentage": 5522,
      "affects": 5523,
      "colleague": 5524,
      "intuitive": 5525,
      "establish": 5526,
      "react": 5527,
      "review": 5528,
      "conven": 5529,
      "plent": 5530,
      "Thom": 5531,
      "ups": 5532,
      "worker": 5533,
      "brown": 5534,
      "udd": 5535,
      "intended": 5536,
      "underwater": 5537,
      "lessly": 5538,
      "singing": 5539,
      "continues": 5540,
      "accessible": 5541,
      "literature": 5542,
      "yesterday": 5543,
      "occurred": 5544,
      "terrorism": 5545,
      "maker": 5546,
      "mortality": 5547,
      "explanation": 5548,
      "Fre": 5549,
      "itors": 5550,
      "behave": 5551,
      "autom": 5552,
      "igen": 5553,
      "ief": 5554,
      "settle": 5555,
      "electro": 5556,
      "trait": 5557,
      "ferti": 5558,
      "surviv": 5559,
      "combine": 5560,
      "democratic": 5561,
      "Pak": 5562,
      "hits": 5563,
      "iti": 5564,
      "rocks": 5565,
      "pled": 5566,
      "logically": 5567,
      "strangers": 5568,
      "minor": 5569,
      "productivity": 5570,
      "figures": 5571,
      "existed": 5572,
      "floating": 5573,
      "winning": 5574,
      "transformed": 5575,
      "destroyed": 5576,
      "battery": 5577,
      "dinosaurs": 5578,
      "marketing": 5579,
      "gon": 5580,
      "prosper": 5581,
      "iled": 5582,
      "disappear": 5583,
      "sheet": 5584,
      "crying": 5585,
      "prepar": 5586,
      "positions": 5587,
      "50s": 5588,
      "drawn": 5589,
      "sunlight": 5590,
      "suggests": 5591,
      "symme": 5592,
      "crucial": 5593,
      "complain": 5594,
      "gentlemen": 5595,
      "Pakistan": 5596,
      "Day": 5597,
      "High": 5598,
      "dies": 5599,
      "nest": 5600,
      "ising": 5601,
      "ita": 5602,
      "fears": 5603,
      "plans": 5604,
      "comment": 5605,
      "frank": 5606,
      "shall": 5607,
      "ension": 5608,
      "preced": 5609,
      "stands": 5610,
      "2015": 5611,
      "iano": 5612,
      "paralle": 5613,
      "Something": 5614,
      "hearts": 5615,
      "director": 5616,
      "Art": 5617,
      "Russia": 5618,
      "infinite": 5619,
      "chimpanze": 5620,
      "Five": 5621,
      "Lad": 5622,
      "Mom": 5623,
      "bally": 5624,
      "fare": 5625,
      "lit": 5626,
      "inf": 5627,
      "iny": 5628,
      "locked": 5629,
      "neither": 5630,
      "adjust": 5631,
      "anta": 5632,
      "shi": 5633,
      "upper": 5634,
      "curve": 5635,
      "cyber": 5636,
      "State": 5637,
      "impacts": 5638,
      "narrow": 5639,
      "nutri": 5640,
      "ignore": 5641,
      "academic": 5642,
      "antibiotics": 5643,
      "fisher": 5644,
      "Sep": 5645,
      "mers": 5646,
      "hael": 5647,
      "delic": 5648,
      "forming": 5649,
      "Star": 5650,
      "millen": 5651,
      "fuels": 5652,
      "repeated": 5653,
      "precisely": 5654,
      "abstract": 5655,
      "Eth": 5656,
      "Jim": 5657,
      "Space": 5658,
      "ba": 5659,
      "yard": 5660,
      "nology": 5661,
      "19th": 5662,
      "prime": 5663,
      "connecting": 5664,
      "recover": 5665,
      "Institute": 5666,
      "Boston": 5667,
      "title": 5668,
      "philosophy": 5669,
      "dozen": 5670,
      "sters": 5671,
      "string": 5672,
      "obst": 5673,
      "homeless": 5674,
      "traits": 5675,
      "shock": 5676,
      "critic": 5677,
      "mathematic": 5678,
      "clinic": 5679,
      "chronic": 5680,
      "nutrition": 5681,
      "consumers": 5682,
      "Korea": 5683,
      "65": 5684,
      "Tech": 5685,
      "twe": 5686,
      "inves": 5687,
      "inject": 5688,
      "ert": 5689,
      "tori": 5690,
      "chart": 5691,
      "correspond": 5692,
      "treatments": 5693,
      "papers": 5694,
      "contribute": 5695,
      "diagnosed": 5696,
      "distributed": 5697,
      "conclusion": 5698,
      "bubble": 5699,
      "aspir": 5700,
      "BG": 5701,
      "Gir": 5702,
      "za": 5703,
      "removed": 5704,
      "enh": 5705,
      "Through": 5706,
      "display": 5707,
      "drinking": 5708,
      "friendly": 5709,
      "passing": 5710,
      "burst": 5711,
      "particle": 5712,
      "historical": 5713,
      "exploration": 5714,
      "horrible": 5715,
      "dignity": 5716,
      "conce": 5717,
      "ferences": 5718,
      "ishment": 5719,
      "distant": 5720,
      "stere": 5721,
      "greenhouse": 5722,
      "psychology": 5723,
      "trauma": 5724,
      "chicken": 5725,
      "authentic": 5726,
      "Mal": 5727,
      "cto": 5728,
      "cats": 5729,
      "tical": 5730,
      "oty": 5731,
      "iders": 5732,
      "abandon": 5733,
      "neural": 5734,
      "rif": 5735,
      "units": 5736,
      "aggress": 5737,
      "filter": 5738,
      "silent": 5739,
      "properly": 5740,
      "repeat": 5741,
      "beliefs": 5742,
      "spiritual": 5743,
      "vehicles": 5744,
      "lungs": 5745,
      "Global": 5746,
      "cous": 5747,
      "fright": 5748,
      "hat": 5749,
      "orest": 5750,
      "rome": 5751,
      "ario": 5752,
      "lyn": 5753,
      "owned": 5754,
      "brave": 5755,
      "boom": 5756,
      "boss": 5757,
      "iped": 5758,
      "addict": 5759,
      "chap": 5760,
      "glac": 5761,
      "journalist": 5762,
      "celebrate": 5763,
      "Michael": 5764,
      "isolated": 5765,
      "vessels": 5766,
      "evalu": 5767,
      "Law": 5768,
      "Mu": 5769,
      "Up": 5770,
      "cue": 5771,
      "dense": 5772,
      "wars": 5773,
      "vey": 5774,
      "trap": 5775,
      "illance": 5776,
      "White": 5777,
      "intention": 5778,
      "relate": 5779,
      "senses": 5780,
      "accum": 5781,
      "apartment": 5782,
      "mamm": 5783,
      "diabet": 5784,
      "insurance": 5785,
      "Pac": 5786,
      "armed": 5787,
      "rog": 5788,
      "feature": 5789,
      "poet": 5790,
      "udes": 5791,
      "afternoon": 5792,
      "instinct": 5793,
      "patent": 5794,
      "signed": 5795,
      "spreading": 5796,
      "sales": 5797,
      "fortunate": 5798,
      "ridicul": 5799,
      "villages": 5800,
      "lifest": 5801,
      "romantic": 5802,
      "strategies": 5803,
      "laser": 5804,
      "diction": 5805,
      "anatom": 5806,
      "tore": 5807,
      "aside": 5808,
      "embed": 5809,
      "intim": 5810,
      "finance": 5811,
      "elev": 5812,
      "depending": 5813,
      "birthday": 5814,
      "focusing": 5815,
      "laboratory": 5816,
      "ultimate": 5817,
      "Jan": 5818,
      "Jer": 5819,
      "Tex": 5820,
      "pump": 5821,
      "tat": 5822,
      "orient": 5823,
      "adop": 5824,
      "traged": 5825,
      "ressing": 5826,
      "wherever": 5827,
      "flower": 5828,
      "personality": 5829,
      "matically": 5830,
      "equation": 5831,
      "recognition": 5832,
      "traveled": 5833,
      "flowers": 5834,
      "salt": 5835,
      "obsessed": 5836,
      "split": 5837,
      "Whe": 5838,
      "Wik": 5839,
      "wound": 5840,
      "reverse": 5841,
      "oma": 5842,
      "lymp": 5843,
      "ague": 5844,
      "illusion": 5845,
      "cohol": 5846,
      "colum": 5847,
      "invite": 5848,
      "mony": 5849,
      "involves": 5850,
      "darkness": 5851,
      "defense": 5852,
      "concern": 5853,
      "official": 5854,
      "categor": 5855,
      "phrase": 5856,
      "Olymp": 5857,
      "bage": 5858,
      "gig": 5859,
      "ply": 5860,
      "tries": 5861,
      "thal": 5862,
      "ende": 5863,
      "chest": 5864,
      "somewhat": 5865,
      "etro": 5866,
      "flash": 5867,
      "datab": 5868,
      "mingly": 5869,
      "tonight": 5870,
      "expectations": 5871,
      "crops": 5872,
      "heimer": 5873,
      "cigaret": 5874,
      "26": 5875,
      "Six": 5876,
      "cash": 5877,
      "returned": 5878,
      "encounter": 5879,
      "cere": 5880,
      "umin": 5881,
      "wanting": 5882,
      "elly": 5883,
      "careful": 5884,
      "pushed": 5885,
      "provides": 5886,
      "vaccines": 5887,
      "trigger": 5888,
      "frankly": 5889,
      "reform": 5890,
      "tracking": 5891,
      "studio": 5892,
      "produces": 5893,
      "Stud": 5894,
      "breed": 5895,
      "captured": 5896,
      "organize": 5897,
      "custo": 5898,
      "treating": 5899,
      "football": 5900,
      "surveillance": 5901,
      "Charles": 5902,
      "Egypt": 5903,
      "slavery": 5904,
      "Gold": 5905,
      "lished": 5906,
      "enzy": 5907,
      "lete": 5908,
      "bered": 5909,
      "adic": 5910,
      "letting": 5911,
      "wenty": 5912,
      "visited": 5913,
      "identified": 5914,
      "classic": 5915,
      "2009": 5916,
      "accepted": 5917,
      "extent": 5918,
      "hungry": 5919,
      "egg": 5920,
      "decline": 5921,
      "achieved": 5922,
      "district": 5923,
      "plenty": 5924,
      "mammals": 5925,
      "Sam": 5926,
      "Sud": 5927,
      "ckets": 5928,
      "yl": 5929,
      "arity": 5930,
      "neck": 5931,
      "ateful": 5932,
      "shirt": 5933,
      "choo": 5934,
      "cheaper": 5935,
      "arency": 5936,
      "hunger": 5937,
      "engagement": 5938,
      "samples": 5939,
      "conservative": 5940,
      "collapse": 5941,
      "Satur": 5942,
      "Und": 5943,
      "dancing": 5944,
      "density": 5945,
      "zheimer": 5946,
      "tea": 5947,
      "apes": 5948,
      "earn": 5949,
      "cock": 5950,
      "clust": 5951,
      "curren": 5952,
      "sett": 5953,
      "Alzheimer": 5954,
      "objective": 5955,
      "circuit": 5956,
      "banks": 5957,
      "application": 5958,
      "paradox": 5959,
      "Obama": 5960,
      "permanent": 5961,
      "dolph": 5962,
      "Mad": 5963,
      "dirty": 5964,
      "lung": 5965,
      "sne": 5966,
      "lip": 5967,
      "external": 5968,
      "reducing": 5969,
      "colate": 5970,
      "smoke": 5971,
      "commitment": 5972,
      "instructions": 5973,
      "fifth": 5974,
      "Angeles": 5975,
      "phase": 5976,
      "iPhone": 5977,
      "Back": 5978,
      "Cal": 5979,
      "alcohol": 5980,
      "abund": 5981,
      "nowhere": 5982,
      "pocket": 5983,
      "stranger": 5984,
      "hook": 5985,
      "humor": 5986,
      "creature": 5987,
      "adding": 5988,
      "educational": 5989,
      "worthy": 5990,
      "ethnic": 5991,
      "loaded": 5992,
      "anticip": 5993,
      "Steve": 5994,
      "Christian": 5995,
      "boundaries": 5996,
      "liberal": 5997,
      "scratch": 5998,
      "component": 5999,
      "exploring": 6000,
      "sharks": 6001,
      "bicy": 6002,
      "River": 6003,
      "du": 6004,
      "mun": 6005,
      "slo": 6006,
      "wine": 6007,
      "ata": 6008,
      "acid": 6009,
      "geome": 6010,
      "outs": 6011,
      "expo": 6012,
      "sage": 6013,
      "reduced": 6014,
      "disagree": 6015,
      "blame": 6016,
      "climb": 6017,
      "hormon": 6018,
      "Demo": 6019,
      "includes": 6020,
      "recep": 6021,
      "campus": 6022,
      "instruments": 6023,
      "flip": 6024,
      "implications": 6025,
      "Texas": 6026,
      "honey": 6027,
      "incar": 6028,
      "ester": 6029,
      "meal": 6030,
      "lig": 6031,
      "tears": 6032,
      "grat": 6033,
      "prices": 6034,
      "dependence": 6035,
      "recording": 6036,
      "medication": 6037,
      "defend": 6038,
      "divided": 6039,
      "Anyway": 6040,
      "welcome": 6041,
      "inspiring": 6042,
      "elder": 6043,
      "Thomas": 6044,
      "Gr": 6045,
      "uk": 6046,
      "nets": 6047,
      "amed": 6048,
      "plug": 6049,
      "Intern": 6050,
      "parties": 6051,
      "writers": 6052,
      "stops": 6053,
      "helpful": 6054,
      "bike": 6055,
      "searching": 6056,
      "identical": 6057,
      "elections": 6058,
      "microscope": 6059,
      "layers": 6060,
      "Without": 6061,
      "functional": 6062,
      "paradig": 6063,
      "seeds": 6064,
      "CD": 6065,
      "Hal": 6066,
      "cend": 6067,
      "pand": 6068,
      "rice": 6069,
      "lio": 6070,
      "depressed": 6071,
      "bold": 6072,
      "Africans": 6073,
      "Nothing": 6074,
      "consistent": 6075,
      "granted": 6076,
      "Bur": 6077,
      "Cap": 6078,
      "Found": 6079,
      "Lin": 6080,
      "Was": 6081,
      "iop": 6082,
      "request": 6083,
      "stack": 6084,
      "acular": 6085,
      "delive": 6086,
      "assess": 6087,
      "rail": 6088,
      "translate": 6089,
      "ugly": 6090,
      "Stan": 6091,
      "Union": 6092,
      "2007": 6093,
      "confir": 6094,
      "threats": 6095,
      "subjects": 6096,
      "bola": 6097,
      "journalists": 6098,
      "neighborhoods": 6099,
      "manufacture": 6100,
      "route": 6101,
      "scenario": 6102,
      "Tell": 6103,
      "surgeon": 6104,
      "Science": 6105,
      "Under": 6106,
      "delivered": 6107,
      "Gen": 6108,
      "Pl": 6109,
      "Ty": 6110,
      "pit": 6111,
      "zen": 6112,
      "enforce": 6113,
      "lla": 6114,
      "outer": 6115,
      "permission": 6116,
      "articles": 6117,
      "awk": 6118,
      "legacy": 6119,
      "protest": 6120,
      "speakers": 6121,
      "communications": 6122,
      "debt": 6123,
      "immediate": 6124,
      "affordable": 6125,
      "initial": 6126,
      "additional": 6127,
      "latest": 6128,
      "Apple": 6129,
      "Pacific": 6130,
      "Cha": 6131,
      "Grand": 6132,
      "Hu": 6133,
      "Sah": 6134,
      "piano": 6135,
      "skept": 6136,
      "ule": 6137,
      "acqu": 6138,
      "haust": 6139,
      "utter": 6140,
      "exhaust": 6141,
      "grateful": 6142,
      "cooking": 6143,
      "brush": 6144,
      "bless": 6145,
      "shake": 6146,
      "labe": 6147,
      "enemy": 6148,
      "architects": 6149,
      "delivery": 6150,
      "officer": 6151,
      "spoken": 6152,
      "arguments": 6153,
      "automatically": 6154,
      "dozens": 6155,
      "Septem": 6156,
      "International": 6157,
      "theories": 6158,
      "whales": 6159,
      "likes": 6160,
      "del": 6161,
      "odes": 6162,
      "apple": 6163,
      "tie": 6164,
      "aston": 6165,
      "thrown": 6166,
      "handed": 6167,
      "collecting": 6168,
      "concepts": 6169,
      "suspect": 6170,
      "integrated": 6171,
      "selection": 6172,
      "frequency": 6173,
      "occasion": 6174,
      "September": 6175,
      "250": 6176,
      "Rw": 6177,
      "mm": 6178,
      "sque": 6179,
      "toy": 6180,
      "isl": 6181,
      "nels": 6182,
      "mood": 6183,
      "fraction": 6184,
      "prose": 6185,
      "ulated": 6186,
      "fulfill": 6187,
      "marter": 6188,
      "olds": 6189,
      "globally": 6190,
      "magical": 6191,
      "protecting": 6192,
      "speaker": 6193,
      "confused": 6194,
      "reports": 6195,
      "pengu": 6196,
      "capitalism": 6197,
      "daughters": 6198,
      "inspire": 6199,
      "Christmas": 6200,
      "routine": 6201,
      "ladies": 6202,
      "dedicated": 6203,
      "Democr": 6204,
      "Aug": 6205,
      "Ebola": 6206,
      "bind": 6207,
      "tles": 6208,
      "weed": 6209,
      "peer": 6210,
      "department": 6211,
      "sche": 6212,
      "expon": 6213,
      "documents": 6214,
      "robotic": 6215,
      "measuring": 6216,
      "reliable": 6217,
      "sisters": 6218,
      "balls": 6219,
      "deserve": 6220,
      "weapon": 6221,
      "sacred": 6222,
      "attached": 6223,
      "telescope": 6224,
      "95": 6225,
      "Adam": 6226,
      "Pan": 6227,
      "Sure": 6228,
      "rage": 6229,
      "yield": 6230,
      "omin": 6231,
      "wet": 6232,
      "aced": 6233,
      "loving": 6234,
      "proportion": 6235,
      "poison": 6236,
      "agger": 6237,
      "gray": 6238,
      "tape": 6239,
      "backwards": 6240,
      "stores": 6241,
      "drove": 6242,
      "axis": 6243,
      "accounts": 6244,
      "shopping": 6245,
      "nurses": 6246,
      "federal": 6247,
      "assumptions": 6248,
      "MS": 6249,
      "Never": 6250,
      "Port": 6251,
      "Revolution": 6252,
      "bid": 6253,
      "gust": 6254,
      "picking": 6255,
      "odds": 6256,
      "agic": 6257,
      "apor": 6258,
      "tip": 6259,
      "yours": 6260,
      "herit": 6261,
      "invas": 6262,
      "shoulder": 6263,
      "magnetic": 6264,
      "investing": 6265,
      "mult": 6266,
      "Really": 6267,
      "included": 6268,
      "Love": 6269,
      "printed": 6270,
      "suppose": 6271,
      "transparency": 6272,
      "anthrop": 6273,
      "Greek": 6274,
      "June": 6275,
      "Tit": 6276,
      "[\"": 6277,
      "smarter": 6278,
      "theme": 6279,
      "onaut": 6280,
      "veter": 6281,
      "opposed": 6282,
      "iff": 6283,
      "plain": 6284,
      "uncertainty": 6285,
      "bug": 6286,
      "prem": 6287,
      "genius": 6288,
      "joint": 6289,
      "presentation": 6290,
      "chaos": 6291,
      "asteroid": 6292,
      "industries": 6293,
      "failing": 6294,
      "purch": 6295,
      "mechanical": 6296,
      "consume": 6297,
      "habitat": 6298,
      "rarely": 6299,
      "storm": 6300,
      "flew": 6301,
      "established": 6302,
      "dialo": 6303,
      "elephant": 6304,
      "injury": 6305,
      "Central": 6306,
      "grapher": 6307,
      "entertainment": 6308,
      "lifestyle": 6309,
      "Bay": 6310,
      "Bab": 6311,
      "pse": 6312,
      "voc": 6313,
      "restrict": 6314,
      "sey": 6315,
      "whist": 6316,
      "shark": 6317,
      "phil": 6318,
      "disrupt": 6319,
      "underground": 6320,
      "stomach": 6321,
      "athlet": 6322,
      "gang": 6323,
      "hardly": 6324,
      "Nobel": 6325,
      "sleeping": 6326,
      "interacting": 6327,
      "diagram": 6328,
      "Robert": 6329,
      "Should": 6330,
      "consequence": 6331,
      "reminded": 6332,
      "parallel": 6333,
      "Mount": 6334,
      "Rome": 6335,
      "UK": 6336,
      "fought": 6337,
      "mim": 6338,
      "input": 6339,
      "informed": 6340,
      "ingu": 6341,
      "entered": 6342,
      "ota": 6343,
      "ida": 6344,
      "agency": 6345,
      "grain": 6346,
      "dish": 6347,
      "aze": 6348,
      "skull": 6349,
      "borrow": 6350,
      "foods": 6351,
      "electronic": 6352,
      "measures": 6353,
      "laid": 6354,
      "Both": 6355,
      "fires": 6356,
      "Whether": 6357,
      "Hollywood": 6358,
      "MA": 6359,
      "Sup": 6360,
      "Wall": 6361,
      "dating": 6362,
      "lored": 6363,
      "ado": 6364,
      "brow": 6365,
      "chances": 6366,
      "channel": 6367,
      "inven": 6368,
      "expans": 6369,
      "drivers": 6370,
      "legisl": 6371,
      "distur": 6372,
      "killer": 6373,
      "emphas": 6374,
      "directions": 6375,
      "announced": 6376,
      "clients": 6377,
      "Mean": 6378,
      "fascinated": 6379,
      "Willi": 6380,
      "Atlantic": 6381,
      "Wikiped": 6382,
      "Lou": 6383,
      "RS": 6384,
      "Woman": 6385,
      "gence": 6386,
      "pound": 6387,
      "tent": 6388,
      "tast": 6389,
      "reput": 6390,
      "rivers": 6391,
      "degrad": 6392,
      "ambit": 6393,
      "coin": 6394,
      "disorders": 6395,
      "crew": 6396,
      "chocolate": 6397,
      "scal": 6398,
      "Although": 6399,
      "supported": 6400,
      "footprint": 6401,
      "ethical": 6402,
      "racism": 6403,
      "simult": 6404,
      "apparently": 6405,
      "diabetes": 6406,
      "800": 6407,
      "Ra": 6408,
      "lf": 6409,
      "mone": 6410,
      "pion": 6411,
      "iring": 6412,
      "tray": 6413,
      "fool": 6414,
      "manager": 6415,
      "hire": 6416,
      "oldest": 6417,
      "Being": 6418,
      "pulling": 6419,
      "elected": 6420,
      "circles": 6421,
      "responses": 6422,
      "amongst": 6423,
      "mechanisms": 6424,
      "savings": 6425,
      "laptop": 6426,
      "flexible": 6427,
      "Martin": 6428,
      "Basically": 6429,
      "toilet": 6430,
      "igenous": 6431,
      "investors": 6432,
      "tragedy": 6433,
      "Ham": 6434,
      "Jack": 6435,
      "Muse": 6436,
      "apers": 6437,
      "tion": 6438,
      "tics": 6439,
      "alpha": 6440,
      "utical": 6441,
      "chief": 6442,
      "pel": 6443,
      "Things": 6444,
      "ulf": 6445,
      "agend": 6446,
      "whereas": 6447,
      "underlying": 6448,
      "archy": 6449,
      "founded": 6450,
      "economists": 6451,
      "vertical": 6452,
      "universities": 6453,
      "Micro": 6454,
      "pilot": 6455,
      "tattoo": 6456,
      "choosing": 6457,
      "Wikipedia": 6458,
      "UN": 6459,
      "bac": 6460,
      "mi": 6461,
      "mice": 6462,
      "anony": 6463,
      "orange": 6464,
      "orches": 6465,
      "acing": 6466,
      "forgotten": 6467,
      "ulous": 6468,
      "lighting": 6469,
      "designs": 6470,
      "viral": 6471,
      "mindset": 6472,
      "airport": 6473,
      "publish": 6474,
      "shore": 6475,
      "nearby": 6476,
      "planted": 6477,
      "located": 6478,
      "hotel": 6479,
      "sustainability": 6480,
      "diagnosis": 6481,
      "volunteers": 6482,
      "28": 6483,
      "Coun": 6484,
      "Gh": 6485,
      "bia": 6486,
      "rang": 6487,
      "theless": 6488,
      "ises": 6489,
      "arrange": 6490,
      "tery": 6491,
      "iment": 6492,
      "ula": 6493,
      "poorest": 6494,
      "span": 6495,
      "aceutical": 6496,
      "mud": 6497,
      "chosen": 6498,
      "relax": 6499,
      "hardware": 6500,
      "painted": 6501,
      "programming": 6502,
      "behavioral": 6503,
      "silk": 6504,
      "threatened": 6505,
      "constructed": 6506,
      "arrive": 6507,
      "significantly": 6508,
      "mixed": 6509,
      "motivated": 6510,
      "senior": 6511,
      "tension": 6512,
      "agricultural": 6513,
      "immigrants": 6514,
      "nutrients": 6515,
      "January": 6516,
      "Nat": 6517,
      "Oce": 6518,
      "PA": 6519,
      "sau": 6520,
      "reference": 6521,
      "tiv": 6522,
      "spots": 6523,
      "disap": 6524,
      "disability": 6525,
      "buried": 6526,
      "talent": 6527,
      "crush": 6528,
      "caring": 6529,
      "legit": 6530,
      "elsewhere": 6531,
      "circul": 6532,
      "mainly": 6533,
      "characteristics": 6534,
      "tube": 6535,
      "fiber": 6536,
      "navigate": 6537,
      "arrested": 6538,
      "recommend": 6539,
      "Antar": 6540,
      "paradigm": 6541,
      "Haw": 6542,
      "Jes": 6543,
      "dent": 6544,
      "aunt": 6545,
      "defe": 6546,
      "commod": 6547,
      "estimate": 6548,
      "seeking": 6549,
      "hier": 6550,
      "imaging": 6551,
      "farmer": 6552,
      "glad": 6553,
      "mploy": 6554,
      "survived": 6555,
      "promote": 6556,
      "improvement": 6557,
      "shops": 6558,
      "resistant": 6559,
      "Arabic": 6560,
      "elephants": 6561,
      "shadow": 6562,
      "August": 6563,
      "Net": 6564,
      "Sal": 6565,
      "Ten": 6566,
      "pour": 6567,
      "iso": 6568,
      "observe": 6569,
      "marry": 6570,
      "nerve": 6571,
      "warning": 6572,
      "figuring": 6573,
      "emerge": 6574,
      "earthqu": 6575,
      "Carol": 6576,
      "bags": 6577,
      "mysterious": 6578,
      "satellites": 6579,
      "Children": 6580,
      "discrimination": 6581,
      "Within": 6582,
      "ffered": 6583,
      ".]": 6584,
      "32": 6585,
      "BC": 6586,
      "NGO": 6587,
      "Sor": 6588,
      "Way": 6589,
      "aes": 6590,
      "gases": 6591,
      "jac": 6592,
      "alga": 6593,
      "melt": 6594,
      "lian": 6595,
      "lims": 6596,
      "otion": 6597,
      "suffered": 6598,
      "trace": 6599,
      "answered": 6600,
      "manif": 6601,
      "aws": 6602,
      "attan": 6603,
      "angles": 6604,
      "recovery": 6605,
      "thirds": 6606,
      "suggested": 6607,
      "covering": 6608,
      "remaining": 6609,
      "license": 6610,
      "prototype": 6611,
      "transparent": 6612,
      "professionals": 6613,
      "sculpture": 6614,
      "700": 6615,
      "Bet": 6616,
      "nti": 6617,
      "gods": 6618,
      "reduction": 6619,
      "needle": 6620,
      "finds": 6621,
      "2012": 6622,
      "tooth": 6623,
      "195": 6624,
      "limb": 6625,
      "physio": 6626,
      "profits": 6627,
      "facial": 6628,
      "30s": 6629,
      "Muslims": 6630,
      "smoking": 6631,
      "quarters": 6632,
      "paintings": 6633,
      "dynamics": 6634,
      "resilience": 6635,
      "adventure": 6636,
      "gonna": 6637,
      "29": 6638,
      "Bre": 6639,
      "Hen": 6640,
      "None": 6641,
      "ek": 6642,
      "ji": 6643,
      "inherent": 6644,
      "align": 6645,
      "orter": 6646,
      "astern": 6647,
      "unable": 6648,
      "cosmo": 6649,
      "Hello": 6650,
      "numer": 6651,
      "corn": 6652,
      "headed": 6653,
      "metabol": 6654,
      "listened": 6655,
      "spectacular": 6656,
      "Department": 6657,
      "concerns": 6658,
      "smooth": 6659,
      "teenagers": 6660,
      "racial": 6661,
      "surprisingly": 6662,
      "lux": 6663,
      "embedded": 6664,
      "Den": 6665,
      "Sp": 6666,
      "hattan": 6667,
      "pile": 6668,
      "voting": 6669,
      "ache": 6670,
      "chat": 6671,
      "output": 6672,
      "dose": 6673,
      "opens": 6674,
      "tel": 6675,
      "tied": 6676,
      "awn": 6677,
      "comparis": 6678,
      "probability": 6679,
      "funded": 6680,
      "invested": 6681,
      "bene": 6682,
      "predicted": 6683,
      "Congo": 6684,
      "Manhattan": 6685,
      "virtually": 6686,
      "compete": 6687,
      "hanging": 6688,
      "regardless": 6689,
      "ingredients": 6690,
      "ridiculous": 6691,
      "AM": 6692,
      "ES": 6693,
      "Mor": 6694,
      "Que": 6695,
      "Vir": 6696,
      "bars": 6697,
      "ias": 6698,
      "oo": 6699,
      "sized": 6700,
      "rein": 6701,
      "arc": 6702,
      "rolling": 6703,
      "soap": 6704,
      "ilty": 6705,
      "essence": 6706,
      "shine": 6707,
      "aint": 6708,
      "agencies": 6709,
      "relations": 6710,
      "governance": 6711,
      "reasonable": 6712,
      "harness": 6713,
      "sensory": 6714,
      "deliber": 6715,
      "mechanics": 6716,
      "nucle": 6717,
      "persist": 6718,
      "neuroscience": 6719,
      "optimistic": 6720,
      "shelter": 6721,
      "psychiat": 6722,
      "pipe": 6723,
      "lawyers": 6724,
      "Museum": 6725,
      "beneath": 6726,
      "Bon": 6727,
      "Del": 6728,
      "Im": 6729,
      "Jef": 6730,
      "Van": 6731,
      "dut": 6732,
      "fib": 6733,
      "uous": 6734,
      "waters": 6735,
      "alty": 6736,
      "ingly": 6737,
      "stig": 6738,
      "plom": 6739,
      "excell": 6740,
      "pros": 6741,
      "unde": 6742,
      "monkey": 6743,
      "monkeys": 6744,
      "2011": 6745,
      "counting": 6746,
      "primar": 6747,
      "prize": 6748,
      "representation": 6749,
      "interactive": 6750,
      "miracle": 6751,
      "discoveries": 6752,
      "competitive": 6753,
      "expanding": 6754,
      "bubbles": 6755,
      "advertising": 6756,
      "hormones": 6757,
      "dialogue": 6758,
      "GPS": 6759,
      "Scient": 6760,
      "Ze": 6761,
      "bby": 6762,
      "ona": 6763,
      "leep": 6764,
      "stages": 6765,
      "ilit": 6766,
      "aine": 6767,
      "safer": 6768,
      "intent": 6769,
      "flour": 6770,
      "scales": 6771,
      "farms": 6772,
      "ception": 6773,
      "subtle": 6774,
      "safely": 6775,
      "windows": 6776,
      "predictable": 6777,
      "activists": 6778,
      "astronaut": 6779,
      "sufficient": 6780,
      "precious": 6781,
      "Russian": 6782,
      "incentives": 6783,
      "accomplish": 6784,
      "barrier": 6785,
      "Blue": 6786,
      "stroke": 6787,
      "inevitable": 6788,
      "tackle": 6789,
      "balloon": 6790,
      "Foundation": 6791,
      "algae": 6792,
      "Detro": 6793,
      "Phi": 6794,
      "pup": 6795,
      "vary": 6796,
      "thro": 6797,
      "inks": 6798,
      "replaced": 6799,
      "erg": 6800,
      "tops": 6801,
      "stab": 6802,
      "workplace": 6803,
      "printer": 6804,
      "iveness": 6805,
      "guilty": 6806,
      "basket": 6807,
      "mature": 6808,
      "biom": 6809,
      "Arch": 6810,
      "breakthrough": 6811,
      "shooting": 6812,
      "burden": 6813,
      "fastest": 6814,
      "medicines": 6815,
      "prisoners": 6816,
      "separated": 6817,
      "occurs": 6818,
      "ecosystems": 6819,
      "southern": 6820,
      "frequently": 6821,
      "analyze": 6822,
      "Jewish": 6823,
      "expertise": 6824,
      "frozen": 6825,
      "Prize": 6826,
      "pyram": 6827,
      "Sweden": 6828,
      "currency": 6829,
      "exposure": 6830,
      "Ocean": 6831,
      "PT": 6832,
      "Unt": 6833,
      "eed": 6834,
      "trop": 6835,
      "wage": 6836,
      "remem": 6837,
      "reactions": 6838,
      "retire": 6839,
      "robust": 6840,
      "usions": 6841,
      "rescue": 6842,
      "seemingly": 6843,
      "cooperation": 6844,
      "spark": 6845,
      "bull": 6846,
      "marg": 6847,
      "charged": 6848,
      "Arctic": 6849,
      "successfully": 6850,
      "collectively": 6851,
      "Peter": 6852,
      "excite": 6853,
      "flows": 6854,
      "touched": 6855,
      "placing": 6856,
      "motivation": 6857,
      "nurse": 6858,
      "rays": 6859,
      "physicist": 6860,
      "vacu": 6861,
      "perceive": 6862,
      "bathroom": 6863,
      "Silicon": 6864,
      "pharmaceutical": 6865,
      "BM": 6866,
      "Ice": 6867,
      "Ug": 6868,
      "cart": 6869,
      "gory": 6870,
      "stead": 6871,
      "lihood": 6872,
      "loves": 6873,
      "dem": 6874,
      "reson": 6875,
      "poster": 6876,
      "disgust": 6877,
      "mato": 6878,
      "attribut": 6879,
      "mentor": 6880,
      "controlling": 6881,
      "incident": 6882,
      "household": 6883,
      "supporting": 6884,
      "approaches": 6885,
      "predictions": 6886,
      "texts": 6887,
      "wheelchair": 6888,
      "lawyer": 6889,
      "MRI": 6890,
      "Southern": 6891,
      "stairs": 6892,
      "incarcer": 6893,
      "Give": 6894,
      "Mark": 6895,
      "Sur": 6896,
      "tissues": 6897,
      "inhabit": 6898,
      "eradic": 6899,
      "whis": 6900,
      "females": 6901,
      "ille": 6902,
      "indigenous": 6903,
      "brick": 6904,
      "strand": 6905,
      "ensus": 6906,
      "20s": 6907,
      "paras": 6908,
      "insist": 6909,
      "Indeed": 6910,
      "burned": 6911,
      "confess": 6912,
      "neuron": 6913,
      "terrifying": 6914,
      "widely": 6915,
      "corporations": 6916,
      "guns": 6917,
      "extinction": 6918,
      "estimated": 6919,
      ".)": 6920,
      "Hel": 6921,
      "Wa": 6922,
      "fits": 6923,
      "kin": 6924,
      "naked": 6925,
      "sits": 6926,
      "tong": 6927,
      "ora": 6928,
      "merely": 6929,
      "instant": 6930,
      "lovely": 6931,
      "farming": 6932,
      "controls": 6933,
      "Organ": 6934,
      "performed": 6935,
      "improved": 6936,
      "folding": 6937,
      "civic": 6938,
      "cision": 6939,
      "Egypti": 6940,
      "agenda": 6941,
      "85": 6942,
      "Doc": 6943,
      "Make": 6944,
      "Put": 6945,
      "east": 6946,
      "laughter": 6947,
      "sket": 6948,
      "wand": 6949,
      "wings": 6950,
      "anes": 6951,
      "liament": 6952,
      "shed": 6953,
      "shout": 6954,
      "upset": 6955,
      "preh": 6956,
      "obes": 6957,
      "2014": 6958,
      "surely": 6959,
      "Island": 6960,
      "distingu": 6961,
      "2005": 6962,
      "involve": 6963,
      "officials": 6964,
      "throwing": 6965,
      "thrive": 6966,
      "sacrif": 6967,
      "adopted": 6968,
      "Nations": 6969,
      "Nature": 6970,
      "fusion": 6971,
      "iac": 6972,
      "pink": 6973,
      "zes": 6974,
      "enger": 6975,
      "stun": 6976,
      "roles": 6977,
      "ares": 6978,
      "augment": 6979,
      "fet": 6980,
      "contrad": 6981,
      "proposed": 6982,
      "restore": 6983,
      "brut": 6984,
      "afterwards": 6985,
      "rape": 6986,
      "posal": 6987,
      "attitude": 6988,
      "imagin": 6989,
      "calm": 6990,
      "operations": 6991,
      "alongside": 6992,
      "digest": 6993,
      "staying": 6994,
      "combat": 6995,
      "tower": 6996,
      "boards": 6997,
      "periods": 6998,
      "substance": 6999,
      "Haiti": 7000,
      "wireless": 7001,
      "prosperity": 7002,
      "Ethiop": 7003,
      "stereoty": 7004,
      "database": 7005,
      "Stanford": 7006,
      "primarily": 7007,
      "Fl": 7008,
      "Si": 7009,
      "Ver": 7010,
      "kilo": 7011,
      "pon": 7012,
      "punch": 7013,
      "sive": 7014,
      "het": 7015,
      "advis": 7016,
      "plank": 7017,
      "uration": 7018,
      "aps": 7019,
      "earning": 7020,
      "distract": 7021,
      "happier": 7022,
      "sons": 7023,
      "capability": 7024,
      "depth": 7025,
      "sentences": 7026,
      "imeter": 7027,
      "originally": 7028,
      "qualities": 7029,
      "ownership": 7030,
      "reefs": 7031,
      "skelet": 7032,
      "awkward": 7033,
      "Lab": 7034,
      "Mont": 7035,
      "divid": 7036,
      "glow": 7037,
      "nie": 7038,
      "rings": 7039,
      "tone": 7040,
      "tock": 7041,
      "stations": 7042,
      "whale": 7043,
      "wired": 7044,
      "trash": 7045,
      "butter": 7046,
      "cosm": 7047,
      "disappeared": 7048,
      "affair": 7049,
      "realistic": 7050,
      "marks": 7051,
      "versions": 7052,
      "landed": 7053,
      "clothing": 7054,
      "organizing": 7055,
      "leged": 7056,
      "traje": 7057,
      "Frid": 7058,
      "photography": 7059,
      "consult": 7060,
      "conflicts": 7061,
      "Phil": 7062,
      "honestly": 7063,
      "laughing": 7064,
      "promised": 7065,
      "heavi": 7066,
      "barriers": 7067,
      "Scott": 7068,
      "Rwanda": 7069,
      "simultaneously": 7070,
      "obesity": 7071,
      "Bob": 7072,
      "ID": 7073,
      "List": 7074,
      "Mach": 7075,
      "Sw": 7076,
      "fired": 7077,
      "gate": 7078,
      "tune": 7079,
      "intr": 7080,
      "theore": 7081,
      "stake": 7082,
      "entering": 7083,
      "rogen": 7084,
      "convert": 7085,
      "Third": 7086,
      "ulating": 7087,
      "shots": 7088,
      "spinal": 7089,
      "seless": 7090,
      "intri": 7091,
      "download": 7092,
      "2016": 7093,
      "avor": 7094,
      "transplant": 7095,
      "researcher": 7096,
      "northern": 7097,
      "nights": 7098,
      "glam": 7099,
      "microscop": 7100,
      "strongly": 7101,
      "gradually": 7102,
      "deadly": 7103,
      "secrets": 7104,
      "acceptable": 7105,
      "Pole": 7106,
      "garbage": 7107,
      "Cheers": 7108,
      "conducted": 7109,
      "insights": 7110,
      "hypothesis": 7111,
      "Viet": 7112,
      "scholar": 7113,
      "enforcement": 7114,
      "Until": 7115,
      "trajec": 7116,
      "Civ": 7117,
      "Count": 7118,
      "Lar": 7119,
      "Lord": 7120,
      "Sa": 7121,
      "cake": 7122,
      "iP": 7123,
      "nu": 7124,
      "sched": 7125,
      "inch": 7126,
      "ndrome": 7127,
      "rover": 7128,
      "traction": 7129,
      "shri": 7130,
      "bored": 7131,
      "club": 7132,
      "offers": 7133,
      "colony": 7134,
      "Asian": 7135,
      "charity": 7136,
      "perfection": 7137,
      "damaged": 7138,
      "emerged": 7139,
      "sticks": 7140,
      "propag": 7141,
      "extinct": 7142,
      "Voice": 7143,
      "General": 7144,
      "pione": 7145,
      "vacuum": 7146,
      "Vietnam": 7147,
      "120": 7148,
      "Budd": 7149,
      "Flor": 7150,
      "drew": 7151,
      "kers": 7152,
      "uine": 7153,
      "revers": 7154,
      "healing": 7155,
      "adol": 7156,
      "rix": 7157,
      "dear": 7158,
      "delight": 7159,
      "actively": 7160,
      "elite": 7161,
      "sheep": 7162,
      "viously": 7163,
      "surfaces": 7164,
      "stored": 7165,
      "pointing": 7166,
      "improving": 7167,
      "grandchildren": 7168,
      "Donald": 7169,
      "slides": 7170,
      "tricks": 7171,
      "hopes": 7172,
      "platforms": 7173,
      "opinions": 7174,
      "sperm": 7175,
      "trends": 7176,
      "category": 7177,
      "fragile": 7178,
      "Smith": 7179,
      "survivors": 7180,
      "sneak": 7181,
      "Jeff": 7182,
      "remembered": 7183,
      "Cy": 7184,
      "Cur": 7185,
      "Di": 7186,
      "bial": 7187,
      "dys": 7188,
      "edges": 7189,
      "beer": 7190,
      "comments": 7191,
      "unbeliev": 7192,
      "Ital": 7193,
      "partly": 7194,
      "realm": 7195,
      "lecture": 7196,
      "fles": 7197,
      "1970s": 7198,
      "drill": 7199,
      "biologists": 7200,
      "hydr": 7201,
      "experimental": 7202,
      "infections": 7203,
      "exception": 7204,
      "bombs": 7205,
      "preserve": 7206,
      "Palest": 7207,
      "electronics": 7208,
      "Ox": 7209,
      "Sund": 7210,
      "liness": 7211,
      "uity": 7212,
      "resh": 7213,
      "ena": 7214,
      "acies": 7215,
      "lium": 7216,
      "neys": 7217,
      "convey": 7218,
      "umes": 7219,
      "194": 7220,
      "corals": 7221,
      "otech": 7222,
      "begun": 7223,
      "profile": 7224,
      "trucks": 7225,
      "globalization": 7226,
      "volcan": 7227,
      "funds": 7228,
      "cuts": 7229,
      "explosion": 7230,
      "challenged": 7231,
      "copes": 7232,
      "suggesting": 7233,
      "participation": 7234,
      "gathered": 7235,
      "pregnancy": 7236,
      "Design": 7237,
      "dressed": 7238,
      "autonomous": 7239,
      "procedure": 7240,
      "rhythm": 7241,
      "reputation": 7242,
      "Ghana": 7243,
      "La": 7244,
      "Mer": 7245,
      "Sch": 7246,
      "Spain": 7247,
      "Time": 7248,
      "Ven": 7249,
      "dive": 7250,
      "file": 7251,
      "nes": 7252,
      "pond": 7253,
      "encoun": 7254,
      "leaf": 7255,
      "static": 7256,
      "meg": 7257,
      "cher": 7258,
      "rose": 7259,
      "excess": 7260,
      "Italy": 7261,
      "uctive": 7262,
      "server": 7263,
      "relatives": 7264,
      "healthier": 7265,
      "transmission": 7266,
      "aircraft": 7267,
      "regret": 7268,
      "graphics": 7269,
      "difficulty": 7270,
      "innocent": 7271,
      "targets": 7272,
      "uba": 7273,
      "session": 7274,
      "calculate": 7275,
      "golden": 7276,
      "sharp": 7277,
      "According": 7278,
      "revealed": 7279,
      "neutral": 7280,
      "symmetry": 7281,
      "categories": 7282,
      "pandemic": 7283,
      "philanthrop": 7284,
      "expansion": 7285,
      "Eve": 7286,
      "Out": 7287,
      "bin": 7288,
      "fancy": 7289,
      "ws": 7290,
      "reck": 7291,
      "enabled": 7292,
      "habits": 7293,
      "unlikely": 7294,
      "spider": 7295,
      "tage": 7296,
      "cert": 7297,
      "counsel": 7298,
      "1980s": 7299,
      "hardest": 7300,
      "plicity": 7301,
      "2006": 7302,
      "approxim": 7303,
      "musicians": 7304,
      "steal": 7305,
      "traditions": 7306,
      "panels": 7307,
      "remained": 7308,
      "terrorist": 7309,
      "glasses": 7310,
      "jumped": 7311,
      "Syria": 7312,
      "Islamic": 7313,
      "guarantee": 7314,
      "DH": 7315,
      "Gulf": 7316,
      "Mill": 7317,
      "March": 7318,
      "ais": 7319,
      "phere": 7320,
      "rank": 7321,
      "wich": 7322,
      "thumb": 7323,
      "threw": 7324,
      "anno": 7325,
      "rebuild": 7326,
      "encry": 7327,
      "pless": 7328,
      "coc": 7329,
      "spill": 7330,
      "disabled": 7331,
      "bucks": 7332,
      "offering": 7333,
      "attend": 7334,
      "imagery": 7335,
      "closing": 7336,
      "identities": 7337,
      "exped": 7338,
      "mush": 7339,
      "educate": 7340,
      "glu": 7341,
      "convict": 7342,
      "panic": 7343,
      "locations": 7344,
      "annual": 7345,
      "atomic": 7346,
      "Trump": 7347,
      "attractive": 7348,
      "dominant": 7349,
      "revenue": 7350,
      "bicycle": 7351,
      "elderly": 7352,
      "ambitious": 7353,
      "Virgin": 7354,
      "Uganda": 7355,
      "Florida": 7356,
      "33": 7357,
      "Bel": 7358,
      "ET": 7359,
      "Octo": 7360,
      "dan": 7361,
      "eleg": 7362,
      "hiding": 7363,
      "iel": 7364,
      "ogy": 7365,
      "utch": 7366,
      "loan": 7367,
      "deaf": 7368,
      "upside": 7369,
      "apy": 7370,
      "observed": 7371,
      "rence": 7372,
      "addiction": 7373,
      "facility": 7374,
      "Move": 7375,
      "Bron": 7376,
      "unemploy": 7377,
      "richer": 7378,
      "religions": 7379,
      "pollut": 7380,
      "smartphone": 7381,
      "scores": 7382,
      "variation": 7383,
      "demonstrate": 7384,
      "storage": 7385,
      "Obviously": 7386,
      "volunteer": 7387,
      "telescopes": 7388,
      "champion": 7389,
      "tweet": 7390,
      "chapter": 7391,
      "Detroit": 7392,
      "October": 7393,
      "BF": 7394,
      "Hy": 7395,
      "LA": 7396,
      "Roman": 7397,
      "Sar": 7398,
      "cab": 7399,
      "gg": 7400,
      "rating": 7401,
      "retin": 7402,
      "enables": 7403,
      "itar": 7404,
      "archa": 7405,
      "lia": 7406,
      "adm": 7407,
      "adays": 7408,
      "contemporary": 7409,
      "pling": 7410,
      "trapped": 7411,
      "tragic": 7412,
      "grave": 7413,
      "ureau": 7414,
      "dispar": 7415,
      "prey": 7416,
      "diplom": 7417,
      "instantly": 7418,
      "paraly": 7419,
      "smallest": 7420,
      "ski": 7421,
      "valid": 7422,
      "climbing": 7423,
      "breakfast": 7424,
      "shocked": 7425,
      "linear": 7426,
      "sweat": 7427,
      "dimension": 7428,
      "claims": 7429,
      "simulation": 7430,
      "regulation": 7431,
      "harmful": 7432,
      "intuition": 7433,
      "candidate": 7434,
      "decrease": 7435,
      "ignorance": 7436,
      "Girl": 7437,
      "Meanwhile": 7438,
      "Bal": 7439,
      "Cour": 7440,
      "Na": 7441,
      "aqu": 7442,
      "dump": 7443,
      "ij": 7444,
      "odo": 7445,
      "sink": 7446,
      "vice": 7447,
      "stones": 7448,
      "ghter": 7449,
      "roy": 7450,
      "unity": 7451,
      "artistic": 7452,
      "residents": 7453,
      "kingdom": 7454,
      "endless": 7455,
      "spray": 7456,
      "pride": 7457,
      "woke": 7458,
      "aks": 7459,
      "compounds": 7460,
      "storytelling": 7461,
      "completed": 7462,
      "subs": 7463,
      "controvers": 7464,
      "electrons": 7465,
      "radically": 7466,
      "predators": 7467,
      "Sea": 7468,
      "receiving": 7469,
      "immense": 7470,
      "believes": 7471,
      "cruel": 7472,
      "officers": 7473,
      "chrom": 7474,
      "gaps": 7475,
      "grief": 7476,
      "washing": 7477,
      "gathering": 7478,
      "exhibition": 7479,
      "excitement": 7480,
      "Chi": 7481,
      "cin": 7482,
      "mac": 7483,
      "nail": 7484,
      "ores": 7485,
      "sest": 7486,
      "rek": 7487,
      "asha": 7488,
      "oms": 7489,
      "beet": 7490,
      "ceiling": 7491,
      "amy": 7492,
      "amond": 7493,
      "urable": 7494,
      "polio": 7495,
      "sav": 7496,
      "blank": 7497,
      "genuine": 7498,
      "intervention": 7499,
      "Beat": 7500,
      "biod": 7501,
      "calories": 7502,
      "ocking": 7503,
      "badly": 7504,
      "Isn": 7505,
      "sensor": 7506,
      "ventions": 7507,
      "panel": 7508,
      "tracks": 7509,
      "Prof": 7510,
      "previously": 7511,
      "symbols": 7512,
      "extended": 7513,
      "perceived": 7514,
      "minimum": 7515,
      "frustrated": 7516,
      "lonely": 7517,
      "devastating": 7518,
      "precedented": 7519,
      "earthquake": 7520,
      "Eastern": 7521,
      "Little": 7522,
      "Power": 7523,
      "bum": 7524,
      "fest": 7525,
      "hunt": 7526,
      "hitting": 7527,
      "thresh": 7528,
      "inform": 7529,
      "injustice": 7530,
      "anz": 7531,
      "icop": 7532,
      "hai": 7533,
      "idge": 7534,
      "mold": 7535,
      "ador": 7536,
      "amine": 7537,
      "proven": 7538,
      "Its": 7539,
      "2013": 7540,
      "cuits": 7541,
      "trail": 7542,
      "harass": 7543,
      "grandparents": 7544,
      "consciously": 7545,
      "links": 7546,
      "judgment": 7547,
      "surrounding": 7548,
      "physician": 7549,
      "immigration": 7550,
      "anthro": 7551,
      "observation": 7552,
      "concentration": 7553,
      "encouraged": 7554,
      "knee": 7555,
      "pursue": 7556,
      "Henry": 7557,
      "cosmic": 7558,
      "intrigu": 7559,
      "Rather": 7560,
      "crop": 7561,
      "oven": 7562,
      "pir": 7563,
      "pix": 7564,
      "vag": 7565,
      "vents": 7566,
      "recon": 7567,
      "reminds": 7568,
      "enthus": 7569,
      "escap": 7570,
      "itudes": 7571,
      "peers": 7572,
      "aded": 7573,
      "unprecedented": 7574,
      "proved": 7575,
      "shocking": 7576,
      "mented": 7577,
      "syndrome": 7578,
      "socially": 7579,
      "highway": 7580,
      "cheese": 7581,
      "applying": 7582,
      "explains": 7583,
      "innovations": 7584,
      "activist": 7585,
      "airo": 7586,
      "profoundly": 7587,
      "hypothe": 7588,
      "Despite": 7589,
      "shifting": 7590,
      "items": 7591,
      "aggressive": 7592,
      "astonishing": 7593,
      "Microsoft": 7594,
      "BI": 7595,
      "Dou": 7596,
      "Emp": 7597,
      "LG": 7598,
      "bang": 7599,
      "kit": 7600,
      "lon": 7601,
      "tick": 7602,
      "hemis": 7603,
      "acknowledge": 7604,
      "rill": 7605,
      "compreh": 7606,
      "Sovi": 7607,
      "ultra": 7608,
      "realizing": 7609,
      "transmit": 7610,
      "capabilities": 7611,
      "factories": 7612,
      "camps": 7613,
      "chains": 7614,
      "Almost": 7615,
      "twist": 7616,
      "silver": 7617,
      "bacterial": 7618,
      "genetically": 7619,
      "telephone": 7620,
      "collaborative": 7621,
      "teenager": 7622,
      "emails": 7623,
      "vulnerability": 7624,
      "gravit": 7625,
      "chips": 7626,
      "overwhelming": 7627,
      "recipe": 7628,
      "Brook": 7629,
      "obstacles": 7630,
      "manifest": 7631,
      "Long": 7632,
      "Squ": 7633,
      "lions": 7634,
      "pause": 7635,
      "ati": 7636,
      "entry": 7637,
      "delay": 7638,
      "shit": 7639,
      "workforce": 7640,
      "izar": 7641,
      "turing": 7642,
      "crimes": 7643,
      "stays": 7644,
      "activate": 7645,
      "pairs": 7646,
      "crossing": 7647,
      "reflection": 7648,
      "temperatures": 7649,
      "observations": 7650,
      "frontal": 7651,
      "exhibit": 7652,
      "grocer": 7653,
      "chimpanzees": 7654,
      "abandoned": 7655,
      "anatomy": 7656,
      "customer": 7657,
      ".”": 7658,
      "Jane": 7659,
      "Mat": 7660,
      "Pho": 7661,
      "binary": 7662,
      "han": 7663,
      "hut": 7664,
      "iju": 7665,
      "nast": 7666,
      "uation": 7667,
      "toys": 7668,
      "stability": 7669,
      "propose": 7670,
      "agents": 7671,
      "genoc": 7672,
      "mayor": 7673,
      "mining": 7674,
      "2050": 7675,
      "agos": 7676,
      "closest": 7677,
      "parks": 7678,
      "capita": 7679,
      "structural": 7680,
      "animation": 7681,
      "planetary": 7682,
      "inclusive": 7683,
      "portrait": 7684,
      "speaks": 7685,
      "failures": 7686,
      "explaining": 7687,
      "silly": 7688,
      "genetics": 7689,
      "criminals": 7690,
      "baseball": 7691,
      "adapted": 7692,
      "initially": 7693,
      "sandwich": 7694,
      "conclude": 7695,
      "heaven": 7696,
      "ignored": 7697,
      "niture": 7698,
      "desperately": 7699,
      "preparing": 7700,
      "column": 7701,
      "ijuana": 7702,
      "\"]": 7703,
      "Dad": 7704,
      "Fund": 7705,
      "Jud": 7706,
      "Laugh": 7707,
      "Sir": 7708,
      "echo": 7709,
      "fate": 7710,
      "hug": 7711,
      "jelly": 7712,
      "mall": 7713,
      "infant": 7714,
      "neo": 7715,
      "neat": 7716,
      "backs": 7717,
      "precision": 7718,
      "wrap": 7719,
      "helicop": 7720,
      "generating": 7721,
      "homework": 7722,
      "Together": 7723,
      "domain": 7724,
      "Brown": 7725,
      "approached": 7726,
      "prediction": 7727,
      "specialized": 7728,
      "eaten": 7729,
      "interviewed": 7730,
      "halluc": 7731,
      "pleasant": 7732,
      "translation": 7733,
      "rubber": 7734,
      "Jesus": 7735,
      "Scientists": 7736,
      "tongue": 7737,
      "Bush": 7738,
      "Event": 7739,
      "Far": 7740,
      "Mac": 7741,
      "Str": 7742,
      "Still": 7743,
      "bend": 7744,
      "ki": 7745,
      "theast": 7746,
      "bean": 7747,
      "arest": 7748,
      "outbreak": 7749,
      "cel": 7750,
      "sures": 7751,
      "uncle": 7752,
      "grace": 7753,
      "aches": 7754,
      "channels": 7755,
      "blown": 7756,
      "countless": 7757,
      "possess": 7758,
      "regis": 7759,
      "facilities": 7760,
      "2003": 7761,
      "photographer": 7762,
      "label": 7763,
      "amplif": 7764,
      "correctly": 7765,
      "ISPR": 7766,
      "punishment": 7767,
      "stretch": 7768,
      "vegetables": 7769,
      "feminist": 7770,
      "advocate": 7771,
      "omeday": 7772,
      "CRISPR": 7773,
      "convenient": 7774,
      "millenni": 7775,
      "comparison": 7776,
      "anthropo": 7777,
      "Def": 7778,
      "Gover": 7779,
      "Men": 7780,
      "Mother": 7781,
      "ko": 7782,
      "ricul": 7783,
      "vy": 7784,
      "orn": 7785,
      "assets": 7786,
      "beating": 7787,
      "hab": 7788,
      "sail": 7789,
      "colored": 7790,
      "thane": 7791,
      "blings": 7792,
      "craw": 7793,
      "differenti": 7794,
      "hired": 7795,
      "natives": 7796,
      "labs": 7797,
      "engineered": 7798,
      "besides": 7799,
      "measurements": 7800,
      "soldier": 7801,
      "detection": 7802,
      "influenced": 7803,
      "chron": 7804,
      "wealthy": 7805,
      "philosopher": 7806,
      "primitive": 7807,
      "assumption": 7808,
      "physicists": 7809,
      "promising": 7810,
      "limitations": 7811,
      "blowing": 7812,
      "branches": 7813,
      "candidates": 7814,
      "pyramid": 7815,
      "36": 7816,
      "Mand": 7817,
      "Mag": 7818,
      "Sen": 7819,
      "duck": 7820,
      "jan": 7821,
      "ville": 7822,
      "wider": 7823,
      "thread": 7824,
      "repor": 7825,
      "ingen": 7826,
      "asters": 7827,
      "seal": 7828,
      "acious": 7829,
      "quad": 7830,
      "apps": 7831,
      "dilem": 7832,
      "stopping": 7833,
      "Church": 7834,
      "azz": 7835,
      "momentum": 7836,
      "passes": 7837,
      "Indust": 7838,
      "2001": 7839,
      "2004": 7840,
      "approved": 7841,
      "Alright": 7842,
      "fathers": 7843,
      "purposes": 7844,
      "Liber": 7845,
      "audiences": 7846,
      "sends": 7847,
      "furniture": 7848,
      "believing": 7849,
      "mobility": 7850,
      "striking": 7851,
      "hunting": 7852,
      "Prince": 7853,
      "graduated": 7854,
      "murder": 7855,
      "witnessed": 7856,
      "eliminate": 7857,
      "renewable": 7858,
      "squee": 7859,
      "Sorry": 7860,
      "Ethiopia": 7861,
      "Friday": 7862,
      "shrimp": 7863,
      "Bronx": 7864,
      "37": 7865,
      "Hig": 7866,
      "Ter": 7867,
      "Using": 7868,
      "aving": 7869,
      "bats": 7870,
      "bizar": 7871,
      "gross": 7872,
      "repet": 7873,
      "itable": 7874,
      "lever": 7875,
      "icial": 7876,
      "rip": 7877,
      "tips": 7878,
      "bruary": 7879,
      "wore": 7880,
      "couples": 7881,
      "uded": 7882,
      "intensive": 7883,
      "readers": 7884,
      "Start": 7885,
      "cript": 7886,
      "spacecraft": 7887,
      "charges": 7888,
      "classical": 7889,
      "robotics": 7890,
      "appearing": 7891,
      "nonprofit": 7892,
      "screaming": 7893,
      "medications": 7894,
      "ticket": 7895,
      "slip": 7896,
      "strike": 7897,
      "peaceful": 7898,
      "earliest": 7899,
      "compelling": 7900,
      "regularly": 7901,
      "historic": 7902,
      "anxious": 7903,
      "February": 7904,
      "executive": 7905,
      "absorb": 7906,
      "Similar": 7907,
      "Italian": 7908,
      "Eventually": 7909,
      "AT": 7910,
      "SS": 7911,
      "bite": 7912,
      "eu": 7913,
      "gif": 7914,
      "tact": 7915,
      "ua": 7916,
      "wrest": 7917,
      "rey": 7918,
      "refri": 7919,
      "esign": 7920,
      "soc": 7921,
      "cember": 7922,
      "artif": 7923,
      "olic": 7924,
      "essor": 7925,
      "aggreg": 7926,
      "spell": 7927,
      "ademy": 7928,
      "manner": 7929,
      "drought": 7930,
      "faction": 7931,
      "biases": 7932,
      "cycles": 7933,
      "tribes": 7934,
      "cheers": 7935,
      "lowest": 7936,
      "physicians": 7937,
      "grams": 7938,
      "queen": 7939,
      "expecting": 7940,
      "hormone": 7941,
      "stepped": 7942,
      "venture": 7943,
      "December": 7944,
      "posted": 7945,
      "client": 7946,
      "detailed": 7947,
      "demands": 7948,
      "isolation": 7949,
      "missions": 7950,
      "Turns": 7951,
      "assembly": 7952,
      "academ": 7953,
      "briefly": 7954,
      "Technology": 7955,
      "controversial": 7956,
      "Bible": 7957,
      "Fif": 7958,
      "yog": 7959,
      "inson": 7960,
      "itis": 7961,
      "rope": 7962,
      "rolled": 7963,
      "soever": 7964,
      "whatsoever": 7965,
      "urgent": 7966,
      "earned": 7967,
      "emen": 7968,
      "blah": 7969,
      "commission": 7970,
      "humanitarian": 7971,
      "dragon": 7972,
      "warri": 7973,
      "bedroom": 7974,
      "literacy": 7975,
      "describing": 7976,
      "reporting": 7977,
      "Boy": 7978,
      "bullet": 7979,
      "chairs": 7980,
      "mutations": 7981,
      "minister": 7982,
      "mammo": 7983,
      "schiz": 7984,
      "ritual": 7985,
      "branch": 7986,
      "voters": 7987,
      "refriger": 7988,
      "55": 7989,
      "Fo": 7990,
      "Gates": 7991,
      "Mel": 7992,
      "Narr": 7993,
      "Old": 7994,
      "bump": 7995,
      "cution": 7996,
      "anni": 7997,
      "rep": 7998,
      "reproduce": 7999,
      "orous": 8000,
      "bears": 8001,
      "acids": 8002,
      "metric": 8003,
      "forgot": 8004,
      "ril": 8005,
      "ctica": 8006,
      "bye": 8007,
      "empowered": 8008,
      "pread": 8009,
      "prevention": 8010,
      "selfish": 8011,
      "compound": 8012,
      "bian": 8013,
      "simplicity": 8014,
      "aza": 8015,
      "adder": 8016,
      "pretend": 8017,
      "supplies": 8018,
      "audio": 8019,
      "defining": 8020,
      "swer": 8021,
      "slower": 8022,
      "statist": 8023,
      "responded": 8024,
      "broadcast": 8025,
      "mosquitoes": 8026,
      "spinning": 8027,
      "bizarre": 8028,
      "Cons": 8029,
      "Dutch": 8030,
      "nap": 8031,
      "rican": 8032,
      "thy": 8033,
      "errors": 8034,
      "alarm": 8035,
      "seats": 8036,
      "icious": 8037,
      "unately": 8038,
      "pox": 8039,
      "redesign": 8040,
      "phy": 8041,
      "clue": 8042,
      "intimate": 8043,
      "specul": 8044,
      "adequ": 8045,
      "managers": 8046,
      "curricul": 8047,
      "tribe": 8048,
      "1990s": 8049,
      "regime": 8050,
      "harsh": 8051,
      "reaches": 8052,
      "burg": 8053,
      "accidents": 8054,
      "tends": 8055,
      "description": 8056,
      "pollen": 8057,
      "divor": 8058,
      "psychologist": 8059,
      "continuous": 8060,
      "achievement": 8061,
      "tumors": 8062,
      "translated": 8063,
      "scenes": 8064,
      "Super": 8065,
      "impression": 8066,
      "batteries": 8067,
      "siblings": 8068,
      "newspapers": 8069,
      "incentive": 8070,
      "Keep": 8071,
      "monitoring": 8072,
      "encouraging": 8073,
      "Fortunately": 8074,
      "penguins": 8075,
      "Antarctica": 8076,
      "fibers": 8077,
      "sacrifice": 8078,
      "Da": 8079,
      "bail": 8080,
      "jet": 8081,
      "ost": 8082,
      "rus": 8083,
      "alous": 8084,
      "liar": 8085,
      "rol": 8086,
      "expressed": 8087,
      "agent": 8088,
      "handful": 8089,
      "landing": 8090,
      "imagining": 8091,
      "uniform": 8092,
      "osomes": 8093,
      "connects": 8094,
      "relief": 8095,
      "circuits": 8096,
      "territory": 8097,
      "cardio": 8098,
      "threatening": 8099,
      "bridges": 8100,
      "packed": 8101,
      "authorities": 8102,
      "optimism": 8103,
      "traumatic": 8104,
      "absence": 8105,
      "Carolina": 8106,
      "trajectory": 8107,
      "biodiversity": 8108,
      "soccer": 8109,
      "47": 8110,
      "Sand": 8111,
      "glim": 8112,
      "jam": 8113,
      "len": 8114,
      "lined": 8115,
      "lades": 8116,
      "sin": 8117,
      "ongoing": 8118,
      "defic": 8119,
      "export": 8120,
      "mainst": 8121,
      "tier": 8122,
      "spont": 8123,
      "bugs": 8124,
      "fled": 8125,
      "intern": 8126,
      "intersection": 8127,
      "drum": 8128,
      "cared": 8129,
      "suppress": 8130,
      "fortune": 8131,
      "hopeful": 8132,
      "publicly": 8133,
      "vocal": 8134,
      "beautifully": 8135,
      "follows": 8136,
      "winds": 8137,
      "drawings": 8138,
      "Develo": 8139,
      "narratives": 8140,
      "July": 8141,
      "estimates": 8142,
      "Banglades": 8143,
      "athletes": 8144,
      "William": 8145,
      "duty": 8146,
      "Ba": 8147,
      "Hill": 8148,
      "Mis": 8149,
      "Tor": 8150,
      "Twenty": 8151,
      "lers": 8152,
      "mask": 8153,
      "someday": 8154,
      "zones": 8155,
      "tobac": 8156,
      "leverage": 8157,
      "staring": 8158,
      "los": 8159,
      "irony": 8160,
      "ading": 8161,
      "urge": 8162,
      "pole": 8163,
      "pron": 8164,
      "impul": 8165,
      "diver": 8166,
      "diamond": 8167,
      "uctor": 8168,
      "cultiv": 8169,
      "headlines": 8170,
      "risto": 8171,
      "array": 8172,
      "consent": 8173,
      "simplif": 8174,
      "risky": 8175,
      "screens": 8176,
      "paths": 8177,
      "refused": 8178,
      "terrified": 8179,
      "immers": 8180,
      "agreement": 8181,
      "gained": 8182,
      "worrying": 8183,
      "compassionate": 8184,
      "shelf": 8185,
      "impressive": 8186,
      "magnitude": 8187,
      "ratio": 8188,
      "ophren": 8189,
      "dictionary": 8190,
      "Titan": 8191,
      "Louis": 8192,
      "threshold": 8193,
      "FDA": 8194,
      "Jose": 8195,
      "LED": 8196,
      "bother": 8197,
      "batt": 8198,
      "figh": 8199,
      "mant": 8200,
      "sizes": 8201,
      "inity": 8202,
      "atts": 8203,
      "ised": 8204,
      "mere": 8205,
      "oton": 8206,
      "sole": 8207,
      "imal": 8208,
      "fract": 8209,
      "fraud": 8210,
      "explic": 8211,
      "ustrate": 8212,
      "atever": 8213,
      "restor": 8214,
      "Whatever": 8215,
      "formula": 8216,
      "contamin": 8217,
      "mines": 8218,
      "fined": 8219,
      "lasting": 8220,
      "orses": 8221,
      "visions": 8222,
      "...\"": 8223,
      "miser": 8224,
      "holders": 8225,
      "evolving": 8226,
      "appeal": 8227,
      "sensation": 8228,
      "microbial": 8229,
      "approaching": 8230,
      "damn": 8231,
      "diving": 8232,
      "package": 8233,
      "Audio": 8234,
      "mammal": 8235,
      "Turkey": 8236,
      "Singing": 8237,
      "constraints": 8238,
      "Soviet": 8239,
      "genocide": 8240,
      "Higgs": 8241,
      "schizophren": 8242,
      "tobacco": 8243,
      "Gand": 8244,
      "Try": 8245,
      "avi": 8246,
      "bass": 8247,
      "cree": 8248,
      "hated": 8249,
      "isions": 8250,
      "altru": 8251,
      "stum": 8252,
      "hey": 8253,
      "idi": 8254,
      "idal": 8255,
      "opy": 8256,
      "deter": 8257,
      "oked": 8258,
      "spher": 8259,
      "ameter": 8260,
      "decor": 8261,
      "angible": 8262,
      "signature": 8263,
      "morality": 8264,
      "trains": 8265,
      "Northern": 8266,
      "touching": 8267,
      "chromo": 8268,
      "crystal": 8269,
      "wedding": 8270,
      "accuracy": 8271,
      "emotionally": 8272,
      "institutional": 8273,
      "recycling": 8274,
      "receptors": 8275,
      "luxury": 8276,
      "Court": 8277,
      "Professor": 8278,
      "chromosome": 8279,
      "Homo": 8280,
      "Off": 8281,
      "Som": 8282,
      "Tes": 8283,
      "Water": 8284,
      "cable": 8285,
      "retail": 8286,
      "lith": 8287,
      "aby": 8288,
      "kee": 8289,
      "imper": 8290,
      "opard": 8291,
      "cancers": 8292,
      "suck": 8293,
      "tras": 8294,
      "friction": 8295,
      "distor": 8296,
      "sheets": 8297,
      "managing": 8298,
      "serves": 8299,
      "marijuana": 8300,
      "heading": 8301,
      "norms": 8302,
      "Too": 8303,
      "biologist": 8304,
      "kills": 8305,
      "fallen": 8306,
      "personalized": 8307,
      "skilled": 8308,
      "aneous": 8309,
      "pedest": 8310,
      "pencil": 8311,
      "ecological": 8312,
      "sections": 8313,
      "belly": 8314,
      "titude": 8315,
      "sadness": 8316,
      "contained": 8317,
      "Absolute": 8318,
      "Berlin": 8319,
      "nano": 8320,
      "assumed": 8321,
      "Educ": 8322,
      "peaks": 8323,
      "interpretation": 8324,
      "mathematicians": 8325,
      "Saharan": 8326,
      "Sunday": 8327,
      "mainstream": 8328,
      "48": 8329,
      "Bus": 8330,
      "Ul": 8331,
      "pto": 8332,
      "ubi": 8333,
      "useless": 8334,
      "enem": 8335,
      "stitution": 8336,
      "icy": 8337,
      "chol": 8338,
      "ules": 8339,
      "mapping": 8340,
      "bleed": 8341,
      "aft": 8342,
      "guards": 8343,
      "icked": 8344,
      "offices": 8345,
      "Beij": 8346,
      "patch": 8347,
      "cub": 8348,
      "Someone": 8349,
      "dreaming": 8350,
      "trading": 8351,
      "barrel": 8352,
      "fairness": 8353,
      "slave": 8354,
      "flowing": 8355,
      "division": 8356,
      "separation": 8357,
      "terrorists": 8358,
      "straightforward": 8359,
      "competing": 8360,
      "investigate": 8361,
      "comedy": 8362,
      "whistle": 8363,
      "unbelievable": 8364,
      "awe": 8365,
      "dumb": 8366,
      "ego": 8367,
      "lake": 8368,
      "rof": 8369,
      "sions": 8370,
      "infer": 8371,
      "asleep": 8372,
      "methane": 8373,
      "mobi": 8374,
      "feather": 8375,
      "golf": 8376,
      "composition": 8377,
      "mentally": 8378,
      "owners": 8379,
      "00s": 8380,
      "boats": 8381,
      "despair": 8382,
      "kindness": 8383,
      "findings": 8384,
      "planned": 8385,
      "engines": 8386,
      "cellular": 8387,
      "1950s": 8388,
      "equations": 8389,
      "arrang": 8390,
      "dropping": 8391,
      "typing": 8392,
      "expectancy": 8393,
      "pursuit": 8394,
      "forestation": 8395,
      "infectious": 8396,
      "synthesis": 8397,
      "anna": 8398,
      "lifes": 8399,
      "Georg": 8400,
      "alternatives": 8401,
      "cotton": 8402,
      "expressions": 8403,
      "flee": 8404,
      "fabulous": 8405,
      "strategic": 8406,
      "vacation": 8407,
      "magnific": 8408,
      "rejected": 8409,
      "desperate": 8410,
      "bonds": 8411,
      "Organization": 8412,
      "plankton": 8413,
      "flesh": 8414,
      "chromosomes": 8415,
      "Square": 8416,
      "grocery": 8417,
      "Open": 8418,
      "Rio": 8419,
      "Tony": 8420,
      "cence": 8421,
      "ipped": 8422,
      "informal": 8423,
      "acknowled": 8424,
      "lize": 8425,
      "wires": 8426,
      "ambig": 8427,
      "worms": 8428,
      "tear": 8429,
      "perpet": 8430,
      "yourselves": 8431,
      "reader": 8432,
      "highlight": 8433,
      "attitudes": 8434,
      "bottles": 8435,
      "economist": 8436,
      "subway": 8437,
      "viewer": 8438,
      "ashed": 8439,
      "equity": 8440,
      "equals": 8441,
      "Newton": 8442,
      "sixth": 8443,
      "freely": 8444,
      "protective": 8445,
      "messy": 8446,
      "communicating": 8447,
      "default": 8448,
      "refuse": 8449,
      "affecting": 8450,
      "nife": 8451,
      "origins": 8452,
      "Rights": 8453,
      "statistic": 8454,
      "raped": 8455,
      "crossed": 8456,
      "occurring": 8457,
      "soup": 8458,
      "appearance": 8459,
      "contribution": 8460,
      "teenage": 8461,
      "destroying": 8462,
      "randomly": 8463,
      "integrate": 8464,
      "priorit": 8465,
      "shifted": 8466,
      "manipulate": 8467,
      "enzymes": 8468,
      "dolphins": 8469,
      "geometry": 8470,
      "stabili": 8471,
      "steady": 8472,
      "Oxford": 8473,
      "hemisphere": 8474,
      "Absolutely": 8475,
      "42": 8476,
      "PC": 8477,
      "Tun": 8478,
      "pene": 8479,
      "ani": 8480,
      "reme": 8481,
      "lethal": 8482,
      "behalf": 8483,
      "ller": 8484,
      "adel": 8485,
      "adopt": 8486,
      "ifer": 8487,
      "sunam": 8488,
      "articul": 8489,
      "illustrate": 8490,
      "okes": 8491,
      "blur": 8492,
      "fulness": 8493,
      "vial": 8494,
      "march": 8495,
      "drones": 8496,
      "understands": 8497,
      "connectivity": 8498,
      "advances": 8499,
      "architectural": 8500,
      "rupted": 8501,
      "stressed": 8502,
      "consumed": 8503,
      "partnership": 8504,
      "fatal": 8505,
      "exercis": 8506,
      "historically": 8507,
      "substant": 8508,
      "Others": 8509,
      "stimul": 8510,
      "Build": 8511,
      "assistance": 8512,
      "replicate": 8513,
      "discipline": 8514,
      "Half": 8515,
      "skeleton": 8516,
      "Age": 8517,
      "Econom": 8518,
      "Naz": 8519,
      "bureau": 8520,
      "dirt": 8521,
      "ologists": 8522,
      "tsunam": 8523,
      "vity": 8524,
      "inches": 8525,
      "retain": 8526,
      "reactor": 8527,
      "tomato": 8528,
      "islands": 8529,
      "semin": 8530,
      "chess": 8531,
      "logo": 8532,
      "fever": 8533,
      "oples": 8534,
      "estate": 8535,
      "quot": 8536,
      "Young": 8537,
      "disabilities": 8538,
      "intensity": 8539,
      "epic": 8540,
      "cracy": 8541,
      "cream": 8542,
      "realities": 8543,
      "flaw": 8544,
      "drain": 8545,
      "generous": 8546,
      "minded": 8547,
      "interestingly": 8548,
      "classrooms": 8549,
      "Argent": 8550,
      "tendency": 8551,
      "attacked": 8552,
      "accountable": 8553,
      "accountability": 8554,
      "revolutionary": 8555,
      "cliff": 8556,
      "psychologists": 8557,
      "employment": 8558,
      "discovering": 8559,
      "journalism": 8560,
      "juven": 8561,
      "Secondly": 8562,
      "protocol": 8563,
      "pigs": 8564,
      "dictator": 8565,
      "breeding": 8566,
      "settled": 8567,
      "legitimate": 8568,
      "excellent": 8569,
      "wandering": 8570,
      "Civil": 8571,
      "Narrator": 8572,
      "enemies": 8573,
      "AL": 8574,
      "Ban": 8575,
      "Eric": 8576,
      "IM": 8577,
      "Mass": 8578,
      "aer": 8579,
      "dated": 8580,
      "hint": 8581,
      "mation": 8582,
      "mild": 8583,
      "returns": 8584,
      "auth": 8585,
      "deck": 8586,
      "suits": 8587,
      "unconscious": 8588,
      "Sol": 8589,
      "proceed": 8590,
      "torn": 8591,
      "clarity": 8592,
      "tale": 8593,
      "holi": 8594,
      "downtown": 8595,
      "compli": 8596,
      "lessness": 8597,
      "chef": 8598,
      "corners": 8599,
      "remembering": 8600,
      "Answer": 8601,
      "prisons": 8602,
      "deepest": 8603,
      "potent": 8604,
      "harmony": 8605,
      "marked": 8606,
      "representative": 8607,
      "Commun": 8608,
      "screening": 8609,
      "lized": 8610,
      "genesis": 8611,
      "bulb": 8612,
      "snap": 8613,
      "gardens": 8614,
      "dominated": 8615,
      "succeeded": 8616,
      "privileged": 8617,
      "discussions": 8618,
      ".'\"": 8619,
      "recruit": 8620,
      "anonymous": 8621,
      "paralyzed": 8622,
      "Brooklyn": 8623,
      "curriculum": 8624,
      "\"?": 8625,
      "Cont": 8626,
      "FO": 8627,
      "Kat": 8628,
      "Mike": 8629,
      "RNA": 8630,
      "aver": 8631,
      "vin": 8632,
      "thand": 8633,
      "anch": 8634,
      "resolve": 8635,
      "ativity": 8636,
      "erals": 8637,
      "envelo": 8638,
      "itative": 8639,
      "editor": 8640,
      "ardo": 8641,
      "abling": 8642,
      "peoples": 8643,
      "depos": 8644,
      "teens": 8645,
      "Social": 8646,
      "Though": 8647,
      "prope": 8648,
      "shorter": 8649,
      "bris": 8650,
      "ela": 8651,
      "preval": 8652,
      "mankind": 8653,
      "interconnected": 8654,
      "minus": 8655,
      "opera": 8656,
      "Peace": 8657,
      "purple": 8658,
      "grades": 8659,
      "travels": 8660,
      "analog": 8661,
      "copies": 8662,
      "Hope": 8663,
      "Hosp": 8664,
      "constitution": 8665,
      "wildlife": 8666,
      "folds": 8667,
      "PhD": 8668,
      "struggles": 8669,
      "laughed": 8670,
      "mutation": 8671,
      "delivering": 8672,
      "belongs": 8673,
      "priority": 8674,
      "libraries": 8675,
      "poems": 8676,
      "injured": 8677,
      "antibiotic": 8678,
      "initiative": 8679,
      "occasionally": 8680,
      "exponential": 8681,
      "Wait": 8682,
      "approximately": 8683,
      "nasty": 8684,
      "Industrial": 8685,
      "Cho": 8686,
      "DB": 8687,
      "Ly": 8688,
      "Publ": 8689,
      "Tel": 8690,
      "Ve": 8691,
      "horses": 8692,
      "knife": 8693,
      "lum": 8694,
      "yan": 8695,
      "independence": 8696,
      "atar": 8697,
      "enna": 8698,
      "ala": 8699,
      "aland": 8700,
      "allies": 8701,
      "imes": 8702,
      "rescu": 8703,
      "spat": 8704,
      "spons": 8705,
      "Inte": 8706,
      "obtain": 8707,
      "sciences": 8708,
      "interven": 8709,
      "irect": 8710,
      "bably": 8711,
      "insane": 8712,
      "Nove": 8713,
      "teaches": 8714,
      "ashes": 8715,
      "summar": 8716,
      "Indones": 8717,
      "arrow": 8718,
      "porno": 8719,
      "Canad": 8720,
      "sequences": 8721,
      "ogens": 8722,
      "recognizing": 8723,
      "angered": 8724,
      "functioning": 8725,
      "synap": 8726,
      "extension": 8727,
      "Except": 8728,
      "preventing": 8729,
      "targeted": 8730,
      "strengthen": 8731,
      "selected": 8732,
      "garage": 8733,
      "perceptions": 8734,
      "Joe": 8735,
      "assemble": 8736,
      "Cambridge": 8737,
      "surgeons": 8738,
      "colonies": 8739,
      "hackers": 8740,
      "width": 8741,
      "Beijing": 8742,
      "Aristo": 8743,
      "Hall": 8744,
      "Pre": 8745,
      "Plan": 8746,
      "UV": 8747,
      "bie": 8748,
      "fier": 8749,
      "fault": 8750,
      "uh": 8751,
      "western": 8752,
      "toss": 8753,
      "orph": 8754,
      "itivity": 8755,
      "belt": 8756,
      "outrage": 8757,
      "implant": 8758,
      "depart": 8759,
      "unclear": 8760,
      "April": 8761,
      "carries": 8762,
      "builds": 8763,
      "2030": 8764,
      "2017": 8765,
      "checking": 8766,
      "1960s": 8767,
      "computation": 8768,
      "computational": 8769,
      "topics": 8770,
      "waited": 8771,
      "excuse": 8772,
      "stell": 8773,
      "banking": 8774,
      "trusted": 8775,
      "analogy": 8776,
      "locally": 8777,
      "riding": 8778,
      "clinics": 8779,
      "variations": 8780,
      "ideology": 8781,
      "continuing": 8782,
      "nuts": 8783,
      "tubes": 8784,
      "accurately": 8785,
      "attempts": 8786,
      "codes": 8787,
      "museums": 8788,
      "migration": 8789,
      "Minister": 8790,
      "demonstrated": 8791,
      "slaves": 8792,
      "boost": 8793,
      "administration": 8794,
      "minority": 8795,
      "Sudden": 8796,
      "mimic": 8797,
      "legislation": 8798,
      "PTSD": 8799,
      "Laughs": 8800,
      "CS": 8801,
      "Cath": 8802,
      "Ko": 8803,
      "ST": 8804,
      "mum": 8805,
      "rh": 8806,
      "treas": 8807,
      "resem": 8808,
      "erness": 8809,
      "orphan": 8810,
      "entr": 8811,
      "forcing": 8812,
      "abul": 8813,
      "loans": 8814,
      "irs": 8815,
      "comic": 8816,
      "likelihood": 8817,
      "inder": 8818,
      "pockets": 8819,
      "cose": 8820,
      "covers": 8821,
      "donor": 8822,
      "phia": 8823,
      "overnight": 8824,
      "epi": 8825,
      "criter": 8826,
      "enses": 8827,
      "ords": 8828,
      "carri": 8829,
      "helpless": 8830,
      "counts": 8831,
      "generative": 8832,
      "idespread": 8833,
      "ordinarily": 8834,
      "Recent": 8835,
      "pollo": 8836,
      "doubled": 8837,
      "Leon": 8838,
      "Roy": 8839,
      "Probably": 8840,
      "associate": 8841,
      "Anyone": 8842,
      "hoped": 8843,
      "imeters": 8844,
      "landscapes": 8845,
      "Medic": 8846,
      "washed": 8847,
      "Daniel": 8848,
      "frog": 8849,
      "employee": 8850,
      "collapsed": 8851,
      "apolog": 8852,
      "nitrogen": 8853,
      "satisfaction": 8854,
      "overwhelmed": 8855,
      "shrink": 8856,
      "delicious": 8857,
      "cousin": 8858,
      "cigarette": 8859,
      "Govern": 8860,
      "Business": 8861,
      "magnificent": 8862,
      "November": 8863,
      "31": 8864,
      "EC": 8865,
      "Gl": 8866,
      "Has": 8867,
      "Had": 8868,
      "Nick": 8869,
      "Play": 8870,
      "Santa": 8871,
      "aves": 8872,
      "aven": 8873,
      "nom": 8874,
      "ored": 8875,
      "pad": 8876,
      "thood": 8877,
      "ini": 8878,
      "inate": 8879,
      "inser": 8880,
      "inery": 8881,
      "rethink": 8882,
      "torian": 8883,
      "isan": 8884,
      "ordered": 8885,
      "rob": 8886,
      "canvas": 8887,
      "teem": 8888,
      "kings": 8889,
      "blast": 8890,
      "cratic": 8891,
      "forecast": 8892,
      "surd": 8893,
      "courses": 8894,
      "matrix": 8895,
      "careers": 8896,
      "visiting": 8897,
      "190": 8898,
      "nerves": 8899,
      "airplanes": 8900,
      "facilit": 8901,
      "nightm": 8902,
      "distances": 8903,
      "musician": 8904,
      "investments": 8905,
      "describes": 8906,
      "activism": 8907,
      "photographed": 8908,
      "concert": 8909,
      "respected": 8910,
      "Post": 8911,
      "Point": 8912,
      "collaborate": 8913,
      "catching": 8914,
      "expanded": 8915,
      "taxes": 8916,
      "weakness": 8917,
      "smells": 8918,
      "immigrant": 8919,
      "gentleman": 8920,
      "coastal": 8921,
      "cracks": 8922,
      "installed": 8923,
      "purely": 8924,
      "simpler": 8925,
      "enhance": 8926,
      "frightening": 8927,
      "glaciers": 8928,
      "heritage": 8929,
      "distinguish": 8930,
      "Philadel": 8931,
      "Listen": 8932,
      "gravitational": 8933,
      "Consider": 8934,
      "Suddenly": 8935,
      "Philadelphia": 8936,
      "AG": 8937,
      "Dep": 8938,
      "HC": 8939,
      "Hind": 8940,
      "Know": 8941,
      "Lau": 8942,
      "Ms": 8943,
      "Native": 8944,
      "SB": 8945,
      "Tanz": 8946,
      "Watch": 8947,
      "fence": 8948,
      "mans": 8949,
      "pants": 8950,
      "pale": 8951,
      "rant": 8952,
      "widespread": 8953,
      "thetics": 8954,
      "reclaim": 8955,
      "onstage": 8956,
      "eda": 8957,
      "vet": 8958,
      "meals": 8959,
      "verb": 8960,
      "idering": 8961,
      "gear": 8962,
      "loose": 8963,
      "irts": 8964,
      "compromise": 8965,
      "shield": 8966,
      "gras": 8967,
      "phal": 8968,
      "assault": 8969,
      "sheer": 8970,
      "humili": 8971,
      "award": 8972,
      "vio": 8973,
      "triangle": 8974,
      "kidney": 8975,
      "iban": 8976,
      "generic": 8977,
      "passenger": 8978,
      "machinery": 8979,
      "Somebody": 8980,
      "chamber": 8981,
      "amazed": 8982,
      "sexy": 8983,
      "demographic": 8984,
      "footage": 8985,
      "truths": 8986,
      "destination": 8987,
      "cleaning": 8988,
      "contributing": 8989,
      "welfare": 8990,
      "struggled": 8991,
      "beaten": 8992,
      "efficiently": 8993,
      "tuna": 8994,
      "rituals": 8995,
      "shifts": 8996,
      "demonstration": 8997,
      "inevitably": 8998,
      "resilient": 8999,
      "recycled": 9000,
      "arguing": 9001,
      "tolerance": 9002,
      "shipping": 9003,
      "stigma": 9004,
      "astronauts": 9005,
      "heavily": 9006,
      "Palestin": 9007,
      "Virginia": 9008,
      "archae": 9009,
      "explicit": 9010,
      "Tanzan": 9011,
      "AS": 9012,
      "Au": 9013,
      "DC": 9014,
      "Fer": 9015,
      "FBI": 9016,
      "Stop": 9017,
      "Ted": 9018,
      "gains": 9019,
      "jung": 9020,
      "kn": 9021,
      "lion": 9022,
      "rats": 9023,
      "angu": 9024,
      "rev": 9025,
      "reinvent": 9026,
      "reconstruct": 9027,
      "enrich": 9028,
      "altogether": 9029,
      "sty": 9030,
      "roid": 9031,
      "pets": 9032,
      "nearest": 9033,
      "oppon": 9034,
      "depict": 9035,
      "worm": 9036,
      "plates": 9037,
      "prospect": 9038,
      "ilation": 9039,
      "shining": 9040,
      "sake": 9041,
      "phony": 9042,
      "clay": 9043,
      "interventions": 9044,
      "trips": 9045,
      "legally": 9046,
      "politic": 9047,
      "politically": 9048,
      "parenting": 9049,
      "continents": 9050,
      "sexually": 9051,
      "ierra": 9052,
      "horror": 9053,
      "practicing": 9054,
      "explored": 9055,
      "pathways": 9056,
      "terribly": 9057,
      "destiny": 9058,
      "bills": 9059,
      "continuously": 9060,
      "celebrated": 9061,
      "remarkably": 9062,
      "advantages": 9063,
      "broader": 9064,
      "juries": 9065,
      "documented": 9066,
      "backgrounds": 9067,
      "declared": 9068,
      "tunnel": 9069,
      "epidem": 9070,
      "Academy": 9071,
      "cartoons": 9072,
      "restaurants": 9073,
      "Greece": 9074,
      "Korean": 9075,
      "achieving": 9076,
      "Disney": 9077,
      "astronomers": 9078,
      "astroph": 9079,
      "mathematician": 9080,
      "cigarettes": 9081,
      "microscopic": 9082,
      "Similarly": 9083,
      "Fed": 9084,
      "Gab": 9085,
      "Mur": 9086,
      "Mod": 9087,
      "Nep": 9088,
      "Penn": 9089,
      "Rad": 9090,
      "SW": 9091,
      "lists": 9092,
      "oes": 9093,
      "ographic": 9094,
      "rons": 9095,
      "wins": 9096,
      "inction": 9097,
      "recess": 9098,
      "stad": 9099,
      "verbal": 9100,
      "chop": 9101,
      "chill": 9102,
      "absurd": 9103,
      "myths": 9104,
      "embod": 9105,
      "crap": 9106,
      "holy": 9107,
      "diameter": 9108,
      "aker": 9109,
      "wrist": 9110,
      "transcend": 9111,
      "Unlike": 9112,
      "openness": 9113,
      "temple": 9114,
      "bench": 9115,
      "40s": 9116,
      "exploit": 9117,
      "Deep": 9118,
      "Norway": 9119,
      "combinations": 9120,
      "swing": 9121,
      "prints": 9122,
      "prisoner": 9123,
      "losses": 9124,
      "enjoyed": 9125,
      "contrary": 9126,
      "presidential": 9127,
      "caves": 9128,
      "accelerate": 9129,
      "vascular": 9130,
      "Alexander": 9131,
      "assigned": 9132,
      "Saturn": 9133,
      "jihad": 9134,
      "Zealand": 9135,
      "throat": 9136,
      "tropical": 9137,
      "marginal": 9138,
      "Iceland": 9139,
      "subsid": 9140,
      "Catholic": 9141,
      "Grow": 9142,
      "Home": 9143,
      "Luck": 9144,
      "Mich": 9145,
      "Miss": 9146,
      "Ros": 9147,
      "Sel": 9148,
      "Seven": 9149,
      "Tri": 9150,
      "cort": 9151,
      "fans": 9152,
      "gus": 9153,
      "gical": 9154,
      "ological": 9155,
      "returning": 9156,
      "sectors": 9157,
      "metr": 9158,
      "admitted": 9159,
      "dop": 9160,
      "plast": 9161,
      "frames": 9162,
      "coat": 9163,
      "contest": 9164,
      "hibit": 9165,
      "marrow": 9166,
      "mono": 9167,
      "headline": 9168,
      "addy": 9169,
      "wheels": 9170,
      "passive": 9171,
      "passwords": 9172,
      "phosp": 9173,
      "programmed": 9174,
      "potato": 9175,
      "lingu": 9176,
      "consensus": 9177,
      "cataly": 9178,
      "rolls": 9179,
      "consuming": 9180,
      "pulls": 9181,
      "switched": 9182,
      "Having": 9183,
      "pills": 9184,
      "bowl": 9185,
      "rigid": 9186,
      "argued": 9187,
      "Hawai": 9188,
      "hierarchy": 9189,
      "NGOs": 9190,
      "Egyptian": 9191,
      "glucose": 9192,
      "Develop": 9193,
      "Bangladesh": 9194,
      "Georgia": 9195,
      "pornography": 9196,
      "criteria": 9197,
      "AR": 9198,
      "Eight": 9199,
      "Food": 9200,
      "Gi": 9201,
      "Jup": 9202,
      "Kev": 9203,
      "MB": 9204,
      "Pret": 9205,
      "Ray": 9206,
      "Read": 9207,
      "Sierra": 9208,
      "TK": 9209,
      "dough": 9210,
      "pens": 9211,
      "vivid": 9212,
      "thur": 9213,
      "iner": 9214,
      "revel": 9215,
      "alia": 9216,
      "chur": 9217,
      "peare": 9218,
      "thermal": 9219,
      "urs": 9220,
      "ody": 9221,
      "quo": 9222,
      "quer": 9223,
      "grasp": 9224,
      "elabor": 9225,
      "gotta": 9226,
      "stolen": 9227,
      "drone": 9228,
      "shoulders": 9229,
      "2020": 9230,
      "examine": 9231,
      "engers": 9232,
      "kespeare": 9233,
      "vised": 9234,
      "checked": 9235,
      "transis": 9236,
      "limbs": 9237,
      "menstr": 9238,
      "reasoning": 9239,
      "denial": 9240,
      "meets": 9241,
      "Secre": 9242,
      "drops": 9243,
      "marketplace": 9244,
      "activated": 9245,
      "loads": 9246,
      "catastroph": 9247,
      "neglect": 9248,
      "reflected": 9249,
      "websites": 9250,
      "sexuality": 9251,
      "jumping": 9252,
      "regulations": 9253,
      "documentary": 9254,
      "cowork": 9255,
      "Shakespeare": 9256,
      "Atlanta": 9257,
      "insulin": 9258,
      "repeatedly": 9259,
      "Olympics": 9260,
      "abundance": 9261,
      "mixt": 9262,
      "isode": 9263,
      "underest": 9264,
      "retirement": 9265,
      "County": 9266,
      "expedition": 9267,
      "Hospital": 9268,
      "Pretty": 9269,
      "38": 9270,
      "Ire": 9271,
      "aa": 9272,
      "hh": 9273,
      "lamp": 9274,
      "tz": 9275,
      "voted": 9276,
      "inated": 9277,
      "incess": 9278,
      "rehab": 9279,
      "toll": 9280,
      "tocin": 9281,
      "entit": 9282,
      "melo": 9283,
      "lobby": 9284,
      "deforestation": 9285,
      "proposal": 9286,
      "eline": 9287,
      "ieties": 9288,
      "realization": 9289,
      "manual": 9290,
      "offs": 9291,
      "interrog": 9292,
      "trium": 9293,
      "chemother": 9294,
      "cussion": 9295,
      "viewed": 9296,
      "modeling": 9297,
      "News": 9298,
      "Army": 9299,
      "Arthur": 9300,
      "spends": 9301,
      "origami": 9302,
      "transforming": 9303,
      "transformative": 9304,
      "ubble": 9305,
      "Johnson": 9306,
      "virtue": 9307,
      "integration": 9308,
[...]
